#version: 0.2
Ġ t
h e
Ġ a
i n
Ġt he
e r
o n
Ġ ,
r e
Ġ s
e d
Ġ w
Ġ o
n d
a t
Ġ .
o r
e n
Ġ c
i t
Ġ f
i s
e s
a r
Ġ b
Ġo f
a n
Ġ in
a l
in g
Ġ p
a s
Ġa nd
Ġt o
i c
r o
Ġ m
Ġ d
Ġ h
i on
l e
o u
Ġ T
Ġ re
Ġ =
Ġ S
i l
Ġ A
en t
Ġ "
Ġ 1
Ġt h
s t
Ġ l
e l
Ġ C
Ġ @
Ġ Ċ
Ġ e
o m
a m
Ġ n
a d
a c
Ġw as
u n
Ġ M
Ġ on
e c
Ġ B
ĠT he
l y
Ġ '
u r
e t
i d
Ġ g
o l
i m
Ġ I
- @
Ġ@ -@
Ġf or
i r
i g
i v
o t
t er
u t
Ġ H
Ġa s
u s
o w
it h
a y
Ġ 2
Ġs t
Ġ P
Ġ he
v er
at ion
Ġw ith
Ġb e
Ġth at
Ġ R
c e
Ġ D
e m
Ġw h
Ġ W
Ġb y
Ġ F
c h
Ġa l
t h
Ġ )
Ġ (
Ġ is
u l
Ġc on
Ġ L
Ġa t
Ġ G
er s
c t
Ġ N
a in
Ġ1 9
a nd
Ġa n
o s
Ġ it
he r
ro m
a g
a v
u m
Ġ J
es t
0 0
Ġh is
Ġ r
Ġ E
un k
Ġ <
r i
o d
Ġf rom
Ġ O
is t
Ġc om
a p
Ġp ro
Ġ v
o p
i f
o re
il l
l d
u p
er e
e w
re s
ig h
ĠI n
i es
Ġd e
ar t
b er
ar d
or t
Ġs e
Ġw ere
ic h
at e
a k
al l
a b
an t
o c
u d
Ġe x
on g
q u
Ġo r
Ġc h
g h
e ar
at ed
Ġp l
Ġs h
es s
it y
i p
Ġ K
iv e
am e
Ġ U
Ġ â
Ġh ad
ec t
ac k
ou r
Ġâ Ģ
ĠS t
Ġs u
re d
as t
s e
Ġwh ich
Ġ k
m ent
Ġ le
g e
u nd
Ġa re
o v
i an
i al
Ġn ot
Ġs p
el l
o st
Ġ y
igh t
Ġt r
or d
u st
ar y
i a
t her
r it
p t
in e
Ġ 3
ou n
ic al
av e
p p
ĠC h
Ġ2 00
Ġ un
c c
Ġin c
f ter
ou ld
Ġb ut
ir st
is h
ou s
ion s
Ġ V
t e
Ġcom p
s o
f f
Ġ2 0
id e
Ġw he
Ġ ro
u re
Ġa r
Ġcon t
r a
u b
Ġ ;
Ġf irst
ig n
Ġc l
w o
Ġhe r
i e
Ġit s
Ġthe ir
u e
ĠâĢ ĵ
o g
or m
as s
or k
Ġin t
Ġre s
Ġ :
o k
ĠH e
at er
Ġal so
Ġa b
Ġa d
om e
on d
ou t
ag e
r y
m er
i re
he d
Ġ us
d u
Ġ 4
im e
l ow
r u
Ġp er
p er
an s
Ġwh o
Ġon e
Ġh ave
Ġ 5
ĠT h
Ġs c
p l
al ly
ow n
i le
an ce
Ġre c
Ġ1 8
t ed
. @
Ġ@ .@
Ġt wo
it ion
u gh
re e
en ce
ur ing
p ort
Ġbe en
Ġp art
Ġb ec
t s
Ġh as
ic e
i z
Ġa g
Ġa pp
ĠA l
Ġ20 1
, @
Ġ@ ,@
ou gh
Ġ en
Ġ j
Ġd is
l ud
Ġo ver
Ġth is
Ġs er
or y
Ġy ear
el y
ation s
a re
em ber
ct ion
ou nd
k e
Ġof f
Ġa fter
Ġ up
ac h
Ġpl ay
Ġd es
l and
ĠI t
ac e
o ver
ar k
r ic
Ġthe y
Ġo ut
Ġt e
ad e
Ġo ther
ac t
Ġm an
i b
Ġ im
ul t
Ġinc lud
res s
c ed
a il
ur n
Ġ Y
w n
Ġw ould
en s
in d
Ġt ime
Ġint o
m an
Ġp re
an g
on e
ĠO n
e p
w ard
ĠU n
Ġh im
Ġw e
o in
w e
it e
at es
Ġs he
Ġ 6
l es
re n
Ġe v
ab le
Ġat t
as ed
il m
it ed
am p
e nd
e ver
i ed
as e
Ġcom m
or s
Ġin ter
ro ugh
oun t
o y
f orm
on s
Ġal l
Ġm ore
Ġw ork
o od
c es
Ġ 7
er ed
ol d
a w
ing s
v el
ĠA r
il d
Ġn ew
Ġs ec
ĠA n
Ġb et
ic k
os e
Ġwhe n
Ġf ilm
in al
v e
Ġf e
ent s
i ous
ak e
w ay
a us
f er
at t
re at
f t
Ġcon s
is s
ro und
Ġ 8
ĠM ar
Ġre m
g an
ri b
ro p
v ed
as on
Ġd ec
Ġd uring
Ġ und
or th
ub l
Ġag ain
h ip
Ġm ost
Ġg ame
Ġ 9
Ġp r
ĠA s
Ġthe m
Ġ19 9
Ġon ly
ot h
we en
Ġe ar
i x
ol low
Ġth an
at h
Ġs up
Ġn e
ation al
f ore
ĠS e
ĠN ew
Ġab out
Ġpro du
o b
Ġc ent
Ġk n
ter n
Ġre t
Ġch ar
Ġs ong
Ġc an
ou th
u g
Ġbet ween
Ġl ater
e y
Ġre le
Ġund er
Ġth ree
or n
ic t
Ġc ol
Ġa ct
h n
t on
i ew
Ġ 00
a id
r on
Ġth rough
al s
Ġ qu
or ld
Ġn um
ĠE n
o ok
Ġs o
Ġa cc
Ġm e
Ġre l
Ġwh ile
Ġe nd
mer ic
an k
ĠA meric
le ct
Ġf l
ter s
Ġp os
ĠL e
r al
oc k
Ġsu b
Ġas s
Ġwhe re
ul ar
at ing
Ġ ver
Ġd ay
Ġre g
Ġsec ond
Ġb u
en er
Ġm ade
ĠC om
am es
is ion
iv ed
c k
Ġp e
Ġrec ord
he s
Ġde f
b um
Ġf our
ĠR e
s on
Ġg ro
Ġf ollow
Ġse ason
Ġ00 0
Ġfor m
Ġs ome
Ġe p
Ġsu ch
is hed
Ġa m
Ġm ov
o ol
Ġbe fore
ain ed
Ġm us
Ġthe re
Ġw rit
p h
ĠJ o
ĠS p
Ġsp ec
ic s
i ke
Ġ1 0
Ġyear s
Ġte am
i el
Ġs y
i o
he n
od e
ĠTh is
ĠA t
Ġ /
id ent
u al
Ġl ar
Ġal bum
Ġin d
ow ever
il y
Ġus ed
Ġ ent
Ġg r
ro s
n ing
Ġc all
Ġs ur
if ic
Ġh igh
Ġa c
Ġp ubl
ur y
ĠS h
Ġbe ing
Ġep is
Ġthe n
vel op
Ġd o
Ġl oc
l ed
Ġex p
t en
if e
Ġagain st
Ġ1 7
Ġin v
a j
ot her
r is
Ġp res
Ġb l
an c
Ġnum ber
Ġsh ow
ĠA fter
Ġchar ac
Ġ 0
Ġse ver
Ġad d
Ġs et
Ġc o
in ce
an e
Ġbec ame
Ġre ce
j ect
ĠB rit
aus e
Ġle ad
Ġper form
Ġinclud ing
Ġb r
Ġs ing
Ġn o
ĠâĢ Ķ
ar s
at her
e k
er m
ĠUn ited
Ġf ound
Ġw ell
in es
Ġre p
Ġm on
Ġp ol
a ir
Ġb ack
Ġb oth
Ġser ies
Ġ19 8
Ġc ap
ĠS c
al e
Ġ1 5
Ġ1 2
o ber
Ġsh ip
i er
ow er
em ent
i red
u res
ĠC on
it s
Ġm ain
ĠW h
iv ers
Ġ19 4
ĠS he
er t
Ġm in
le y
p en
over n
Ġd id
i et
Ġg o
d er
Ġc re
el f
Ġde velop
Ġim p
ĠEn g
r am
it ies
Ġl ong
Ġm et
i k
an n
iv er
is ed
an y
v en
ol og
t ing
a red
ĠJo hn
Ġm ill
ir d
Ġe m
Ġa ir
u ch
f ul
Ġm at
Ġepis ode
te nd
a z
ire ct
l l
Ġs aid
Ġst ud
Ġman y
Ġb ro
ut e
Ġde p
Ġc ould
at ive
Ġor ig
Ġc ar
Ġ1 6
Ġcont in
Ġw ar
Ġsever al
ĠAmeric an
th ough
Ġd if
Ġin st
Ġp op
ĠI nd
ĠC l
as h
ou se
iel d
Ġkn own
Ġ19 7
em b
is e
u ally
Ġ19 6
t y
ĠA ust
Ġcon c
t il
ĠB r
Ġ1 1
i am
v iew
in s
ĠW ar
ers on
Ġo b
u ed
Ġret urn
Ġbe gan
Ġan y
Ġs m
Ġcomp le
Ġdes ign
Ġdes c
Ġs ign
er n
op le
ch ool
ros s
an ge
m y
Ġ est
ĠF r
ak ing
cc ess
Ġtr ans
Ġpro v
ĠD e
Ġfe at
o ot
h y
Ġin f
Ġr un
Ġear ly
Ġar t
Ġmus ic
Ġo wn
Ġd ist
a h
Ġn ear
Ġrele ased
id ed
Ġun til
ĠB l
r ap
Ġcall ed
iz ed
is m
Ġe ff
im es
ĠC ol
ĠU S
Ġres p
Ġb el
Ġp ass
un e
u red
st em
Ġf in
Ġ Z
ial ly
ĠM ay
ist s
Ġd own
ut ion
en n
Ġdis c
Ġc rit
ment s
os ed
Ġd irect
Ġg ener
Ġal ong
x t
Ġin s
Ġmill ion
Ġpre v
ĠBrit ish
ĠG er
Ġgro up
Ġoff ic
Ġf am
Ġ1 3
Ġthe se
aj or
i um
ul l
Ġm od
Ġm ay
Ġ $
a x
Ġo pen
ce pt
Ġm il
e b
Ġp oin
el s
ain s
ĠA d
Ġl and
Ġs im
g est
Ġhis t
Ġg overn
ĠA ug
g er
ĠSe pt
ĠB e
Ġsu ccess
Ġst r
ĠSept ember
ĠAug ust
er v
ĠSt ates
ĠW orld
Ġo per
Ġc ount
Ġatt ack
ib le
u c
Ġg u
Ġs ame
Ġus e
ĠA p
ward s
Ġdesc rib
Ġpe ople
et s
Ġcharac ter
ac ed
Ġbec ause
ĠF or
am ed
in k
ĠAl l
ain ing
ĠI s
Ġl ike
y p
Ġser v
Ġ1 4
ĠJ u
Ġa round
Ġth ough
Ġst art
av ing
Ġ19 5
Ġ ed
Ġk m
Ġw in
Ġcon st
Ġto ok
Ġo cc
u es
ĠAust ral
ru ct
Ġb att
ĠP l
ĠO ct
ĠGer man
n er
Ġan n
Ġsup port
p ed
ĠN ov
Ġfollow ing
Ġd r
Ġs ix
ov e
Ġn orth
ĠT r
Ġe le
Ġ19 3
ĠH owever
Ġsy stem
Ġapp ear
Ġ Q
Ã ©
Ġf inal
Ġrece ived
Ġcl ass
us s
ĠC ar
ĠOct ober
Ġcons id
Ġp rom
Ġhe ad
iv es
ant s
ĠD ec
Ġ19 1
il ity
Ġe ver
Ġst ate
Ġbu ild
en e
Ġe ach
ical ly
Ġf ive
l ing
Ġad v
Ġex t
an u
ĠP ro
Ġcent ury
ĠY ork
Ġa ut
Ġare a
Ġv ar
re t
Ġw ill
ĠThe y
Ġsm all
at ely
Ġb o
ro l
Ġpart ic
Ġl ife
g in
ĠN orth
iv ing
Ġre port
g et
Ġ ]
Ġ [
ore d
t le
ĠJ une
os s
ĠB y
ord ing
r il
Ġc ity
ĠM e
Ġm ajor
Ġwe ek
ĠK ing
Ġpubl ic
ian s
Ġm ar
ĠJu ly
Ġ %
iss ion
Ġcon f
Ġb and
ect ion
Ġre f
ĠNov ember
m ed
ur ch
ĠH ar
Ġre st
ĠCom m
Ġw orld
Ġs ince
ĠW ill
in c
Ġm ed
Ġsing le
in a
ra ft
ĠAp ril
es p
p or
l ish
Ġd et
ĠMar ch
Ġj ust
ri ed
Ġl ast
ĠP r
ect ed
om et
he st
ur al
ion al
Ġt urn
ĠE d
iv ely
Ġal low
a im
ĠM c
Ġhe l
il t
ĠC an
Ġ3 0
i ent
ĠG r
Ġar r
Ġp o
Ġle ft
ag ue
Ġlar ge
Ġl ine
Ġdif fer
id ge
Ġc are
ĠS outh
ĠG e
c l
Ġs outh
ĠD uring
al es
if ied
Ġb ook
Ġver s
Ġs chool
em pt
ĠDec ember
Ġth ird
r ist
av y
Ġs l
b le
Ġinc re
at s
ĠO r
Ġmon th
Ġd ue
Ġapp ro
in ed
Ġplay ed
. .
Ġm uch
Ġev ent
Ġ2 5
Ġ if
Ġan other
ro te
ĠJ anu
ĠJanu ary
Ġinclud ed
Ġ19 2
Ġwh at
ro w
Ġb ased
Ġpl ace
en g
Ġsh ort
ag ed
ĠI I
b y
Ġgovern ment
Ġex pl
ĠP h
og rap
Ġp erson
Ġw rote
ĠW hen
Ġtr ack
on y
b all
Ġc amp
Ġo ld
Ġt it
Ġn ame
ap an
Ġde ath
Ġb re
ent ly
al f
Ġp ort
Ġp h
ag es
ĠE u
Ġe lect
Ġ. ..
ĠJ apan
Ġw on
i ence
p le
Ġch ild
n e
Ġl it
Ġpro t
Ġk ill
Ġen g
Ġst ory
Ġpro g
ide o
Ġp ower
o ad
Ġre view
od y
Ġv is
Ġh ome
it al
Ġl ed
ĠB ro
Ġdescrib ed
Ġprev ious
Ġre qu
Ġc our
Ġfam ily
Ġg un
ĠT e
om an
Ġw ay
ot t
Ġn amed
Ġr ight
Ġn ow
ur ther
Ġd em
Ġev en
iv en
Ġm ake
i od
ĠM us
Ġm en
emb ers
il ar
Ġle g
g ed
ivers ity
Ġatt empt
is ter
re en
Ġb est
ent ion
it ions
om in
Ġ Â
Ġre pl
iv ision
Ġo pp
Ġ1 00
Ġg ames
c y
ren ch
a ff
ac hed
Ġt erm
ĠG u
Ġcomm and
Ġto p
i or
Ġh and
Ġpos s
iv al
Ġbel ie
Ġver y
Ġd am
Ġth ose
ĠH is
ĠA nd
n ess
ĠF eb
on t
ĠEu rop
m p
ru ary
ĠFeb ruary
Ġis s
Ġst ill
Ġor gan
Ġne xt
Ġspec ies
ĠF l
Ġeff ect
Ġv iew
ri end
an ces
s elf
ĠCh rist
Ġp ar
Ġcap t
ĠThe re
p s
ĠN ational
ak en
Ġorig inal
oc i
at ure
Ġsp e
en ces
Ġw ater
Ġadd ition
Ġj oin
o x
c hed
ĠEurop e
Ġl ist
s h
ĠW e
er y
Ġwith in
Ġper iod
Ġm embers
l u
Ġm ark
Ġhe ld
Ġbu ilt
ĠF rench
Ġde b
Ġex per
Ġrele ase
Ġ201 0
Ġal though
Ġl ate
Ġfor mer
h or
Ġg reat
Ġmat ch
ĠB ar
re w
al k
Ġs old
le v
Ġd est
a ugh
ut ed
Ġc ur
n ey
tend ed
Ġv ideo
l ine
Ġc aus
Ġst orm
ent ed
ĠW est
ard s
Ġc over
r ing
Ġin it
ĠP ar
Ġro le
Ġ2 1
rop ical
ĠWill iam
Ġc ame
Ġest ab
Ġa v
Ġt ri
Ġday s
Ġres ult
ĠA m
a f
Ġm id
Ġcont rol
pt ion
Ġst and
Ġre al
Ġpol it
ul ation
id es
Ġh owever
ec h
l er
ĠH er
it ary
a u
o on
he l
Ġ200 8
Ġc r
Ġm y
Ġ200 9
Ġpro p
Ġf ew
Ġto wn
ĠM in
Ġ X
as ter
Ġw ind
ĠGe or
en se
Ġy ou
Ġs ide
Ġt w
Ġ2 4
Ġcontin ued
Ġof ten
ak es
at ic
n a
Ġe qu
Ġloc al
Ġs k
Ġ201 1
ĠE ar
Ġp ost
Ġam ong
ĠM an
Ġs ay
Ġsim ilar
h am
ru ction
t al
ĠA ir
om b
ĠCh ar
ĠM ich
Ġcl aim
e ad
Ġh um
el t
es tern
g y
Ġ &
ĠEng land
om en
s ide
at or
re et
ĠN o
Ġdiffer ent
b r
Ġsu g
re ad
r act
le t
Ġbe h
Ġd el
Ġf urther
Ġt yp
y ing
es e
Ġs ent
ĠR ec
Ġle vel
v es
Ġconsid ered
Ġt ake
ĠD av
Ġl aw
olog y
Ġf re
Ġ200 7
Ġ2 2
op s
Ġcare er
et er
ĠOn e
p ar
ot s
Ġprodu ction
es c
Ġh alf
ur s
u ck
ĠP ark
Ġh aving
ic es
ĠC ity
amp ions
m s
ĠEng lish
ĠA cc
ap p
ĠE l
un g
Ġmov ed
Ġe ast
Ġro ad
Ġm ag
Ġan t
ĠC o
y l
Ġwith out
Ġever y
Ġw est
ĠAl though
m e
er ing
ro du
Ġapp e
Ġplay er
Ġ201 2
Ġpos ition
Ġbec ome
Ġpl an
ĠC ent
Ġhist ory
Ġvers ion
Ġcon v
Ġc or
ond on
ĠAn g
ron t
b o
ĠC ount
Ġc ast
Ġinf lu
ĠL ondon
Ġ el
Ġh ouse
ver s
c hes
Ġs ound
f ord
Ġcomm un
on es
y le
Ġf ore
Ġ2 3
ĠC al
Ġsug gest
Ġcl ub
iz e
Ġstr ong
Ġinv ol
ĠB att
Ġwrit ten
ir c
at ter
Ġ19 0
ĠW ith
Ġl ess
Ġb as
a ul
Ġst at
Ġann oun
ut es
Ġf oot
ĠR iver
Ġor der
ap e
Ġre fer
iet y
re st
ĠCan ad
Ġpro f
c raft
Ġpoin t
Ġg iven
se qu
Ġa ff
Ġt em
Ġl ow
Ġtr ad
Ġh ig
Ġw ant
ĠUn iversity
Ġg ave
ĠG ener
Ġr ad
i qu
Ġk e
ren t
Ġf ar
Ġim port
Ġn ever
ĠWh ile
Ġch ang
Ġdef e
ail ed
al d
Ġreturn ed
Ġp at
Ġs oc
or ies
Ġrep res
Ġto tal
Ġv ict
Ġt ro
Ġf act
Ġg ood
ĠH igh
ĠP ol
Ġcomp any
Ġw ent
Ġcount ry
al y
Ġcom b
Ġf ire
Ġf riend
c ess
Ġpubl ished
ro y
Ġh our
is on
s p
Ġprodu ced
g es
lev ision
Ġf ind
Ġreport ed
a un
Ġorig in
is c
Ġy oun
Ġ200 6
ab ly
Ġl ost
Ġst ated
a ign
Ġcomm on
Ġprog ram
il le
ĠE x
Ġpartic ular
Ġl ight
a i
Ġor d
Ġad m
ĠS m
ing ton
c on
Ġinclud e
ĠAcc ording
ec hn
ur ric
Ġcomp et
Ġrecord ed
us ed
Ġbuild ing
Ġp ress
g r
h ing
er r
ie f
Ġne ed
Ġpro ject
Ġfor ces
Ġb us
ĠS y
Ġn ort
Ġship s
Ġsh ould
Ġus ing
Ġe ight
Ġinter est
ĠA b
Ġperform ance
are n
Ġserv ice
Ġpop ular
Ġ2 7
ĠThe se
Ġ ide
pl oy
Ġ5 0
Ġt imes
im ent
ra w
Ġm aking
Ġ2 8
Ġair craft
Ġt en
Ġhim self
Ġ201 3
Ġaut hor
oy al
n ed
Ġf ather
Ġmil itary
t ain
in ess
ĠAustral ia
ĠS w
os p
Ġbatt le
Ġan im
ampions hip
le ar
ĠS ec
ĠJ ack
Ġs it
Ġl im
Ġsong s
Ġs omet
ĠAs s
at ch
Ġf r
Ġre ad
ou ther
ĠN e
a e
Ġcrit ic
ĠP res
ens ive
Ġdevelop ment
pl ay
ĠA f
it her
ord s
Ġh ow
ĠGener al
al th
Ġs w
it ive
qu ad
ol ution
ĠSt ate
Ġ4 0
ĠSt e
ed er
outher n
as es
ĠJ ames
Ġg l
Ġ18 9
Ġc ross
Ġ2 6
Ġg round
ĠD r
Ġf t
c er
Ġst ar
Ġrem ained
ĠC or
as tern
ac y
Ġcharac ters
ĠAr my
Ġn ational
Ġg et
Ġst e
Ġmonth s
Ġsu ff
Ġpres ent
Ġd ied
ric k
ol l
Ġg en
Ġdevelop ed
ri es
Ġtit le
ubl ic
ri e
w ork
Ġs um
Ġf un
ĠCom p
Ġch art
d om
Ġcamp aign
urric ane
Ġfor ce
Ġchild ren
ĠLe ague
f ic
um ent
re am
Ġint rodu
r ation
b s
Ġprom ot
Ġto ur
en cy
it ted
et h
ĠB o
Ġsign ific
Ġac ross
ist ed
land s
Ġs on
Ġa way
ĠG l
ress ion
Ġrel ations
a el
Ġre d
her n
Ġob s
Ġoffic ial
Ġf ield
Ġhist or
ĠD ivision
Ġf av
Ġp ra
Ġf elt
a ur
ĠAmeric a
le ge
Ġnot ed
Ġf ac
Ġn ight
m ost
Ġannoun ced
Ġre ached
ĠR uss
Ġinter n
ĠS im
Ġcre ated
ĠCount y
Ġare as
Ġdest roy
Ġte levision
ĠJapan ese
Ġ200 5
as k
Ġst ation
ĠR oad
ĠR ep
Ġc oun
al t
Ġsuccess ful
ress ed
o le
Ġro ck
im ately
Ġas k
ĠS up
Ġar m
ĠSt reet
v ent
Ġvar ious
y n
ĠâĢ Ļ
Ġv al
Ġpolit ical
Ġse en
re g
Ġfollow ed
Ġa ver
Ġto o
ĠM ad
Ġb ar
Ġr ank
Ġtr av
ĠM on
Ġperform ed
it ing
is ing
ĠR ober
Ġc ult
Ġser ved
ĠE ast
Ġ201 4
Ġplay ers
c ast
ĠGeor ge
i ber
ĠRe g
Ġ2 9
Ġf ull
Ġcon d
Ġdec l
Ġre v
Ġbe gin
Ġpr im
op e
du ct
Ġbl ack
al ity
in ation
ell ing
Ġf le
Ġp ut
Ġear l
Ġc irc
f ield
Ġc ost
id ence
Ġse e
Ġs ol
Ġpro cess
om p
he m
Ġst yle
ĠH en
ab or
Ġl ook
Ġt est
iz ation
Ġd iv
Ġse ven
Ġen c
ree k
ĠT o
Ġkill ed
Ġa ud
ay s
Ġhel p
ĠPh il
ric t
l ished
Ġle t
Ġthrough out
Ġv ol
Ġt aken
ĠS er
Ġt ropical
Ġab le
ĠB ill
Ġf ight
Ġdisc over
Ġn on
Ġag re
Ġlit tle
ert ain
Ġw id
ec ut
Ġbec om
Ġc y
Ġsignific ant
Ġa ge
Ġf em
ĠE m
et t
Ġme et
Ġh it
Ġ ident
Ġspec ial
Ġt echn
way s
Ġwrit ing
Ġ er
o ice
Ġst ruct
Ġthough t
Ġestab lished
ir l
Ġbro ad
Ġc op
en ced
Ġf ront
Ġb ody
Ġm m
Ġappe ared
Ġdo es
ĠDav id
ĠA ct
Ġent ire
ĠAustral ian
ĠP art
Ġcol l
ep end
Ġpoin ts
Ġco ast
Ġ !
Ġmil es
c il
ĠP er
Ġa ward
av al
Ġimp ro
Ġro ute
Ġm ember
ĠR ich
ough t
g round
Ġw omen
Ġact iv
Ġr ange
od es
ĠM or
Ġcaus ed
Ġstart ed
Ġdec ided
ri pt
ur g
iv il
ĠY ou
Ġfeat ures
lect ed
ĠAf ric
Ġgener al
ĠM ed
Ġp ain
Ġevent ually
d ay
l ess
av es
hy s
i ers
ir on
con om
ĠR oyal
Ġr ace
at ors
i ec
Ġv ot
m ing
st er
an a
Ġgro w
ĠP e
Ġman ag
Ġar ch
Ġfe et
id d
og n
Ġto get
Ġtoget her
Ġadd ed
ris on
Ġh old
ĠH ouse
ĠH ist
Ġc ut
i us
Ġon ce
Ġwh ite
Ġ18 8
he re
iv id
ĠM y
Ġform ed
amp le
Ġt re
Ġloc ated
l in
it ar
Ġn ov
Ġst ri
Ġar g
ĠS ch
Ġmod ern
Ġcon n
Ġinst ead
rough t
ber t
Ġro und
ĠQ u
em y
um b
m en
Ġ esc
ort s
ĠBl ack
ac es
Ġb all
Ġimport ant
h ic
Ġm ix
om m
ĠIn tern
ad es
Ġcre w
Ġp ri
Ġs aw
Ġa ction
ur b
Ġcomple ted
Ġ3 1
c ing
Ġre du
he ad
Ġplay ing
ect s
ĠInd ian
ĠO ther
one y
r ay
Ġ200 4
o ff
am ent
c ent
Ġins p
Ġpop ulation
Ġm ater
Ġinv est
e e
Ġb ase
Ġsur v
ĠMich ael
Ġm ot
ell s
Ġr ather
Ġv oc
Ġocc ur
Ġopen ed
Ġst age
Ġbeh ind
Ġother s
Ġ18 6
us h
Ġf all
Ġgun s
Ġbro ther
ce ed
as ing
Ġre n
Ġcom ment
Ġl ik
ign ed
Ġb orn
em ents
Ġf if
Ġs ite
Ġ201 5
Ġl ive
Ġwork s
ap s
Ġl oss
st it
ĠFr ance
Ġwork ed
Ġb omb
fic ult
Ġhe avy
Ġm iss
in t
Ġr a
Ġp red
Ġsub sequ
ĠS chool
Ġl ack
Ġpart y
med i
Ġpro ble
Ġdif ficult
Ġcl ose
le ction
wo od
Ġconst ruction
ĠW ash
Ġkn ow
ĠS ome
Ġrelations hip
Ġweek s
Ġh ost
Ġorigin ally
g g
Ġse par
Ġass oci
ĠH am
Ġup on
Ġpr act
ĠHen ry
Ġlead ing
Ġapp oin
nd er
Ġal most
ĠN or
Ġv ill
Ġyoun g
ĠRober t
Ġpe ak
Ġdam age
Ġin j
ar a
ist ic
Ġsc ored
ĠS an
Ġfour th
ĠP ort
Ġin form
Ġre ve
Ġ200 0
os ition
Ġprov ided
ar ch
ĠB est
Ġm er
ĠA le
u k
ĠMus ic
Ġc ase
Ġgo al
Ġcl os
Ġeng ine
an ch
Ġre b
Ġc reat
at a
Ġac cept
ĠBatt le
Ġsc ene
l ic
Ġm i
Ġhum an
bo ard
ĠV ir
Ġde v
ĠSt ar
Ġb rought
ĠD esp
or ing
ell ow
Ġf ree
Ġind ivid
Ġ5 00
ang u
Ġ18 7
Ġfeat ured
Ġm other
ĠPres ident
ĠR ed
ĠP aul
Ġle ast
Ġallow ed
Ġwork ing
Ġk ing
Ġres ul
Ġl aun
ĠC our
Ġaver age
Ġto wards
olog ical
Ġwant ed
ĠR ou
Ġtrad ition
Ġind ust
Ġreg ion
Ġbus iness
ĠWash ington
en ed
Ġtro ops
Ġpl aced
az ine
Ġqu ick
u le
Ġe ither
Ġresp ect
Ġoff ice
Ġcrit ics
ĠQ ue
Ġav ail
Ġv e
ant ic
Ġre ach
ĠC ap
Ġex ample
Ġm ult
ĠPl ay
Ġrun s
Ġmater ial
ĠM il
Ġprof ess
Ġh on
Ġe conom
Ġrec ogn
a ut
Ġw ife
ĠH ol
ul a
if f
Ġest im
ear ch
Ġar my
Ġne g
Ġf oc
o id
ch ie
ĠDesp ite
ent ial
Ġ200 3
i ol
ĠB el
Ġse x
ĠF ollow
re y
ar m
Ġs our
Ġgener ally
eng th
Ġjoin ed
Ġc e
Ġm ass
ĠA g
Ġr ail
quad ron
ĠTh om
Ġpro per
Ġd ou
am a
Ġcur rent
ĠAng el
ic a
ĠH ill
in o
Ġev ents
Ġrepres ent
Ġbelie ved
t o
ĠC up
v ing
our n
Ġpartic ip
Ġt er
Ġb ill
ĠFollow ing
ĠH all
Ġf ig
ĠG ame
en es
s c
ĠF irst
ĠM ary
u ff
Ġvict ory
Ġrepl aced
Ġ3 5
ĠG reat
b e
Ġdesign ed
Ġm ph
art ment
Ġr ul
Ġso on
Ġn omin
it ch
ict ion
Ġis land
ĠL ou
it te
Ġf und
z e
Ġhour s
ĠEurope an
Ġem ploy
ĠT wo
x ic
Ġpres ident
er ous
Ġinvol ved
g o
Ã ¡
om s
Ġsur f
ĠK e
Ġfin ished
ĠJ e
Ġst ru
al ed
ific ation
ĠCh ampionship
mer c
ĠG ro
ap er
as ion
Ġbre ak
w est
in ist
k y
Ġsay ing
f all
u el
o or
Ġh or
Ġcour t
Ġth reat
Ġsh ot
Ġopen ing
Ġsc ore
ĠM art
ĠR oman
Ġreg ular
ag o
em or
ke y
Ġdirect or
Ġl ength
Ġ Ã
Ġdes p
Ġind ic
Ġcon duct
Ġlar gest
ĠL a
Ġcont rib
ĠSc ott
Ġposs ible
ecut ive
Ġun c
Ġhigh way
Ġmin utes
ĠRou te
Ġs outhern
Ġ ill
ĠD an
Ġ z
Ġd ro
v ille
B C
ĠM al
Ġex c
Ġhig hest
Ġl y
Ġrem ov
Ġearl ier
ish ing
ĠF rom
Ġinit ially
ĠD on
Ġ200 1
and er
o f
Ġh om
Ġavail able
Ġparticular ly
Ġper cent
ant ry
ĠAt l
n ow
ann ed
c o
Ġtr aining
ud e
Ġse qu
le g
Ġh ard
ĠRep ublic
ĠS ing
Ġfor ced
Ġex ist
ĠC ro
Ġm ust
ĠM et
p ly
in n
c her
Ġgr ad
ĠW il
Ġcont r
ar n
ĠChar les
ĠKing dom
ĠN avy
ight s
ĠV al
ĠÂ °
Ġp ark
h ib
id ing
Ġend ed
Ġresp ons
Ġqu ar
ĠM ac
ograp hy
as y
Ġturn ed
ate g
Ġsoc ial
ĠThom as
ĠIntern ational
ou l
ip p
Ġw all
ĠO ff
ut ure
Ġstud io
ri an
if orn
Ġch ange
Ġl angu
Ġpra ised
ĠVir gin
em s
Ġpass ed
ĠD ep
Ġh y
ĠMc C
ĠWh ite
Ġincre ased
Ġp iec
Ġob ject
Ġpr iv
ĠB ut
Ġh urricane
b or
ĠM ag
Ġed uc
Ġreg ard
Ġnort hern
at ural
ĠBro wn
he ast
Ġ200 2
ĠR es
Ġke ep
Ġcent ral
ĠCh urch
i ation
Ġp hys
Ġnov el
ĠB er
ĠCanad a
Ġrel ig
Ġappear ance
ĠCal iforn
Ġun its
Ġspe ed
s el
it or
Ġsup er
ers hip
Ġp ast
ĠP al
Ġch urch
Ġst op
Ġim medi
end ed
ank s
oc r
ĠSm ith
ĠR ock
Ġsy m
Ġord ered
Ġme as
ĠC am
augh ter
Ġdis p
Ġt reat
ĠB ay
u ter
ĠS en
i os
Ġt aking
fer ence
ĠRich ard
itte e
Ġind epend
Ġsign ed
Ġl ove
Ġmov e
Ġqu est
and ing
ĠCaliforn ia
Ġa chie
ĠAle x
st on
il ities
Ġbet ter
ĠS am
et work
re m
ĠUn ion
v al
ak er
pp ed
Ġp ers
iqu e
ĠS l
ĠG overn
ec ess
d en
ar ily
Ġwind s
ĠI r
ĠIs land
Ġcom merc
Ġen ough
Ġpos itive
ag on
Ġin n
Ġw at
ap t
Ġacc ording
ĠCour t
Ġsp ent
ear s
Ġh ous
ĠG od
Ġgo ing
r ated
r up
ĠM o
Ġab ove
Ġout side
ell ed
Ġs low
Ġa p
Ġfilm s
n el
um p
Ġp ot
Ġfe el
um e
Ġto ld
id s
Ġfoot ball
ĠV ict
ĠA ward
ĠC ong
Ġprevious ly
Ġrecord ing
Ġc lear
Ġst ates
qu are
Ġ199 0
Ġme an
ĠM ill
ĠAss oci
u ation
Ġn ine
ĠU p
Ġf ailed
Ġsub ject
Ġass ist
Ġcom e
us ion
ĠComp any
Ġrequ ired
Ġp ur
ĠJ os
Ġele ments
Ġpro b
os ing
ren g
Ġ6 0
ĠGerman y
ĠInd ia
al ion
c om
k s
Ġe y
Ġreview s
ed y
Ġinter view
Ġc ru
Ġl ower
Ġpart s
ĠC r
ĠSt ud
t r
Ġ4 5
Ġits elf
at in
ĠAr t
Ġth ink
ĠP eter
ĠChrist ian
Ġp ay
Ġdirect ed
id a
op h
ĠM ark
Ġn ar
Ġab s
Ġdesp ite
f or
it z
Ġs il
Ġf low
Ġc red
Ġ esp
Ġcont ract
ĠG old
Ġ18 5
and s
ĠA c
ĠTh at
Ġdeb ut
Ġph ot
ĠM er
Ġ ?
ĠÂ £
Ġr ain
ib ility
ĠT imes
ĠN Y
er ved
read y
Ġacc ess
is l
Ġbegin ning
Ġgroup s
ĠT om
ĠCol lege
he t
ok e
Ġv iol
n es
Ġs ection
Ġbe g
ĠU K
Ġwh ose
on na
ĠS ov
as ons
Ġclaim ed
hest er
ow s
Ġask ed
ĠC ast
ĠW estern
Ġintern ational
Ġl ines
Ġtrans fer
b ers
ĠP at
Ġr ap
Ġc ou
Ġst reng
Ġg ive
Ġsc reen
ĠSov iet
on se
air s
rie f
Ġaddition al
ain t
Ġf uture
ab ility
Ġle ague
Ġk ey
Ġwh om
ĠMe xic
ĠFr ank
Ġpo or
ĠSp an
ber g
m a
Ġg old
ĠF ilm
ĠA wards
ac ted
Ġintrodu ced
Ġtrav el
Ġb i
Ġc he
Ġfor t
Ġev idence
Ġo p
ly ing
Ġpre m
Ġse a
Ġide a
Ġquick ly
Ġd on
ĠGr and
ig an
k i
ĠD em
Ġal ready
v an
Ġcent er
Ġbr idge
ĠD o
Ġfre qu
ĠFor ce
on st
Ġele ction
Ġprodu ct
ĠS oc
ĠM ost
Ġocc up
ĠB en
Ġex cept
Ġ197 0
Ġde al
us p
at ory
ec ially
Ġp il
ĠC oun
Ġus ually
Ġarr ived
Ġmus ical
Ġ198 0
Ġw estern
and ed
Ġp en
e um
ir th
Ġbl ock
m ar
Ġrad io
ĠBrit ain
Ġc al
Ġ3 2
l iam
Ġc ivil
ar ing
er gy
e al
ul ly
Ġfem ale
Ġsomet imes
e x
Ġstud y
ĠR ob
Ġresp onse
b ack
Ġcy cl
Ġf ood
Ġm oney
Ġdec ision
Ġmag azine
Ġesp ecially
ĠD ay
Ġiss ue
s hip
ĠL ater
Ġen v
ĠO ver
liam ent
ĠP ac
ĠH ot
ĠVict or
Ġsurf ace
it es
Ġfl ood
Ġm ight
Ġl ab
Ġlit er
Ġcar ried
Ġshow s
Ġgu itar
ĠCh ic
Ġcommun ity
Ġestim ated
b our
Ġconst ruct
un t
Ġrem ain
Ġrem aining
Ġ199 9
Ġe astern
Ġmin or
Ġdefe ated
Ġdet erm
ec k
ĠVirgin ia
ĠEar ly
Ġappro x
Ġlar ger
in ent
ess ion
Ġbecom ing
ar ies
Ġcomple te
ĠM ount
Ġpol ice
Ġw ood
Ġsuggest ed
por ary
Ġmed ia
Ġpress ure
Ġent ered
Ġsh oot
ĠB ur
ĠFr anc
Ġteam s
ĠI m
Ġcommerc ial
Ġl atter
Ġly ric
Ġmark et
ĠL os
Ġconsid er
Ġstud ents
Ġd oc
ĠJ ust
Ġsur round
if t
Ġinvest ig
er ve
s s
Ġb rief
as c
Ġconc ern
Ġ3 6
Ġperson al
ĠSec ond
Ġ8 0
Ġl o
Ġc ertain
Ġpr ison
ul f
Ġdisc uss
ĠI f
ĠTe x
Ġac qu
en a
in ct
ĠIn f
Ġeffect s
ĠJack son
Ġcomple t
Ġappoin ted
Ġb ur
Ġsum mer
Ġh op
Ġepis odes
eder al
Ġpri or
all ed
g en
ac ing
inc ip
ĠF le
ch ange
Ġd er
Ġs ize
ent h
Ġst aff
Ġe mer
Ġchang es
is es
ĠFl or
ĠLou is
Ġcomm ission
Ġs at
ĠO ly
Ġwin ning
Ġlim ited
Ġt ar
Ġsc enes
im ate
Ġle aving
Ġdestroy ed
Ġfle et
Ġr iver
ĠOly mp
ul ated
Ġd raw
ĠCl ub
N A
ĠSpan ish
Ġs elf
Ġright s
Ġd en
Ġprov ide
Ġwrit er
ourn al
ig ade
Ġtyp e
id ents
Ġpol ic
Ġf ail
i res
Ġd ate
ve y
h an
Ġter rit
Ġprop osed
ens ion
Ġinflu ence
Ġt rib
Ġg irl
ĠPart y
Ġ7 5
Ġover all
Ġarr ang
est s
Ġstruct ure
s u
Ġtrans port
Ġ196 0
Ġ18 4
t ies
Ġt ax
is er
Ġequ ip
Ġcont ro
Ġd ivision
Ġk il
s y
Ġsc ript
ĠG reen
ines e
Ġ3 00
ĠAssoci ation
Ġagre ed
Ġro om
Ġin tended
ir al
y r
ore s
ĠEd ward
Ġrun ning
Ġant i
Ġj ud
ĠChic ago
Ġd aughter
Ġb ow
Ġbroad cast
Ġnear ly
Ġp urch
Ġsupport ed
end ing
Ġb ig
Ġde ep
Ġres earch
ĠM any
ĠP ri
Ġw ide
Ġestab lish
Ġhel ped
ĠAd m
im um
at ives
Ġmar ried
Ġmov ement
ĠCh inese
Ġ199 8
Ġaward ed
t t
I I
ad ed
ĠD u
ĠCoun cil
Ġl ay
Ġmult ip
ĠS ong
A F
ĠO per
Ġcre ate
Ġfav or
Ġdis play
Ġint ens
at ively
l o
Ġd i
Ġb ird
Ġd ark
ĠEn ter
Ġs usp
qu e
r d
Ġdis s
Ġst ars
p ris
te en
g a
ĠE v
Ġlong er
il es
ĠCon t
Ġlangu age
Ġhig her
s en
Ġpl anned
Ġcomp ared
Ġcapt ured
d le
Ġincre asing
Ġf ans
Ġst ay
ĠR o
Ġconc lud
Ġcour se
h a
Ġchang ed
sel ves
Ġexper ience
ĠJohn son
Ġapprox imately
ĠS erv
Ġrel ated
Ġd one
Ġfeat ure
Ġfif th
Ġl iving
Ġc at
Ġthem selves
om er
ĠE mp
ound s
ron ic
Ġprodu cer
ĠHist ory
ent y
t ained
ĠK ore
ĠIt al
Ġtem per
Ġtrack s
Ġmost ly
Ġsp ace
ĠPac ific
ĠL it
Ġwith d
is ions
ab it
b urg
ĠBill board
Ġth us
Ġ7 0
Ġ -
Ġ3 3
Ġw oman
Ġoper ations
Ġrem ains
Ġde ad
ĠB ack
Ġp aren
Ġquar ter
Ġbr ing
Ġo ur
Ġn atural
Ġwhe ther
ĠSup er
ĠN ot
ol ic
th ing
um n
ĠB et
Ġim m
Ġwe ap
Ġprob ably
ĠF inal
Ġsold iers
Ġcon cept
Ġd ram
and on
ĠS al
ĠA pp
Ġcop ies
ĠSc ot
Ġ ult
im in
Ġbuild ings
Ġlead er
Ġsy n
Ġex tended
Ġv oice
ĠS ince
Ġ199 7
Ġlyric s
Ġf ace
ĠIn ter
ĠAtl antic
Ġfor ward
Ġdep art
c an
Ġb oy
Ġcomple x
oin t
Ġbo ard
ĠM ont
Ġre act
Ġiss ued
Ġbatt les
Ġch all
i ant
ri age
Ġre ally
Ġcount ries
Ġhe av
v in
ir ing
Ġsuff ered
osp ital
ĠCong ress
Ġc m
ĠL ake
ĠL ove
Ġgo als
Ġinclud es
ĠFlor ida
ĠS ever
Ġimmedi ately
ra z
ĠK n
Ġat tend
ĠS un
am s
ĠB oth
ĠF ort
Ġde g
Ġbre ed
Ġmix ed
Ġmanag er
Ġpriv ate
Ġcap ital
c he
Ġoffic ers
Ġlik ely
ĠJ im
ĠJ ew
Ġem b
h ood
Ġ3 7
Ġcan n
ĠB ig
Ġdist rib
le br
ĠQue en
ĠO ld
Ġremov ed
ĠTex as
Ġinit ial
Ġincre ase
Ġpl ant
Ġm ach
ĠSe a
ven ue
Ġhe alth
Ġsubsequ ently
Ġle ave
Ġpl ans
Ġal ways
ib r
u z
Ġfoc us
ĠT own
Ġserv ices
Ġn etwork
Ġstat us
Ġv ia
Ġc oin
Ġm ount
h old
ect ions
Ġcomp an
Ġloc ation
Ġvis it
ĠCh ina
Ã Ń
ĠD ist
b ury
ĠAn other
ur t
ĠL aw
Ġproble ms
ĠM r
ord er
ĠL ord
ri al
Ġoff ered
Ġinst r
Ġfl ag
Ġterm s
ĠEar th
Ġmod el
ĠH ow
Ġn orm
ut h
Ġappro ach
n y
ail y
Ġcol on
Ġsomet hing
Ġvill age
Ġadm inist
Ġt ons
Ġf ell
Ġcar ry
oun ted
g ing
st ant
Ġm ur
ĠC amp
Ġmajor ity
iron ment
ri a
Ġto w
Ġprofess ional
ĠCanad ian
Ġ18 3
ct or
orn ing
il i
ous ly
ĠTr ans
ĠT or
ĠB oy
am er
ĠI ts
ar i
ad ium
Ġg ot
Ġt or
ĠR ail
ĠAfric a
Ġc ause
ograp h
Ġcons ist
ill s
ur ies
Ġdam aged
Ġinter s
Ġmeet ing
ĠW ood
w ell
Ġappear s
ĠT our
ĠSt ep
Ġj ob
Ġconf ir
Ġcoun ter
Ġmin ute
Ġad op
ac hes
et ic
ĠP et
Ġrank ed
Ġr an
Ġcomp osed
Ġindivid ual
Ġreve aled
ĠCent er
ĠS quadron
ĠHigh way
Ġmet h
Ġattack s
Ġfl ight
ĠRuss ian
it ect
re ater
ce an
Ġs ch
Ġpl ot
Ġdiscover ed
Ġra ised
ĠT ur
w are
Ġrespect ively
Ġfin anc
y s
um ed
Ġm akes
ĠM ur
if y
ĠCar ol
i j
Ġnum erous
ĠCent ral
ĠK ent
Ġ199 5
ĠS ir
ĠMart in
Ġassoci ated
o es
i en
Ġt akes
ĠAngel es
Ġal tern
ĠII I
ĠO l
re ak
Ġneed ed
Ġinsp ired
ag ing
Ġd omin
m on
Ġl ived
Ġ9 0
ĠAn t
Ġlaun ched
Ġy et
Ġan c
Ġn ature
ri ption
ol k
Ġoccur red
ĠB ow
Ġcont ains
Ġve hic
Ġco ach
f act
Ġsh own
Ġc and
Ġb ene
Ġattempt ed
Ġp ow
est ival
ail s
Ġattack ed
Ġmov ing
Ġcond itions
um ents
Ġup per
u als
ĠD V
a ult
Ġam b
Ġs ales
Ġd ig
Ġacc omp
ect ive
ĠGro up
ĠY ear
Ġcol lect
Ġ201 6
j oy
ĠT V
d own
Ġiss ues
ĠM iss
Ġ199 6
ĠR h
augh t
Ġb irth
Ġ3 4
Ġ195 0
g ely
it t
Ġwho le
Ġinform ation
ĠG reek
Ġex am
ĠSt r
Ġy ards
Ã ¶
d e
Ġsl ight
ĠEmp ire
ĠR ad
ar ian
ĠM el
Ġrefer red
Ġ3 8
ur ity
Ġbo x
Ġcrit ical
l or
Ġm om
Ã ¼
u ing
Ġnum bers
Ġfin ally
Ġinc or
Ġsmall er
Ġelect ed
Ġse lected
Ġresul ted
Ġdefe at
re me
ĠRe v
Ġsc ient
Ġgr ant
Ġport ray
ĠP enn
Ġact ive
Ġqu al
Ġsing er
w in
Ġs en
Ġb ad
ver t
ĠD es
Ġpr incip
ĠO ut
Ġstand ard
im b
st e
i est
Ġsec ret
Ġce lebr
Ġm ission
Ġindust ry
u ated
Ġs al
Ġ199 4
ĠItal ian
Ġlar gely
Ġgr and
Ġoper ation
ĠU nder
en ant
Ġp it
it ation
Ġass igned
Ġl ink
ort un
Ġc er
Ġen s
ep h
Ġear ned
Ġs af
Ġan aly
Ġleg isl
ĠD el
Ġcomment ed
Ġth r
Ġan g
Ġexp ected
Ġm ale
Ġpre c
am b
ĠCor ps
it ude
Ġlist ed
Ġaud ience
Ġro y
ĠDV D
Ġcover ed
Ġ i
k en
Ġart ic
iz ing
Ġun able
ĠC rit
Ġpur p
Ġsc hed
ĠT er
Ġtradition al
o e
Ġeduc ation
ire ction
Ġtr ade
Ġart ist
Ġfriend s
Ġhe art
Ġnew sp
Ġdou ble
Ġcl osed
Ġref used
Ġs em
ĠV iet
Ġunder st
ĠG ar
Ġatt ention
Ġrec over
Ġprim ary
Ġmeth od
oun ts
Ġrequ est
Ġs ister
us e
Ġprev ent
ain e
Ġk ind
Ġt alk
ĠMich igan
og ue
Ġre ason
on ic
igh ter
Ġlet ter
Ġoffic er
Ġbel ow
an ced
Ġcont em
ĠD is
Ġ194 0
Ġen joy
ĠW ales
Ġab ility
Ġdep ression
Ġme ant
Ġperform ances
k in
Ġdecl ared
Ġpl at
hip s
Ġw alk
id er
pl es
o ly
Ġg iving
ĠN ort
und red
Ġw ord
Ġfight ing
Ġbl ood
Ġcommand er
Ġrelig ious
ĠM ore
Ġ18 0
Ġcomp l
Ġbook s
ou d
ĠM ass
Ġthe at
Ġmid dle
ter ed
is her
ĠC ath
Ġset t
Ġr ate
Ġm ax
Ġh ot
Ġrecord s
Ġ4 9
il ed
Ġmat ches
Ġn ames
ĠDem ocr
Ġconst it
ĠAc ad
Ġprodu ce
Ġquest ion
ap ed
ĠB ec
ĠT est
Ġcompet ition
ant asy
Ġser ious
ĠC le
ĠC are
Ġcent re
ĠP re
Ġun it
ĠO x
ĠTe am
Ġvoc als
Ġdis app
ĠMin ister
ĠSever al
br idge
Ġto uch
Ġm ention
od ies
ĠZ eal
ut ch
i ences
Ġ199 2
Ġacc ount
ound ed
ĠM ajor
Ġab andon
ĠL ong
Ġrap id
ic ted
Ġen ergy
ad y
Ġn ecess
sh ire
ĠAr ch
ru g
ect or
ro ad
ĠM idd
Ġkil omet
ic ient
qu ar
Ġd ra
erv ation
Ġconstruct ed
im s
Ġd ut
ĠK enn
Ġtr aff
ĠE r
ĠL u
en ing
ĠC ons
Ġv ir
Ġthem e
ĠB u
ĠF ore
Ġr is
Ġm or
on a
ech an
ĠW al
Ġroy al
Ġnear by
Ġ4 1
Ġhigh ly
Ġp ick
ĠT ime
ish op
ĠZeal and
Ġsepar ate
Ġtr ain
os es
Ġh ar
Ġcontin ue
Ġch ief
ĠF ox
Ġeff ort
Ġpres ented
a res
ed ic
Ġcomb at
ri er
Ġpre p
Ġdr um
ĠMexic o
Ġpos itions
Ġredu ced
Ġann ual
ĠAfric an
Ġcontro vers
ĠF our
Ġdirect ly
ans ion
ĠCh ris
ie ut
Ġ193 0
Ġlevel s
Ġme ans
ib ly
Ġt ur
Ġ4 00
Ġnot es
Ġat tended
Ġc as
Ġne igh
Ġt ried
Ġse vent
Ġpract ice
Ġfore st
ĠM att
Ġcomp os
Ġc le
emor ial
et her
ĠH aw
Ġed ition
ĠS um
in ing
Ã ³
Ġf ast
Ġtw enty
Ġaccept ed
Ġn uc
Ġ199 3
ĠMad onna
v ement
Ġst ating
et te
ĠCh art
Ġ199 1
Ġmet al
ĠW all
Ġmov ie
Ġarch itect
op er
Ġw atch
ĠS o
Ġte xt
Ġrep e
Ġcand id
c el
r ical
an es
ĠScot land
Ġconc ert
Ġadv ance
stit ute
ĠB ob
tr ack
ĠJ ones
Ġp air
ac her
os en
Ġ17 9
Ġd irection
ad o
Ġre in
ĠThe ir
ers ey
Ġse em
Ġschool s
Ġleg al
Ġ5 5
Ġdis m
Ġre ject
Ġr are
p ing
l ict
a ver
Ġmar riage
Ġth ick
w ide
Ġ +
ĠDep artment
Ġo il
Ġhor se
ill ery
ew ay
Ġrec omm
Ġeff orts
Ġman aged
ĠM anc
Ġas p
ĠD ar
o o
Ġcol lege
s is
Ġp urs
Ġresult ing
ic ip
Ġend ing
Ġav oid
ĠC ross
Ġw ing
ieut enant
ut ions
Ġshow ed
ĠS ar
ĠTh ree
Ġdro pped
Ġrespons ible
ĠInf antry
ĠT re
ĠC reek
Ġins ide
Ġn ation
in em
Ġc ases
Ġke pt
Ġenv ironment
b and
ĠAr ab
l ight
ir it
Ġ18 2
Ġc ust
Ġcult ure
Ġmean ing
ĠF oot
ĠAn n
ĠB ost
Ġcycl one
a wn
ĠD ou
h ouse
Ġbeg ins
Ġincor por
ĠH el
Ġvar iety
ill ed
Ġm orning
Ġr at
ceed ed
Ġ3 9
Ġhous es
Ġcer em
u it
Ġform s
is ation
Ġd om
Ġch ampionship
ĠServ ice
Ġw ords
ĠLe g
ĠP ost
Ġar rest
per or
Ġy ard
l ike
Ġg e
ĠSt one
ĠWilliam s
Ġsch ol
ĠRec ords
Ġmark ed
Ġinc hes
ĠH ung
Ġcontin ues
ĠSec ret
Ġ4 8
Ġsc ience
Ġ18 1
M S
Ġper m
Ġsym b
ce nd
Ġus es
ĠPar liament
Ġeconom ic
Ġb ank
ect ing
ĠG o
gy pt
Ġsour ce
ĠB C
Ġsp l
Ġ4 2
ĠNew s
ĠG ames
k a
Ġqu ality
i ated
Ġdef end
w rit
t hel
ol f
Ġle ar
Ġh undred
ĠSt an
Ġset tle
ul ations
ĠM ic
ĠAr m
Ġconduct ed
Ġstart ing
Ġimp act
ĠS ur
Ġy our
Ġspec ific
c le
Ġallow ing
Ġstru gg
ĠE gypt
th ur
ĠSoc iety
ĠF in
Ġ194 2
Ġpres ence
Ġp le
ĠB ook
Ġam ount
b ed
Ġbe at
Ġview ers
Ġd u
a it
Ġs ides
Ġmet res
ap h
Ġd ance
w h
Ġr ule
Ġch ap
Ġex hib
Ġsup pl
Ġun ivers
ĠPr ince
ĠS outhern
ĠStep hen
Ġdist inct
Ġmultip le
Ġtransfer red
Ġr aid
Ġpot ential
ĠComm ittee
Ġfore ign
e en
Ġcontr ast
ĠOx ford
ĠW in
Ġpeak ed
ĠL atin
ĠO h
ol s
ir m
Ġen emy
ing u
ĠJ er
Ġbecom es
Ġcapt ain
Ġtraff ic
it iz
aren t
Ġown ed
ĠT ri
Ġth ings
Ġfound ed
Ġg reater
Ġm ess
ĠL ike
ĠGeor g
ĠAdm iral
Ġconclud ed
Ġport ion
Ġvoc al
ĠSp ec
g l
Ġ6 5
Ġsc oring
Ġcast le
ĠJos eph
Ġresp ond
Ġproper ty
sy ch
Ġst ories
Ġattempt s
Ġenc oun
ĠBost on
Ġo pt
Ġrel atively
ĠManc hester
ĠCh ief
ĠS at
Ġprim arily
ian ce
Ġdem onst
ĠHar rison
in et
Ġf ederal
Ġfinanc ial
ĠBec ause
ĠBe fore
ĠH al
Ġact ually
ĠJe ff
Ġanim als
ĠBr ad
ĠCap tain
ĠCl ass
ress ive
Ġobs erved
ĠH urricane
ĠSw ed
Ġcol lection
f ect
ĠS ol
ell ig
Ġopp ortun
ĠViet n
Ġtit led
Ġto urn
Ġfeat uring
Ġ4 7
Ġl if
ĠK h
ĠF orm
Ġwrit ers
it a
ist ics
Ġwrit e
a ud
Ġ194 4
Ġj ournal
Ġstreng th
ĠS il
Ġwe aken
Ġin ch
ĠBr idge
Ġw or
our s
ĠE ver
Ġsit uation
Ġdist ance
Ġsp ot
Ġp aid
Ġprem i
Ġm echan
Ġparen ts
ĠT w
ĠComm ission
Ġindepend ent
ĠBatt alion
Ġfig ure
um ber
ĠO tt
Ġsh are
Ġact ing
Ġact or
Ġcompan ies
r ight
Ġdiv ided
ĠDe f
ĠF red
ed s
Ġon to
ĠT im
ĠLit tle
Ä ĩ
an i
ĠPar is
Ġcoll abor
ĠPro du
ĠD en
Ġm ind
Ġslight ly
Ġtar get
Ġpiec e
ĠSer ies
ĠL ife
Ġfun ction
Ġ5 2
Ġs elling
Ġ4 6
Ġre form
per ial
ĠCol umb
Ġ6 4
Ġpower ful
ĠB at
rick et
Ġinn ings
Ġr ating
ĠCar l
Ġconc ent
Ġtor ped
ĠEnter tain
Ġplay s
th let
Ġl ot
Ġbro ke
Ġto day
Ġro ugh
ĠB BC
il s
Ġer a
ĠV er
ĠY oun
c hest
ist ry
Ġact ions
Ġult imately
ĠCro at
Ġwat ers
or ation
Ġm el
Ġtri al
Ġch o
Ġs quare
Ġmax imum
ĠL uc
Ġdis e
Ġ4 3
ud d
u ge
ĠHist or
ad a
Ġte nd
Ġpil ot
Ġb ound
ann el
ast ic
Ġcomplet ely
ĠAcad emy
ĠM ax
Ġs ought
ro wn
re l
ac ts
Ġinter p
Ġ192 0
Ġ194 5
Ġpolic y
l am
Ġsc ale
s w
ann a
Ġsoc iety
ĠM od
Ġbl ue
ĠP an
for ce
Ġmain ly
Ġ4 4
ĠMus eum
Ġbeh av
ĠS aint
Ġl og
ĠL ine
rup t
Ġdesign ated
Ġ194 1
Ġ ess
Ġh us
l oad
Ġofficial s
Ġcon ver
Ġstru ck
m as
m ond
Ġactiv ity
Ġinflu enced
Ġcomb ined
u x
Ġtrans l
Ġt ask
Ġw ear
c ers
ol ved
Ġse arch
ste in
yl van
ĠEntertain ment
ĠIt aly
Ġ15 0
Ġv ess
wh ile
Ġth ir
Ġth ous
ĠP op
Ġcall ing
Ġg ar
e es
Ġalong side
ĠW ay
Ġnort heast
Ġsecond s
Ġb atter
und er
ĠBr igade
Ġs out
ĠAmeric ans
Ġc orn
Ġsour ces
Ġwin ter
ors es
Ġback ground
it an
ĠLe e
Ġwe bs
al le
ĠI re
Ġthe ory
Ġse g
Ġ ice
ĠH or
ag a
Ġrec ent
m ark
Ġg ained
Ġsu c
Ġnomin ated
r ative
Ġelect ric
Ġc row
ĠG re
Ġplat form
Ġart ists
ĠCon f
Ġproble m
Ġm em
ĠV an
ĠReg iment
Ġenc our
ĠT od
ian o
Ġwid ely
Ġn aval
ĠW ind
Ġsystem s
Ġpromot ed
quar ters
av en
y a
Ġconfir med
in i
Ġnew s
Ġreach ing
ĠIre land
Ġresul ts
Ġpro ved
ĠA venue
ill a
H L
os aur
Ġpass ing
ibr ary
Ġalbum s
r ate
Ġexpl ained
Ġsubsequ ent
ĠFle et
Ġgreat est
ad el
Ġconf lict
ĠAd d
Ġinv asion
ot a
Ġcont ent
Ġw ick
Ġ198 9
Ġcom ing
Ġpe ace
Ġchar ge
Ġsix th
Ġhe ro
Ġres ist
n own
Ġnorth west
Ġcount y
ub e
Ġshort ly
Ġwe ather
Ġ194 3
ĠG ood
Ġvers ions
Ġad j
ou red
Ġser ve
Ġcaus ing
Ġsay s
Ġsu st
ĠOr ig
he w
p e
Ġexp ressed
Ġp ath
Ġrece ption
ĠE ll
ĠVictor ia
t ation
Ġse ek
Ġ ir
Ġb urn
ĠR ay
it ness
ic ed
Ġres idents
ĠCath olic
Ġb order
Ġem ot
ĠB us
ĠT ropical
Ġsound track
T V
Ġc ities
Ġs n
ĠChar l
ĠVal ley
Ġse asons
al ing
Ġappear ances
Ġfav our
Ġs ense
ateg ory
om y
ĠN orm
ĠT y
on n
ĠW ork
Ġsex ual
ĠAl b
Ġrequ ire
Ġ5 1
Ġc hem
Ġh ospital
ĠN in
t own
Ġg reen
Ġident ified
Ġphys ical
ĠS ant
Ġold er
ĠL ight
ip s
anc y
ĠA ut
ĠTh ough
Ġhand s
i h
Ġt ells
Ġtr ue
Ġoff er
Ġdoc ument
ĠL ive
Ġd edic
b it
Ġk g
igh th
Ġ iron
ĠMidd le
Ġart illery
Ġrepres ented
ĠComm un
b on
Ġweap ons
ĠL iber
ard en
Ġa head
ĠTh rough
ĠFoot ball
un ction
e ption
y m
ĠDe v
ĠSh ow
Ġg as
Ġneg ot
ylvan ia
Ġheav ily
ĠUp on
Ġe as
Ġp un
er o
z a
Ġsup p
ĠF ar
ĠL o
ĠD utch
ab eth
Ġdef ense
A S
it able
Ġstud ent
Ġim age
Ġsp read
Ġal one
Ġapp arent
ĠWe ek
Ġstud ies
ĠD irect
Ġoffic ially
ĠJ ul
ĠM a
Ġhus band
Ġex ecutive
Ġdist rict
ĠT ay
ĠB ey
ĠS ub
ĠYoun g
Ġfar m
ess ions
Ġinst it
ĠEl iz
Ġdeb uted
ĠD un
ĠAl bert
ĠT op
Ġprom inent
Ġcapt ure
Ġcons isted
Ġinj ury
Ġw ild
Ġse nd
Ġp ack
Ġequip ment
Ġorgan ization
Ġf ired
Ġb it
Ġst one
Ġpat tern
Ġarg ued
Ġa ired
Ġres c
Ġfig ures
Ġpre par
A A
Ġsur pris
Ġinstr ument
Ġexp ed
Ġgrow th
ĠI ll
Ġcou ple
ac ity
Ġdo ing
Ġreturn ing
ĠC ivil
ĠH omer
ĠB ond
ĠR y
Ġcontem porary
p ool
Ġp ict
ĠK r
oc key
ĠV ol
Ġh un
us hed
ĠR og
Ġpo et
Ġr ing
Ġp al
Ġwe ight
urb an
Ġc ert
ĠM en
ĠA v
Ġd rug
Ġl aid
Ġlead ers
Ġdou b
Ġaff ected
ĠNort hern
Ġmat ter
Ġpiec es
ĠD i
Ġfl oor
Ġh abit
Ġmag n
l ines
b ur
l ers
ĠR am
Ġst ep
Ġe th
Ġmain tained
Ġprop os
ĠF re
res p
Ġear th
Ġocc asion
ap pen
Ġvis ited
Ġt un
Ġr ang
ĠM at
Ġhe re
Ġcom es
Ġcommun ic
Ġshe ll
Ġspe ech
ĠDan iel
Ġcritic ized
Ġcrow d
ĠD am
Ġ6 00
ĠSt orm
port s
Ġactiv ities
Ġterm in
Ġst ra
ĠCarol ina
ĠF er
ent al
in son
Ġatt ract
Ġc itiz
ac ement
Ġex ec
if ying
Ġtourn ament
Ġre ign
Ġto ward
Ġo x
Ġsing les
Ġem ph
ĠG al
Ġh all
ĠS k
em ic
Ġtre es
ĠJ on
Ġrefer ence
Ġform ation
ock ed
ĠScott ish
Ġsen ior
Ġ198 7
Ġset ting
el ve
Ġad apt
Ġsur re
Ġterrit ory
Ġworld wide
Ġmed ical
ĠH ard
ĠGovern ment
Ġtr ying
Å į
Ġ unk
Ġ198 8
Ġst ations
Ġb ud
ro g
ĠMar sh
ĠB re
ĠSy stem
Ġapp l
ru it
Ġbird s
ĠF antasy
est ic
Ġp an
Ġdel ay
ĠW rit
ĠOper ation
ĠHol ly
n ers
ĠBack ground
Ġmach ine
ĠGovern or
Ġf ellow
Ġclaim s
Ġd oll
Ġmur der
ĠO cean
ĠDist rict
emb ly
Ġhistor ian
Ġgu est
Ġb ul
Ġrain fall
Ġris k
Ġd og
ĠF ield
Ġf ully
Ġacc ident
ĠPenn s
Ġc ell
el d
ĠR om
Ġval ue
Ġl oad
iv ity
Ġthere fore
Ġg od
ĠH ome
ul ed
ĠDu ke
Ġspl it
e ed
Ġch osen
Ġtreat ment
ĠCol on
ĠGu ard
Ġun iversity
Ġ5 3
g ian
Ġtw ice
om ers
u ct
am ber
ĠT em
velop ment
ĠStud ios
Ġt err
Ġfrequ ently
Ġsup ply
Ġcont est
ul s
ĠPol ish
Ġreport s
ĠK ar
st one
ĠG irl
orn e
Ġle aves
ra el
ĠSh ort
res h
Ġgovern or
Ġs ens
Ġrem ark
ĠSen ate
i Äĩ
Ġp aper
av ed
stit ution
ĠE astern
Ġlab el
Ġf aced
Ġag g
amp ion
Ġd yn
ord in
ĠBe at
Ġwall s
Ġop in
Ġfollow s
Ġhy d
i ot
r or
ell er
ĠL ew
Ġbill ion
ang er
ĠR od
led ge
Ġoper ated
ĠR os
ad ing
Ġg rew
Ġman u
Ġsurround ing
ĠAnd rew
Ġcont ained
Ġ8 5
ĠMe an
Ġdeg ree
on ents
Ġher self
Ġcond ition
ĠChrist mas
Ġh orses
Ġplan et
Ġmanu fact
ĠM D
Ġaccomp an
Ġ ut
Ġw ounded
ay er
Ġtyp ically
Ġesc ape
Ġs we
ĠAll ied
ĠO s
Ġpass es
re ct
or ter
Ġcol or
Ġsim ply
ed d
isc o
Ġm aster
Ġf uel
il ly
ĠWil son
Ġs le
Ġbro wn
ĠN ight
Ġrail way
ĠC orn
ĠB art
Ġele ment
Ġd raft
ut ation
ge nd
ĠTay lor
Ġl ives
et y
Ġed itor
Ġord ers
Ġ198 6
Ġar ms
al a
ĠJ ud
ĠEliz abeth
Ġserv ing
Ġb al
ant ly
Ġnot hing
ĠAlex ander
Ġauthor ity
Ġch ose
Ġopp osed
Ġwork ers
Ġvot e
Ġcons ecutive
Ġcann ot
Ġc amer
is ters
Ġmom ent
ĠM ike
Ġnew ly
ĠE ach
ĠJo e
ric ult
iz es
Ġn ative
Ġunk nown
anc ing
Ġparticip ated
i as
am ing
uck y
Ġgrow ing
p ass
Ġwebs ite
Ġcas ual
ag n
Ġ5 4
Ġemph as
u ous
Ġent r
Ġph il
Ġatt rib
Ġf an
Ġprodu cers
ful ly
Ġnewsp aper
Ġre ar
ograp her
ig g
Ġb ass
Ġf air
ĠO f
Ġl osing
ĠCast le
Ġadv anced
Ġadop ted
Ġfilm ing
Ġext ra
ĠF estival
Ġhe ard
m it
ĠH um
Ġsever e
ĠPenns ylvania
Ġoff ensive
Ġfe ed
il ies
Ġf iction
and y
az z
Ġopp osition
en ge
im ens
ĠEx p
Ġex tend
Ġsp irit
ĠJ ac
ĠD et
Ġcap acity
en ger
ĠP ers
Ġ9 5
ĠIs lands
ĠWh at
Ġbas is
Ġsequ ence
Ġact ors
Ġcoun cil
Ġp sych
t hen
Ġgu ard
Ġend s
pt on
ĠRec eption
ĠS ound
Ġ5 6
Ġwe ak
ĠC he
Ġs quadron
yp e
Ġsil ver
ĠG i
Ġadv ant
Ġpr in
Ġabandon ed
r ong
ĠIr ish
ĠF urther
Ġ17 7
Ġcomp ar
ors hip
e v
t ar
Ġr ival
ĠW W
Ġ rom
Ġprom pt
Ġext r
ĠIn st
r id
ĠBl ue
ĠW at
Ġf lying
Ġk ick
ab les
ĠT ech
Ġhon or
is ers
ĠHar ry
m ore
ag er
Ġele v
Ġcreat ing
Ġbe y
ĠC ard
ĠT ra
oc ated
ĠJ ersey
g u
Ġfilm ed
ĠSp ain
ĠR et
Ġlaun ch
Ġco al
Ġregard ed
ĠP en
Ġh appen
Ġexp ansion
Ġnorm al
Ġa st
Ġent er
Ġcritic ism
Ġindivid uals
Ġpol l
le ment
Ġhom es
Ġagre ement
ĠS S
Ġbey ond
Ġinc ident
h i
ĠL and
ĠG all
Ġfail ure
Ġ17 8
ĠCo ast
ĠS quare
ĠF am
Ġsp ect
Ġev ac
Ġde ploy
Ġdism iss
Ġfam ous
ap ers
Ġey e
ad d
on c
Ġsp ring
Ġch air
Ġs ail
Ġsp orts
Ġmeas ure
Ġ9 7
Ġchall eng
Ġ193 9
Ġposs ibly
Ġhistor ical
Ġneg ative
T C
Ġl iber
us es
Ġin te
Ġbo at
Ġb odies
e f
Ġachie ved
g ar
Ġstri ke
m in
Ġbelie ve
ĠA re
Ġcont act
Ġm ob
Ġ7 6
Ġprog ress
Ġro les
Ġun f
ĠP ublic
ĠU s
ĠProdu ction
ot e
Ġkill ing
Ġnar row
Ġret ired
and a
Ġide as
im et
ĠB ab
ĠIn stitute
ific ations
an o
ĠL ind
i enced
B A
ĠIs rael
Ġdr ive
Ġdise ase
r ich
Ġ ur
ĠW ild
Ġtorped o
m osp
on ent
ĠC D
Ġbene f
Ġr id
Ġbrief ly
Ġv o
F A
Ġ198 5
ĠRev olution
ĠD ue
ĠAr thur
ĠBro ad
Ġeffect ive
Ġ196 8
Ġim ag
Ġar med
Ġapp lic
Ġtow er
Ġbud get
Ġd iam
ĠE lect
Ġrece ive
Ġrepe ated
Ġadminist ration
Ġgrant ed
Ġnecess ary
Ġper man
Ġperson nel
Ġt ree
ĠM ul
Ġroad s
Ġreject ed
ĠMean while
ed om
Ġt able
Ġtw elve
ĠC at
ĠRepublic an
a ith
Ġkilomet res
ĠG erm
ĠE nd
Ġp et
Ġimpro ved
Ġlead ership
ĠB ul
Ġm is
ĠP erson
Ġgro ss
ĠDo ctor
ĠAl bum
in y
Ġinter change
aval ry
ĠCl ark
Ġcol umn
Ġext ensive
in er
Ġin h
Ġd ata
ĠC ub
ĠOh io
Ġy ellow
im al
k ins
our ney
Ġ6 6
Ġturn s
Ġinf antry
Ġpl ants
Ġpurp ose
Ġstra ight
ĠS und
Ġmanag ement
Ġland s
Ġexp ress
im ents
Ġland ing
Ġdef in
Ġpar alle
ĠU l
Ġdescrib es
ĠM id
Ġexp anded
Ġse at
ĠSecret ary
ĠBo ard
Ġsol o
Ġch oice
Ġfr anch
Ġsuccessful ly
ĠL y
Ġ6 1
Ġbro ken
Ġm ile
l usion
ĠL iver
Ġcross ing
ĠB raz
Ġle arn
adel ph
Ġdid n
ĠHe ad
Ġ198 4
Ġf ought
Ġdel iver
ĠPhil adelph
Ġint ellig
ol n
Ġexpl os
id ay
ock s
Ġanim al
Ġorgan ized
Ġc aught
ĠH y
Ġex cl
u ate
Ġvehic les
Ġcommission ed
Ġsuggest s
ĠL es
Ġacqu ired
l a
Ġ8 00
ĠF e
Ġpl aces
Ġcomm ittee
Ġch or
h aps
et ball
Ġro of
Ġanc ient
Ġdram a
ĠE ven
ĠGeorg ia
s et
Ġcre ation
h ol
ĠN ever
ĠCam bridge
Ġtyp es
ĠAs h
st ream
Ġgl ob
Ġg ives
ĠPhiladelph ia
Ġartic le
Ġcom edy
Ġsevent h
ic o
Ġun su
Ġnuc lear
Ġpre fer
ĠB urn
ĠM ir
ĠH it
i able
Ġw ave
ĠB ell
Ġso ft
Ġf at
i ate
Ġro w
app y
ĠS her
ĠB ru
Ġauthor ities
Ġhead quarters
Ġ12 0
ĠCon st
ĠM ov
Ġcont ain
att le
et ts
ĠAl so
w ar
Ġcent uries
Ġcommon ly
Ġdeterm ined
ĠR A
Ġis lands
Ġgen us
Ġ196 7
i ations
Ġmention ed
ĠAdd ition
ĠRuss ia
ĠI S
Ġrec ently
ri f
Ġlook ing
ian a
Ġb ott
Ġcontrol led
ig r
Ġbe aut
rest ling
ĠS R
Ġst reet
um es
Ġro ll
er c
ak ers
ĠPro t
ĠComm on
Ġset s
Ġfam ilies
ĠAm ong
Ġhouse hold
Ġsec urity
ĠLiver pool
ĠW ars
Ġup gr
Ġfind s
Ġexper iment
Ġa im
ĠC y
Ġsup por
ur a
Ġdec re
ĠNin tend
Ġad vert
Ġ5 7
Ġstand ing
Ġd rop
ĠR el
im a
Ġac ad
Ġill ust
ĠNintend o
ĠL ar
Ġsing ing
ot ed
Ġwithd raw
ĠL inc
Ġbatt alion
ĠColumb ia
Ġref lect
Ġun ique
ĠPr ime
ĠEar l
it led
ut ing
ĠE p
f ort
ag ement
Ã ¨
Ġcont aining
ĠAr g
Ġentire ly
Ġhe ight
ĠG il
Ġcult ural
Ġdec k
ĠJ enn
Ġf ish
Ġd ial
Ġor chest
art s
Ġ6 2
Ġfin ish
Ġtouch down
Ġcontrib uted
ĠLinc oln
Ġprot ect
ĠSing ap
ĠCh ap
Ġthem es
Ġprov ides
ĠDe velopment
Ġyoun ger
ĠKore an
ĠAs ia
is hes
Ġdef ence
Ġflood ing
ĠL ieutenant
Ġun p
Ġ198 3
ĠBraz il
ack s
ro ll
Ġm ist
Ġa wards
Ġat mosp
Ġtit les
Ġstri k
Ġpurch ased
om a
ĠR ol
ĠJew ish
am in
out s
Ġs ac
Ġl a
Ġarr ival
ip l
Ġsched uled
Ġdef ensive
Ġpow ers
ĠCh ild
ĠFranc isco
Ġres emb
Ġh ol
Ġaccompan ied
ĠSingap ore
Ġcerem ony
Ġqu ite
in ity
Ġcon vers
Ġ196 4
resp ond
Ġexped ition
ĠH ay
ill ing
Ġth ing
Ġun us
ĠPe ople
Ġw orth
Ġ196 9
Ġper fect
Ġloc ations
Ġexist ing
ic ial
Ġinter act
Ġperform ing
Ġadvant age
w ater
ĠCare y
ro om
at ures
Ġtr y
ĠOff ice
Ġdedic ated
ĠS ix
Ġcomp uter
Ġphil os
ĠP ot
Ġext rem
ĠDis ney
Ġintens ity
Ġoccup ied
S tation
Ġst ore
Ġ191 4
Ġâ Ī
ul ate
g n
l aim
Ġ5 8
av a
Ġwh y
Ġs quad
ĠPlay Station
ĠD ark
Ġ7 4
Ġ191 8
ĠH MS
Ġf resh
ĠS u
Ġm ounted
ĠT am
Ġb at
ĠL is
ĠOr der
Ġ198 2
ag an
ash ion
ĠV en
ĠH un
Ġ197 1
ĠAnd erson
Ġc ricket
Ġn ob
Ġclos ely
Ġm outh
ĠSte ve
Ġf irm
Ġcons ists
Ġcurrent ly
ĠLew is
Ġf ix
ĠK ey
Ġ196 6
Ġs ession
ĠU r
ĠH on
ĠMill er
Ġ197 2
ĠCon ference
ĠB alt
Ġ197 9
Ġindust rial
Ġsim ple
w all
ĠBy z
Ġt ail
ĠT urn
Ġp iano
Ġ7 2
ĠOn ce
Ġfac ilities
r acted
Ġel imin
Ġsupport ing
y les
ĠOlymp ic
Ġdra wn
Ġl ic
Ġc old
ĠBro ok
ĠRad io
Ġbel ong
Ġtr ains
Ġprot ection
Ġe gg
Ġgr aph
ĠD ie
Ġr ated
Ġbo ats
ĠB ad
il ton
ĠGr ant
ĠB rian
Ġr ise
Ġt im
ĠK el
Ġdef ined
ĠByz ant
Ġse lection
a o
Ġste am
r ons
Ġ196 5
Ġreg ions
Ġsub mar
Ġprot ected
ĠRail way
Ġcall s
ĠCon n
uz z
ĠN HL
Ġ #
ĠEm peror
Ġstruct ures
Ġmot ion
Ġcom ic
m outh
Ġth row
hen s
Ġtr ail
Ġa id
Ġc ry
Ġfoc used
Ġopportun ity
Ġeng aged
Ġrece iving
Ġl abor
Ġsh ark
Ġshoot ing
Ġanaly sis
Ġ197 5
ĠM ah
Ġcor respond
Ġcitiz ens
Ġh air
Ġl ap
ol a
ir ation
Ġpro s
Ġnot able
Ġstreng then
o ch
Ġsp ort
Ġobs erv
ĠG ulf
Ġad ap
Ġmot or
ĠJ r
us c
Ġexper ienced
ĠSh ak
ĠGerm ans
ĠSer b
Ġcon ference
Ġprov iding
Ġhold ing
ĠP ress
ĠHolly wood
ĠWal ter
ĠM ot
ĠOn ly
Ġvis ual
ul ts
Ġres ident
Ġ197 4
Ġmount ain
ĠDav is
Ġd ry
Ġh ired
Ġ5 9
Ġsout heast
Ġchart s
Ġey es
Ġview ed
ĠSum mer
un ior
if ically
Ġrapid ly
ĠB as
Ġrecogn ized
Ġbr anch
Ġvol ume
Ġmer ch
Ġ197 3
Ġtrans form
op her
ĠDemocr atic
ĠP u
Ġ9 9
ĠRe view
ĠBar b
Ġschol ars
v ention
Ġsit es
ing er
z er
Ġcasual ties
Ġg ain
Ġro b
Ġsh ared
u an
Ġte ach
Ġm ut
ĠW ater
ĠSpec ial
ĠBet ween
Ġconc er
Ġpublic ation
Ġv ac
ĠJe an
Ġparalle l
in th
Ġpro te
Ġtemper ature
ĠIn c
Ġdig ital
Ġ197 6
ĠB or
ess ed
ĠM u
ĠAt t
Ġeconom y
ĠS a
bur gh
Ġmod er
Ġdevelop ing
F L
ĠR ome
Ġreact ion
ĠG ib
Ġed ge
se y
st anding
Ġste el
Ġinters ection
Ġc ool
ĠPr inc
Ġc art
f riend
ol t
Ġsymb ol
Ġappro ved
Ġsecond ary
ĠF all
Ġch ance
onc Ã©
Ġ6 3
ĠL ady
Ġv on
ĠB ank
ĠK ir
Ġw a
Ġloss es
ĠD own
Ġprep ared
om ew
Ġbelie f
Ġsub stant
Ġlet ters
ĠD aily
Ġw itness
ĠMus l
Ġsignificant ly
ĠG ord
ĠW omen
ing ly
ĠL ab
Ġen l
Ġband s
if ul
ĠV ar
Ġ7 7
Ġh arm
Ġ7 3
Ġs ort
ren ce
Ġs ave
ĠG reg
n s
it er
ĠP o
ĠT ro
Ġdom estic
ĠU N
ĠPro v
Ġmy th
Ġr ac
Ġfranch ise
Ġkn ew
ig er
Ġv en
Ġliter ature
Ġgo es
ĠBey oncÃ©
ĠN ap
Ġunsu ccess
Ġinst ruct
Ġact ress
Ġsouth west
ĠSy d
ĠK a
Ġtechn ology
Ġhead s
Ġrough ly
Ġ25 0
Ġsur vey
y er
Ġc ard
Ġadv ent
Ġdes cend
Ġm ic
ig ation
ograp hic
thel ess
Ġpain ting
aw a
Ġad ult
Ġany thing
i ents
Ġc ars
ĠComm and
Ġ urban
Ġproject s
Ġsem i
ĠColon el
b reak
Ġass ault
Ġl b
Ġex act
Ġbrother s
ach us
Ġp itch
Ġgame play
Ġresist ance
er al
ĠN az
un te
Ġh yp
Ġstory line
ĠSup reme
Ġsh ape
ĠInd ust
ĠP oint
Ġre asons
Ġrul es
Ġemploy ed
v est
ĠKent ucky
Ġc ore
Ġd aily
Ġinj ured
Ġt ank
Ġ194 6
Ġwat ched
ĠN ick
Ġsh all
ĠSt ation
Ġ198 1
ast y
im inal
ĠM os
ond er
Ġag ent
Ġc ab
Ġpopular ity
b ox
Ġcomp osition
olog ist
ĠâĪ Ĵ
Ġ ign
rop ri
Ġs and
Ġper haps
Ġadd ing
Ġenjoy ed
ĠI V
Ġren amed
Ġis ol
Ġget ting
Ġopin ion
ĠSp ring
Ġdecl ined
ĠInd epend
Ġf it
ĠNor way
am m
Ġcomp ris
Ġrep utation
Ġ6 7
os a
Ġconn ected
g ers
Ġsh aped
man n
Ġest ate
Ġret ire
ĠF air
Ġmus eum
Ġ191 7
Ġd rew
Ġunder t
ĠWh it
Ġregard ing
w orth
ĠT en
ĠOlymp ics
Ã ¤
Ġl ov
ist an
Ġpo em
Ġst ages
Ġconver ted
ink ing
Ġview s
ĠB ern
he im
Ġre nd
ĠMass achus
Ġn or
ĠThe at
it ors
ĠS and
ce ived
av el
Ġag ricult
Ġallow s
ĠPhil ipp
ony m
ĠGold en
ad or
Ġaltern ative
om ic
Ġdist ingu
u a
ĠR oss
Ġcal c
ĠMassachus etts
ĠB ase
ĠM ain
ul pt
Ġhead ed
ĠO b
Ġn ick
Ġj ourney
b ound
ist ol
Ġdep th
ĠAb b
ĠW alk
Ġmiss ing
Ġc ited
Ġincreasing ly
ĠP rem
Ġs un
Ġst adium
Ġappro ached
os l
re ts
Ġturn ing
Ġ6 8
ĠD ream
ĠAir port
ver se
Ġ9 6
Ġrespond ed
Ġplan ning
Ġeas ily
Ġknow ledge
ĠM as
Ġex erc
Ġwe alth
ĠS us
Ġover l
Ġ194 8
Ġ16 0
en c
Ġ8 2
Ġc ells
ip e
Ġf ashion
Ġesc ort
e per
ĠR on
Ġsuc ceeded
ath an
Ġcol lected
er a
Ġequ al
ĠAb out
ps ons
ret t
Ġsaf ety
Ġexist ence
ĠG ra
Ġconstit ution
ĠC ur
Ġreb u
ul es
o ir
ĠL et
ĠPl an
ĠSim psons
ign ment
ild ing
Ġaut h
Ġintrodu ction
Ġmod els
Ġocc as
Ġlear ned
Ġsust ained
Ġtri p
ĠI mp
ĠH art
Ġ7 00
Ġcol le
un icip
Ġoper ating
Ġpromot ion
Ġt all
ĠH an
ĠIn it
Ġ197 8
b a
Ġcarry ing
ĠB all
Ġbase ball
Ġex change
ap es
ĠSong s
Ġshow ing
i i
Ġr hy
Ġlim it
r in
ĠR un
Ġy outh
Ġbur ied
ĠVietn am
ĠIm perial
w ise
Ġ8 7
Ġhum ans
Ġcred ited
g al
m itted
ur ation
Ġfl u
Ġdep end
c ome
Ġp ul
Ġarrang ed
Ġimpro ve
ĠOtt oman
ĠS el
z en
Ġse ems
Ġweaken ed
Ġdesign s
Ġ191 5
in ary
ĠC ape
ĠShort ly
Ġim pl
Ġprodu cing
Ġpro ceed
i at
Ġa thlet
Ġjoin t
ĠPol and
Ġfre eway
Ġpain t
Ġhyd ro
ĠK en
Ġ197 7
Ġearl iest
ĠSyd ney
Ġlast ed
Ġshe l
Ġland fall
ĠMary land
Ġsettle ment
Ġnot e
Ġdesc ription
ĠMo ore
Ġret ained
Ġac res
le ton
Ġ6 9
ĠWh o
st ate
Ġ7 8
ĠL oc
Ġlaw s
Ġappoin t
Ġv an
ĠSt ew
Ġfl at
ĠM TV
Ġgen re
ĠN aval
ĠH a
ĠP ict
Ġb ed
ĠB al
ival ent
Ġprogram s
Ġassist ant
em an
Ġrepl ace
Ġt on
Ġplay off
ĠR oy
Ġres erve
Ġinst all
Ġcons c
Ġstat ement
Ġappl ied
p ut
iv ered
our ces
iss ance
il ing
ĠMc G
Ġviol ence
Ġ196 3
ins ula
Ġscient ific
Ġentr ance
Ġcoast al
Ġc atch
if orm
Ġtr ust
b ell
ad er
Ġ err
Ġvir t
Ġh its
ot ic
Ã¡ n
Ġ9 1
Ġne ut
ĠJ es
at o
Ġa w
Ġcon sequ
Ġt ick
ĠC a
os is
Ġmain tain
ot hes
ie ge
re ets
ĠAr ts
Ġexcl us
Ġpat rol
Ġit ems
Ġbatter y
Ġcandid ate
Ġindic ated
ĠJ ay
t ical
Ġtown s
Ġsc ulpt
Ġgrad ually
Ġdistrib ution
Ġ191 6
Ġpolit ics
Ġsyn t
ĠBow l
Ġdel ivered
m ath
Ġstop ped
el er
Ġf illed
ĠA D
ĠE du
Ġindepend ence
Ġs ections
Ġdet ails
eng ers
Ġ9 4
ĠMul der
Ġst ream
ĠConf eder
Ġt act
ap ped
Ġcomb ination
on ia
Ġse lect
Ġsuppl ies
Ġway s
o ard
t ime
Ġc inem
e ke
Ġpart ies
Ġeng ines
ĠP ass
Ġem p
Ġprison ers
Ġcamer a
ad s
ĠB ra
ĠGord on
Ġb an
ĠF ire
Ġgl ass
Ġappe al
ĠI G
ĠR em
Ġa ware
ĠSt adium
Ġ191 9
Ġreg ister
ĠRh odes
Ġcamp us
us hing
Ġ196 2
Ġact s
Ġbas k
h r
em ies
Ġextrem ely
ir a
re ll
or a
Ġ9 8
Ġent itled
Ġsec ure
iz ations
Ġal le
ĠA ri
Ġfind ing
ĠB os
le e
Ġdec ade
Ġon line
Ġ8 1
Ġt y
ĠW ell
Ġwin ner
por ation
ivers ary
ĠTheat re
idd en
el ess
Ġeven ing
ino is
Ġ7 1
Ġinvestig ation
Ġ193 8
Ġthreat ened
Ġb ought
Ġmess age
Ġadap ted
Ġsurv ived
Ġs omew
Ġun s
Ġkn ots
ĠSt aff
v a
Ġstud ied
ell a
Ġpropos al
Ġt al
Ġwrit es
ĠUn ivers
Ġadd ress
Ġar c
end er
Ġdeath s
ĠJust ice
Ġcons um
ĠH ere
Ġro utes
Ġrul ed
Ġreg iment
Ġdown load
as hed
ĠInst ead
Ġw ars
ĠPro f
Ġrel ief
ĠCon stant
Ġf ear
Ġm ales
Ġredu ce
ick s
Ġrelig ion
Ġvot ed
ĠB ir
ie val
Ġspec ifically
ĠB and
Ġsp ons
Ġrev olution
rop ol
Ġdut y
Ġc rown
Ġph ase
i ro
ĠA C
ph oon
Ġking dom
Ã ¸
Ġrec alled
Ġ8 9
Ġportray ed
ĠA ge
Ġf ict
ans as
ĠJ an
ĠK im
Ġs oul
Ġimp lement
Ġcontrovers y
re c
igh ters
iqu es
Ġcaus es
Ġemer g
ĠM emorial
ct ions
Ġevery thing
Ġbreed ing
ĠT ony
Ġrefer ences
Ġst ret
Ġ195 6
erv ative
Ġs ell
Ġag o
Ġcap able
ĠAn th
Ġconv in
Ġimport ance
Ġbott om
Ġte acher
ak a
Ġ17 5
Ġmet ers
ĠSing les
ĠN ic
Ġoff ers
Ġent ry
bour ne
Ġb le
Ġt anks
sen al
ic ian
Ġsuff icient
ain ts
Ġown er
Ġ13 0
Ġarrest ed
ak ed
Ġoper a
ĠDirect or
ĠC op
Ġadm itted
ent ially
ĠC irc
ĠAd ams
Ġe c
ĠB on
Ġintern al
Ġnomin ation
ac ter
Ġcorn er
Ġ8 8
B N
Ġe t
ĠN el
ĠV ill
Ġcross ed
cher s
Ġproduct s
Ġ193 6
Ġcl imb
ĠAl an
ĠCrit ical
Ġequip ped
Ġinst alled
ĠDou gl
ĠK ong
Ġconcern s
Ġover se
ane an
ĠHam ilton
ĠIG N
ĠJ ord
Ġpre ced
Ġinv ited
ĠP ower
ĠEng ine
Ġconv oy
Ġinterest ed
Ġon es
Ġstart s
ĠBe ach
Ġprincip al
ĠJ ane
Ġcr ime
w ich
ad ow
Ġrecomm ended
l an
Ġcon qu
ĠMar ia
ĠSim on
Ġremain der
ĠMc K
Ġ7 9
Ġ Î
Ġmed al
Ġact ual
ĠY our
Ġm ort
ĠM oon
ĠU TC
Ġret reat
ĠKenn edy
Ġsh ut
Ġt ell
ruct ure
Ġaut om
esp read
Ġchar ged
Ġac id
ĠF A
ĠPl ot
ĠCol l
Ġb or
Ġobject s
Ġpr ice
Ġfund s
Ġap art
B S
Ġcompos er
Ġ196 1
Ġsol id
Ġdo or
ĠFore st
h at
Ġconsist ing
Ġfem ales
a ug
Ġpromot e
Ġst ock
Ġal t
Ġun l
ĠAd am
ĠV II
Ġf ly
ĠG ram
Ġp age
ĠAl f
Ġconsider able
Ġv ent
Ġd ates
il ation
ĠV ideo
Ġmil it
ĠN BA
el a
ĠInd ones
Ġn est
Ġs now
ĠF ound
ent ions
ĠV e
Ġtyp ical
Ġ195 3
m et
ĠC art
ĠI d
ĠDe ath
ĠN ether
Ġground s
ĠTod ay
k o
Ġext ension
Ġdut ies
er ted
Ġcor rect
Ġinte gr
Ġg all
Ġsome one
Ġev olution
ĠPro g
ĠMil itary
Ġr ural
al i
ĠE ric
ĠIndian a
Ġpen al
ĠSund ay
Ġe ighth
ĠTrans port
v ements
ĠHow ard
Ġhot el
Ġdec ades
Ġim ages
Ġ9 2
Ġb low
Ġdr iving
Ġread ing
re te
ĠPro ject
ĠSc ully
Ġident ity
Ġz one
ĠNor we
ĠA st
Ġocc urs
ĠO k
Ġso le
a fter
os ite
Ġman ner
Ġchall enge
Ġl ane
Ġrem ix
Ġsk in
Ġasp ects
Ġperman ent
ĠHit ler
Ġbr igade
at i
ĠO d
Ġ194 7
b ro
Ġh am
Ġd ated
up t
Ġsp in
Ġ195 8
Ġvol can
ĠF ive
Ġfr ag
Ġnot ing
ĠLe on
Ġsub s
ĠPort ug
Ġrest aur
Ġsuppor ters
Ġslow ly
ĠH ou
Ġ8 4
Ġpost ed
Ġcol our
het ic
Ġcle an
ĠWW E
Ġ191 0
w ick
Ġdescrib ing
ens us
Ġ195 7
ĠRes earch
ĠMar c
Ġinvol ving
ĠC ult
vel and
Ġent ering
osaur us
iv als
ck now
Ġspe ak
ĠSc ience
Ġvess els
Ġen emies
Ġ193 7
Ġequ ivalent
ar p
Ġd ress
ĠS av
Ġclass es
ĠAss embly
ĠRy an
aw are
ĠP ear
Ġdeb ate
Ġsett led
ĠR ose
ĠG un
Ġdep artment
Ġob tained
Ġ9 3
ĠB ry
Ġacc ur
Ġa er
ile y
ĠCon stitution
Ġarm or
ĠMag azine
ĠTur k
Ġpar liament
ĠG en
Ġbas ic
ris is
Ġpurch ase
ĠRol ling
Ġsong writ
reg on
ĠMount ain
Ġ11 0
B I
ag ues
Ġold est
ĠP it
ĠG ill
ĠArg ent
ĠB ol
ĠCle veland
Ġf aith
Ġdepart ure
Ġd in
Ġwid espread
Ġconcern ed
Ġinc ome
Ġdec line
ert o
Ġp up
b ar
Ġatt ached
Ġform al
Ġconn ection
ĠIll inois
ĠH ug
it err
ĠSp ace
Ġrecogn ition
Ġf olk
ĠThrough out
Ġcert ified
Ġacc used
ĠDougl as
he astern
ĠL enn
ill er
Ġm emorial
Ġo uter
Ġsequ el
ĠWeek ly
h us
Ġder ived
c ation
Ġm ode
Ġde leg
orn ey
ĠRe le
ĠAnd y
he red
Ġwear ing
Ġdec or
Ġass umed
Ġ195 9
ĠJord an
Ġdist urb
Ġsw im
Ġte le
ĠO regon
ĠâĢ Ŀ
Ġacc laim
ĠStan ley
Ġa cknow
Ġh ip
Ġcomm itted
w estern
Ġhost ed
ĠAr senal
ĠP ier
omm od
ĠTh ird
Ġreturn s
A T
ĠN ow
ĠSt and
Ġwar m
Ġval ley
Ġs essions
ub b
Ġt orn
Ġpop ulations
eke nd
Ġf oss
ĠD isc
Ġden ied
ĠRec ording
agon ist
ĠFred er
ĠRog er
Ġf ine
Ġseg ment
ĠT reat
iterr anean
ĠF eder
ak i
Ġch ampion
Ġtem ple
ĠBeat les
Ġchar ges
ĠMed ia
Ġliter ary
ĠFam ily
ĠKe vin
n ic
ic it
Ġthous ands
ĠNorwe gian
ĠPhil ip
Ġtermin us
ĠBru ce
Ġtrans ition
Ġ195 4
Ġ195 5
ĠMed iterranean
id ges
Ġfl o
Ġsupp osed
Ġreg ional
Ġcon g
ious ly
Ġ8 6
ĠBr istol
Ġwick ets
al og
ĠâĢ ľ
are t
o oth
ion e
Ġcan c
Ġdem and
ĠT enn
re ck
ĠK at
Ġsh ots
ĠIS BN
Ġstrong ly
a ired
Å Ĥ
ĠI ra
ĠS ky
ĠL ow
Ġcirc ulation
Ġh ang
Ġintellig ence
hed ral
Ġs ailed
Ġposs ibility
ud den
Ġpass engers
Ġh ope
ac hel
Ġgener ation
Ġanim ated
he me
Ġcirc um
Ġfre edom
Ġthir ty
Ġfict ional
Ġcomm it
Ġdown town
ĠF ederal
Ġan sw
op hy
f l
em ed
Ġbehav ior
ĠCh annel
Ġmin ister
ĠMexic an
ĠÃ Ĺ
Ġh ill
Ġr ich
Ġrepl acement
o z
ĠR ain
Ġbeg un
Ġcommand ed
Ġassist ance
e ing
Ġmov es
Ġdest ruction
Ġcl oud
Ġpo ly
Ġmiss ed
Ġmiss ions
Ġcr iminal
Ġcost s
Ġexcept ion
r as
Ġbr ain
atin um
Ġf ruit
Ġhigh light
Ġbring ing
ĠB ush
Ġt ied
r ations
Ġcr ash
ĠWith in
Ġint ention
ĠKore a
k er
ĠT ar
Ġfeel ing
ate gy
Ġspe aking
m es
Ġprot est
ĠAddition ally
ĠLis a
Ġfin ishing
Ġunus ual
Ġalle ged
Ġinter cept
ĠM aster
ĠF ame
Ġproper ties
Ġincorpor ated
rop hy
Ġdem ol
Ġstay ed
Ġopp osite
Ġattrib uted
Ġvol unte
Ġrecover ed
o h
Ġbre aking
Ġemer ged
ĠD ig
Ġserv es
u ro
Ġs ons
Ġ195 2
Ġatmosp here
els h
ont o
ĠR ow
ig e
ĠW eb
a ire
or gan
Ġsh op
ĠMor ris
Ġtheat re
Ġoccasion ally
ĠCol or
Ġdr iven
Ġchor us
ĠNorm an
ĠPh ill
oth ing
ĠSc ient
ĠCon c
Ġstr ateg
ĠRob inson
b orne
or al
Ġclass ic
Ġread y
iv a
Ġeffect ively
Ġregular ly
Ġc avalry
Ġd ipl
Ġd ang
ĠPri or
Ġestablish ment
Ġpre y
Ġcour ts
Ġsp ok
Ġmethod s
ri ers
Ġsound s
ole c
Ġv ary
Å ¡
Ġ193 3
ĠSim ilar
ĠTe levision
p ective
ĠA round
ĠIn t
ĠHaw ai
ĠF I
ĠUn like
Ġmaterial s
Ġcomplet ion
ĠD al
Ġ17 6
ĠConst ruction
Ġsh ore
Ġsup erv
ĠMor gan
Ġd ivers
Ġrespons ibility
Ġd ream
ens es
Ġdiss ip
w an
Ġatt racted
Ġwar ning
Ġsurv iving
Ġfield s
Ġacc ommod
Ġpers u
Ġprov ince
Ġhe at
ĠNel son
Ġent ertain
ĠA z
Ġclass ified
Ġglob al
Ġdiffer ences
ĠPrem ier
Ġdiv isions
ĠFranc is
osl av
Ġtechn ical
ĠSwed en
Ġ8 3
Ġinterp ret
ĠB ah
ĠI ron
Ġ193 5
Ġto m
om pl
th m
so le
le ts
ĠUS A
n old
ĠF inn
Ġcru iser
ĠPat rick
Ġpass age
Ġqu ant
ism s
ab led
Ġab oard
ĠF ord
ĠL anc
Ġclub s
Ġst ood
Ġrat ings
p et
Ġne ither
Ġassoci ation
Ġele ven
Ġmusic ians
Ġro oms
ĠN ich
ĠB udd
ĠC as
az a
Ġrein force
Ġn one
Ġ195 1
ec e
oy d
Ġ194 9
ĠTem ple
Ġdes ire
ab b
Ġche ck
ĠTor onto
Ġsepar ated
ĠP ur
Ġcl imate
ĠO w
j a
ĠH o
ĠW elsh
Ġsh if
Ġout break
n ings
ut y
Ġclass ification
n ce
ĠN ations
we ight
Ġvehic le
Ġmed ic
Ġanc est
Ġseem ed
ĠByzant ine
in ton
Ġreal ity
Ġpred ecess
ĠT echn
um in
ĠAn ne
ĠAn ton
Ġvot es
Ġchem ical
Ġpict ure
Ġbattles hips
Ġmem ory
ĠC E
te enth
ĠAll en
Ġhop ed
Ġmov ements
Ġrequest ed
is f
e z
ĠProf ess
ch ar
Ġhistor ians
Ġra ise
ĠNether lands
ol i
ĠJ ournal
ĠMatt hew
om ot
ĠEver y
Ġro se
Ġdifficult y
Ġbask etball
ĠM it
pp er
ag le
ĠA k
ew here
Ġcommun ities
Ġrest ored
Ġs am
Ġ ille
Ġexp ect
Ġm o
Ġrem ember
Ġprogram me
ĠD og
Ġn av
Ġte en
ĠJew s
ĠDe an
Ġpremi ere
Ġdelay ed
b urn
Ġp ure
Ġrel ative
Ġdiscover y
ĠN ar
ĠD E
Ġk id
Ġinsp iration
ĠO pen
Ġother wise
Ġgreat ly
Ġs qu
pp ing
Ġann iversary
Ġv ide
Ġinj uries
ĠUS S
ĠH ell
ĠAg ain
Ġacc ounts
Ġneigh bor
Ġob l
ĠDes ign
Ġfund ing
Ġsurround ed
ĠJac ob
Ġfl ank
Ġsp oke
Ġpra ise
ĠP ow
Ġpenal ty
Ġbatt ing
Ġneed s
Ġdep ict
Ġf al
ĠIra q
Ġ19 00
ĠP A
ĠW he
Ġpart ner
Ġmass ive
ĠD er
Ġweap on
Ġclaim ing
Ġd ie
Ġd ens
ĠTh omp
ann y
Ġc rop
ĠB a
Ġsu it
ĠC ab
Ġtri es
ĠS ax
Ġform ing
Ġstr ategy
am i
ĠB ishop
ĠMar ine
Ġass emb
ĠE s
os h
Ġw rong
Ġast ron
ĠD omin
Ġr u
Ġle gend
Ġdocument ary
Ġacc ompl
Ġcross es
Ġfl ed
Ġwor st
ĠR aj
ĠCroat ian
C A
y ard
ic i
Ġstand s
d on
ĠThomp son
R A
ĠMar g
Ġtem porary
Ġarchitect ure
b an
Ġgirl s
ĠS ports
Ġdeterm ine
ab il
Ġtr a
c a
g ets
Ġdismiss ed
Ġg al
ir t
Ġinvol vement
ĠAr men
ĠRuss ell
ub le
ut her
Ġrec ru
Ġbomb ard
Ġs ale
Ġc ategory
es ter
Ġpl ane
form ula
ĠL ast
Ġrem n
re al
ĠGl ob
ĠCent re
Ġin ner
Ġadapt ation
Ġens ure
Ġconvin ced
ĠD ick
Ġwe ekend
ĠN FL
ĠO ak
ĠIs lam
ĠPu erto
Ġs ight
Ġhe ar
Ġl at
Ġas h
Ġres ources
ĠHe art
ind er
Ġsomew hat
ĠH oly
Ġinterest s
go ing
Ġres erv
Ġro t
ĠCar ter
ĠKel ly
Ġh a
Ġsc heme
Ġmed ieval
Ġimmedi ate
Ġdis pl
Ġsh r
Ġl ibrary
Ġst reets
Ġpresident ial
ost er
Ġabs or
ĠH op
Ġc ul
Ġcons p
ĠT rib
ĠR ick
Ġfall ing
Ġr ay
ĠAl ong
Ġcar bon
ĠCo oper
Ġcolon ial
ag re
Ġtechn iques
ĠMod ern
Ġf ighter
Ġn inth
Ġthr one
ĠN iel
Ġstar red
ond s
Ġsc rap
Ġapp ropri
Ġclass ical
Ġegg s
ĠBro ther
Ġr aces
ĠMar s
Ġacad emic
b ody
ĠHe nd
Ġad ults
Ġbr ight
Ġh al
ĠN etwork
Ġcomm emor
Ġpass enger
Ġo w
Ġsurv iv
ĠHung arian
Ġl oyal
ĠWin ter
ĠF ront
Ġo ri
Ġphot ograph
Ġme ets
itz er
Ġl ake
Ġreview er
ĠD or
ĠW right
Ġpremi ered
Ġsubmar ine
Ġ191 3
ĠE le
Ġabs ence
ĠTh us
Ġsee ing
Ġf itted
ic ide
ĠS n
ĠBat man
Ġel se
Ġren ew
Ġsuper ior
edd ing
we alth
ĠSp e
Ġs ed
Ġal ien
Ġfavor ite
Ġinter ior
Ġengine er
ĠPark er
ĠF ree
ĠW y
os ure
ĠN C
ron ze
n ight
Ġ ic
Ġpart n
Ġair port
ĠL abor
Ġde emed
Ġattack ing
Ġappear ing
ĠHar ris
Ġvis ible
ĠG ard
Ġconc lusion
an ia
Ġ192 6
Ġd ating
Ġrom antic
ac ent
ĠB ang
ĠJ am
Ġcharacter istics
Ġsynt hes
Ġd ub
ĠA I
Ġlead s
Ġelect ions
Ġoper ate
Ġfac ility
Ġencour aged
r an
Ġ192 7
Ġafter wards
Ġretire ment
ĠD NA
ĠL ibrary
Ġland ed
Ġcol ony
Ġtemper atures
Ġconv ection
Ġevery one
ĠMur ray
ĠP ak
Ġ192 1
s es
Ġsuff ering
Ġm unicip
b ec
Ġhold s
Ġcred it
Ġlegisl ation
Ġ193 4
Ġl ies
Ġmod ified
ĠEdu cation
Ġ0 6
Ġr um
Ġpain ted
Ġdo ct
ĠKn ight
Ġcontrovers ial
us ing
ĠN ob
Ġw ings
Ġg one
as ure
v ens
ly n
Ġbelie ves
Ġâ Ĥ
oss ible
ut t
Ġdistrib uted
Ġattempt ing
ĠHou ston
ix on
Ġc ode
ur ches
ĠPol ice
ro it
ĠL ate
ĠComm ander
Ġstand ards
Ġlook ed
Ġresc ue
ĠBer lin
ĠPal ace
Ġauth ors
iv an
ĠG ri
Ġsec ured
Ġdep icted
ĠSim p
Ġcan cer
Ġmon arch
Ġdomin ated
og en
Ġ191 2
Ġbattles hip
as er
ĠAd vent
Ġhabit at
Ġcontin uing
Ġany one
Ġbu y
Ġp in
Ġlong est
Ġjud ge
ap se
ars h
sc ape
ĠSant a
e or
com ing
Ġbig gest
ĠSwed ish
ĠG h
Ġunsuccess ful
ĠCommon wealth
Ġgraph ics
Ġgr ass
Ġchair man
it o
r ig
o en
Ġtr ained
Ġarch ae
Ġun ion
Ġp ound
Ġ9 00
em et
ch ang
ĠU t
ĠSt ory
ug oslav
ĠRober ts
Ġs udden
ĠSimp son
Ġw ins
ĠT ok
Ġarrang ement
ult ane
Ġcar rier
an th
Ġ193 2
ĠC ry
Ġn eck
ĠH ospital
Ġrail road
ĠInd ians
enc ies
Ġnick n
Ġj ump
Ġacknow led
Ġo d
ig ration
Ġinform ed
Ġmeas ures
ĠRA AF
e enth
Ġs an
Ġf er
ĠG et
ra it
Ġrepresent ing
Ġm ap
emet ery
ac he
inal s
app ing
ĠO bs
Ġrele ases
ask a
at ically
el ine
Ġbel t
ĠCor poration
Ġachie ve
om ing
ĠWar ner
t ure
Ġgar rison
á »
Ġse es
Ġformer ly
ĠC ook
ĠY ugoslav
ĠJ ason
Ġgr ade
Ġgener ated
ust er
Ġconv ention
b ook
ĠN BC
ĠE y
Ġclos er
Ġdeploy ed
Ġst yles
Ġemerg ency
ĠAnth ony
Ġb ats
tern al
ĠSil ver
ten ance
ĠSoc ial
Ġal leg
Ġquest ions
Ġmoder ate
Ġg ets
Ġtri als
Ġf estival
ĠM ort
Ã³ n
Ġs iege
Ġm olec
Ġinflu ential
Ġhistor ic
Ġcy cle
Ġemot ional
ĠE st
ĠCroat ia
Ġv eter
op es
ĠY an
ĠDet roit
f are
Ġown ers
Ġnov els
h ire
ĠL yn
Ġsuccess or
Ġinflu ences
Ġnar rative
ĠMer c
m un
ĠG aga
ĠR AF
Ġ192 9
p o
ol ph
ĠB ou
Ġjournal ist
Ġth in
ĠB ure
ĠTr ack
Ġchild hood
v is
Ġ191 1
Ġexper iences
ot ype
Ġst ead
Ġex cess
Ġe at
Ġconst ant
ĠAut hor
i ography
ĠCh amber
Ġdef ended
Ġdiscuss ed
Ġleg s
Ġapparent ly
ĠGil bert
ĠPrinc ess
Ġal co
Ġ0 8
Ġpre gn
ĠBel g
ow a
Ġinstr uments
Ġmat hem
Ġass ass
hes s
Ġvict ims
Ġtre ated
aw s
ĠSp ears
Ġenvironment al
Ġve get
Ġg iant
Ġexec uted
Ġdet ail
Ġcoin s
j i
t ic
Ġ193 1
y o
ĠC ru
ĠAs ian
Ġdipl om
Ġs ter
Ġoffic es
Ġ192 2
f ire
Ġ14 0
Ġfact ors
ĠJes us
h ar
ark ed
Ġdep os
Ġm ine
im ore
Ġent ers
Ġhun ting
Ġwood en
Ġconc ur
ĠMel bourne
ĠS omers
Ġbe ar
ĠNiel sen
ach ment
n oon
ĠEv ans
ĠP ope
Ġmain t
Ġhundred s
a ft
ust ed
ĠH in
Ġres igned
Ġr ide
ĠV ice
ĠCl inton
ĠUl t
ĠX box
Ġsk ills
ĠD esc
Ġch annel
Ġun iform
Ġreve als
Ġg ay
ast e
Ġo cean
ĠNever theless
Ġ0 9
Ġchap ter
Ġpoin ted
ĠC ategory
Ġb ab
Ġr idge
Ġsp end
Ġwatch ing
ĠGu y
Ġprev ented
st ances
Ġcl im
ili ar
ĠStew art
Ġprefer red
ĠMusl im
Ġp ushed
ĠP C
ĠAtl ant
ag u
Ġform at
ĠL i
Ġloc omot
Ġfoot age
Ġlangu ages
Ġdiffer ence
Ġopp onents
Ġhappen ed
Ġform ally
Ġthere after
Ġfle w
Ġdrum s
Ġreported ly
ĠHe avy
Ġfac ing
Ġrelationship s
ĠT ower
Ġres ign
Ġint ense
Ġthous and
Ġhand ed
ĠSam uel
ĠTurk ish
Ġdev ice
Ġnot ably
ĠOrig in
Ġp ull
ĠCar ib
Ġanim ation
ĠExp ress
Ġf iring
ic ians
og ether
P A
re es
ĠW ing
Ġch ain
Ġinh abit
ĠLenn on
Ġex isted
Ġvisit ors
t ty
Ġv ision
te xt
ĠSar ah
Ġg ather
Ġsurre nder
Ġemploy ees
ĠGre ece
ĠBalt imore
ĠRe al
a is
Ġaccomp any
or ous
ĠAust ria
Ġb on
ĠAlbum s
un a
Ġdepart ed
Ġlink ed
Ã ±
Ġhe aring
Ġexp osed
Ġbo il
Ġparticip ate
ĠQue ens
Ġpoet ry
2 0
ĠT al
Ġdial ogue
ĠB enn
on ies
ĠB ird
Ġext ent
ch ing
Ġdet ailed
Ġannoun ce
be an
Ġ17 0
sp ec
Ġsubstant ial
Ġlear ning
ĠColor ado
us ic
Ġaud io
Ġinst ance
ĠOr gan
Ġunivers e
Ġreb ell
ĠLe v
Ġcru isers
I A
Ġresident ial
Ġbe ach
ĠL ane
Ġimp ressed
ĠWrit ing
r um
ropol itan
Ġb es
res ent
ĠEd d
Ġperiod s
ĠInit ially
ĠH ans
ĠR ey
ĠMarsh all
end ment
Ġh uge
pris e
ĠFound ation
i ens
or age
Ġpubl isher
ĠMal ays
ut s
h att
Ġt aught
ull ivan
Ġe asy
rap h
Ġpl ate
ĠD ave
Ġafter noon
Ġent hus
Ġut il
Ġf il
st ic
ĠSt ock
Ġterrit ories
ĠFreder ick
Ġdr iver
Ġst em
ĠCh ronic
Ġtest ing
l ie
Ġimp rison
Ġreview ers
Ġvide os
ĠAr k
Ġ0 5
b oy
Ġh appy
ĠW restling
ph y
Ġ192 8
o is
r ant
ĠH aving
Ġtest s
ĠA ud
iam i
Ġh at
Ġup d
Ġtem por
it ter
ĠR aw
Ġunderst and
ĠB anks
Ġte eth
Ġisol ated
Ġsk y
D S
Ġs ke
un es
Ġst able
Ġnegot iations
m ad
Ġ x
rib ed
Ġvess el
ĠSomers et
Ġfe ud
Ġdiam eter
Ġin her
Ġag ents
Ġrep rodu
Ġsym pt
Ġv ul
ĠEr n
Ġpick ed
ĠHor se
ĠB ed
ĠH orn
Ġm art
ĠAn na
ĠMar io
Ġencoun tered
Ġbr idges
Ġ192 5
Ġgood s
Ġdang erous
el le
Ġfact or
ĠM un
ĠRele ase
Ġwithd rew
Ġsle ep
ĠL im
Ġj unior
Ġteam m
Ġsim ultane
ĠSy m
Ġdi agn
Ġag ed
Ġfound er
Ġcons ol
ra f
ĠC z
ĠJ ess
Ġnorm ally
Ġupgr aded
Ġre un
ĠAng lo
ĠGi ants
ĠK now
Ġkeep ing
ĠM iami
Ġspec imens
Ġbehav i
or ial
ic an
Ġ189 0
Ġp ounds
ĠSe attle
og an
d s
Ġmed ium
Ġwind ow
Ġsat ell
ic op
ro ke
Ġl ob
Ġfrequ ent
Ġsu re
Ġpart ly
Ġrel ie
Ġ192 4
Ġt ie
Ġcoll aps
et ime
Ġlow est
Ġeth nic
Ġc risis
ot o
ĠChampionship s
Ġres ear
Ġengine ering
Ġto ll
Ġpro hib
ĠPlay er
ĠS oon
Ġapp rec
Ġtravel ed
ĠO t
Ġwhere as
Ġorgan izations
Ġpro ced
Ġdesign er
Ġrare ly
Ġl ose
Ġref ers
Ġd iet
se a
ames e
Ġdoes n
Ġtur rets
u v
Ġt one
Ġtechn ique
ĠTreat y
ĠI owa
Ġout f
Ġdet er
Ġm ir
Ġsp ending
Ġfinal e
Ġcritic ised
ĠAl ab
ĠT s
Ġv ice
Ġadv ice
ĠTre k
Ġperm ission
Ġv ic
Ġmain tenance
m ission
us al
Ġins c
ot es
ĠR a
Ġpl atinum
Ġdifficult ies
Ġunc ertain
ĠB uck
bor ough
Ġpart ially
Ġunder w
Ġpolic ies
ĠAlab ama
Ġby pass
Ġrest ric
z y
Ġag ree
Ġver se
ĠHum an
Ġf ur
Ġcomp lic
Ġmain stream
ĠFor ces
Ġcompet e
Ġindic ate
Ġperson ality
Ġrank ing
iec e
l ock
Ġc a
Ġrecord ings
al o
i y
usc ript
ĠCarib bean
ol as
Ġcom ments
enn is
Ġexc ell
Ġpro port
in ction
ig en
Ġrem ove
Ġa x
Ġl iqu
Ġfinal s
Ġref uge
hel m
Ġant icip
olog ists
ĠLaw rence
ĠMiss iss
Ġconcer ts
Ġch ronic
Ġsaf e
ĠNap ole
ig s
y gen
Ġse ats
Ġwind ows
il st
Ġun n
ger y
Ġ192 3
ĠCharl ie
ĠYan ke
k es
ĠM L
ur ance
ok ed
Ġrest rict
Ġext reme
Ġfall s
Ġr ates
atter ed
Ġrecomm end
Ġf ighters
Ġstri p
Ġhon our
Ġpit ched
Ġrep air
ĠMin nes
ĠThe n
Ġcover s
ar ia
ĠE xt
Ġrec ur
Ġrepresent ative
ĠCan al
Ġsy mp
Ġdiv or
ĠSen ator
Ġj ur
Ġmon ument
ĠCro wn
Ġmor al
Ġt enth
Ġm amm
Ġal ter
x ual
Ġtr uth
Ġprompt ed
Ġp hen
Ġfor cing
Ġdescrib e
Ġph r
Ġbr and
aw ay
Ġh ockey
ĠB ros
ĠB uff
Ġto t
ĠS ab
ĠMin istry
Ġdestroy ers
che ll
Ġmin imum
ĠI an
Ġshe ar
Ġrec onst
ro c
ĠTown ship
ĠG arden
Ġch urches
Ġneighbor hood
Ġdif f
Ġfriend ly
Ġh ull
ĠC re
Ġover s
Ġboy s
Ġexam ples
ĠGram my
Ġbas es
ĠHung ary
Ġdraw ing
ĠNaz i
p ower
Ġtrav elled
i ac
ĠH and
ĠCount ry
Ġbomb ers
Ġp ric
Ġt ub
Ġdo ctor
ĠMc D
Ġdyn asty
ĠC all
Ġadj acent
Ġin aug
Ġappro val
Ġhous ing
ĠHe alth
Ġdisplay ed
ĠBen j
is d
Ġ0 7
ĠAustral ians
ĠRet urn
an ium
ĠBelg ium
M A
Ġcred its
ĠD ance
ĠFr an
Ġcreat or
ic y
ĠH amp
ĠUS D
ĠChrist opher
g ro
Ġgro wn
Ġjoin ing
Ġlist ing
Ġcoll apse
Ġtrib ute
ĠDie go
Ġpartn ership
ay a
ĠBl ood
Ġprot agonist
ĠPol it
ĠMed al
ĠShak esp
r ain
ĠE vent
Ġmom ents
Ġact ed
Ġchang ing
g as
Ġ *
Ġdesign ation
Ġcreat ive
Ġexpl o
Ġcop y
Ġpow ered
F C
al ions
ug by
ol is
Ġask s
ĠChild ren
Ġf ung
ĠM P
onna issance
Ġref ere
Ġt urb
Ġrad ar
Ġtre nd
ĠC old
Ġstorm s
Ġvill ages
Ġinstrument al
j o
Ġappoint ment
Ġar ts
Ġdoll ars
ĠM uch
Ġor b
Ġ190 5
Ġtreat y
Ġadv is
Ġposs ession
Ġscient ists
Ġ190 8
l s
vel t
Ġcan al
ĠC R
ĠR oc
Ġround s
ĠO p
Ġvict ories
Ġsurv ive
ĠGuard ian
Ġelimin ated
Ġpaint ings
ĠM ach
ĠN at
ĠRep resent
ĠLeg acy
ĠBenj amin
Ġcover ing
Ġm and
im eter
oun ced
Ġ190 9
Ġtr uck
Ġmin imal
ĠRo ose
ĠC red
Ġor bit
Ġj u
ĠMic hel
Ġ els
Ġt elling
Ġprec ip
ĠVietn amese
Ġels ewhere
ĠH ockey
ĠRec ord
Ġnewsp apers
Ġsurpris e
Ġbenef it
m ers
ĠH ud
Ġinn ov
c ol
Ġseek ing
Ġarr iving
Ġhelp ing
ĠHill s
ic ts
Ġoccup ation
Ġsu icide
Ġwhe el
ĠMinnes ota
Ġgr av
Ġpurp oses
Ġrhy thm
iv ated
Ġval ues
ĠLa ure
Ġdisp ute
ud a
ot ten
ĠR and
Ġun like
Ġoccas ions
Ġp ed
ĠD C
ĠK han
og y
ĠÃ Ĩ
ĠAlf red
Ġsm ooth
ĠDe ad
Ġlo an
ec raft
ĠD ur
Ġtw in
Ġo ption
it ud
Ġp ool
rup ted
ĠMan hatt
Ġg ard
act ive
Ġman uscript
ĠManhatt an
Ġf ishing
ĠInter state
Ġstrugg le
Ġmar ry
ĠWalk er
E S
Ġb rick
id i
Ġso il
ĠFrank lin
od s
c hen
ĠK urt
Ġmur d
Ġw et
ĠL l
ĠL in
for ced
Ġbal ance
ou ri
Ġdeg rees
Ġg at
ĠRoose velt
Ġpres erved
r im
Ġsched ule
b ra
ograph ical
row s
ĠAdm inist
r ad
ĠH ind
st ers
ĠTr ust
ĠPer form
at us
Ġ190 7
ĠPen insula
Ġpublic ly
Ġc ateg
ĠA h
ĠFl ight
ather ine
Ġcry st
Ġco oper
Ġviol ent
en h
Ġres umed
Ġcandid ates
id ers
Ġfl ash
Ġem peror
Ġneigh bour
Ġw edding
Ã© e
Ġcompet ed
Ġpil ots
A r
ĠK ansas
Ġ12 5
Ġsurviv ors
mun ition
Ġab ilities
Ġ10 5
Ġ16 4
ĠIndust ry
ro id
Ġd ies
ĠL am
Ġpro cl
Ġneut ral
over s
Ġdisc ip
Ġsp an
ĠShe l
Ġbeaut iful
ĠMississ ipp
inc ial
Ġintens ified
ĠSat ur
3 0
Ġimp ossible
ent ional
Ġal ignment
ĠPort land
ĠCom b
Ġteach ing
ish ment
Ġco ordin
Ġass isted
Ġc ook
Ġdefe ating
ĠAn im
Ġadv oc
Ġarg ument
Ġw rest
ĠTh or
Ġpo ison
Ġmult i
ĠB an
ant e
Ġconc rete
Ġelect ronic
Ġcust om
ĠN ash
Ġl ists
Ġn ations
Ġcons ult
Ġhel icop
ac le
ĠB eck
Ġg rey
ok ing
ĠHot el
ĠH ong
rom e
Ġpro sp
ĠBu ilding
ĠT un
ĠS et
Ġr ivers
Ġser ial
ĠF al
ĠB orn
Ġass ists
Ġle m
Ġopp onent
Ġabs ol
Ġinterest ing
Ġfound ation
Ġel abor
Ġagricult ural
ro t
ĠA ff
Ġbusiness es
ens ions
Ġback ing
ĠDig ital
ĠI ce
Ġsu itable
ĠB ull
Ġsim pl
ĠCo le
Ġsign ing
Ġ188 0
ĠL ith
Ġover t
Ġsub mitted
Ġtun nel
Ġox ygen
Ġd anc
il ty
Ġunderst anding
Ġm ines
ĠD iv
ĠF ried
Ġfif teen
e are
Ġschol ar
Ġencoun ter
ob ile
Ġsympt oms
Ġ16 5
Ġc iting
ĠG ab
Ġw aves
od ore
Ġbeh alf
c op
Ġs unk
it ated
Ġpercent age
ĠShakesp eare
ul ating
ĠN ative
Ġforest s
ĠHal o
ĠAre a
e u
ĠA R
Ġpar ish
Ġsit uated
Ġspirit ual
ĠTenn ess
Ġn inet
Ġfor ty
Ġsign s
ĠBl ues
ĠR ap
Ġclos ing
Ġs ank
Ġsubject s
ĠS on
ĠHin du
ĠW ard
Ġam munition
Ġvo iced
il a
ĠA thlet
Ġus ual
Ġill ness
ĠAlex and
ĠCamp bell
Ġrep airs
ĠOff ic
onym ous
ĠS ullivan
Ġres olution
Ġ0 1
ct ic
ĠBr un
ri x
ĠSte ven
ĠHer o
um an
Ġask ing
ĠC ob
Ġdis aster
Ġcor por
Ġfun ctions
ĠR ang
Ġim perial
Ġattend ance
Ġcollabor ation
ĠW olf
Ġass ess
Ġ0 4
z z
Ġl ieutenant
ĠLuc as
Ġrestaur ant
al ities
ĠH u
ĠV inc
Ġev il
Ġaud iences
ĠEgypt ian
Ġfeel ings
Ġcontro ll
ĠMarg aret
Ġunder ground
ram s
Ġj unction
Ġw orship
ĠF riend
Ġdel iber
Ġfl ights
Ġn om
ĠK ings
Ġaff airs
Ġsusp ended
l i
ĠSte vens
Ġsk ull
f ather
ĠS i
ĠP le
ĠMississipp i
f ace
ĠTenness ee
ĠD w
Ġex it
ĠV I
Ġwill ing
ĠR ace
ĠApp le
Ġtar gets
Ġearth qu
Ġcar go
Ġ190 6
ĠLouis iana
Ġrec re
Ġfun eral
Ġaff air
ĠMont real
ĠB ox
ĠL ad
Ġoper ational
Ġpoor ly
ĠHistor ic
ĠD est
Ġab ol
Ġ190 4
Ġmeas ured
od ge
Ġcomp ilation
Ġdoc uments
is p
iven ess
ĠPal est
ĠMiss ouri
Ġf iled
Ġmount ains
Ġaim ed
ĠLab our
Ġpr on
ĠWar ren
u able
ĠW ol
Ġregister ed
as ters
Ġcirc uit
Ġ36 0
Ġ187 0
ĠDep ression
ĠPhilipp ines
se x
Ġle ct
Ġstr ing
Ġinit i
Ġstat ue
Ġfavor able
Ġel der
ĠT ag
ĠP rom
Ġlik ed
ĠMit chell
Ġan ch
Ġrecogn ised
Ġexplos ion
ĠHar vey
Ġrepres ents
Ġadop t
Ġpro l
Ġprofess or
Ġtempor arily
ĠB illy
Ġentertain ment
l ah
Ġs ector
Ġro ut
ip ped
Ġrepl acing
Ġsequ ences
r ator
ĠCrit ics
t a
ar on
ĠMc L
Ġfif ty
Ġj azz
amp s
Ġw reck
Ġoff ering
Ġshell s
ĠD om
Ġart work
Ġw ore
ine a
Ġres idence
over e
Ġmar gin
ĠSm all
Ġinterp re
Ġprepar ation
cept ion
ĠDr agon
ĠIndepend ent
ĠGra ham
ate ur
ĠM ack
spec ies
am ic
Ġref lected
Ġw el
if er
we et
Ġall iance
Ġrel uct
Ġdirect ors
Ġrest oration
Ġpr ime
ĠCz ech
Ġexp ensive
Ġc yl
Ġb ot
ĠN on
ord ers
ĠBus iness
Ġterr or
Ġto uring
Ġover w
Ġalco hol
Ġcomple ting
Ġamong st
Ġthink ing
ĠN ear
ĠJo h
ĠKir k
iss ions
Ġsuggest ing
ĠF em
Ġp y
ĠU E
Ġb anks
Ġnuc le
Ġcanc elled
art ney
anc ell
yl an
Ġhor ror
inent al
Ġrebu ilt
b ishop
Ġcover age
at ics
ĠN ag
Ġr ig
qu es
ĠAri z
Ġpul led
Ġdec ides
Ġesc aped
ĠSe ven
ĠCub a
d ale
Ġwas n
Ġam ounts
ĠGu ide
r m
Ġer upt
ĠG rey
ag en
Ġre ven
and al
Ġd imens
ĠEd ge
Ġlack ed
el lect
ĠM es
id el
Ġr acing
Ġtrib es
S P
u ary
Ġc ous
os m
Ġdram atic
Ġb ay
Ġsub t
Ġclear ly
Ġcommunic ation
ĠPh oen
ĠMag n
Ġpattern s
T A
Ã §
Ġg arden
ph ony
Ġpred omin
overe ign
ĠC ow
ĠF iles
Ġfam iliar
Ġeng agement
Ġown ership
Ġarg ues
ĠR ing
ĠTam il
ĠV is
Ġmark s
Ġfr ig
qu ir
Ġ Å
ĠAriz ona
Ġs aved
Ġarm ored
Ġb en
Ġpers pective
ĠM ess
Ġcolon ies
ĠInd ies
Ġdro ve
ĠPers ian
ĠS now
Ġcontrib utions
ĠSatur day
ĠS ony
Ġwick et
Ġc od
ĠM aur
Ġs olution
ur ally
ĠH em
Ġmerch ant
Ġfast est
Ġtr u
Ġplayoff s
ĠK u
Ġart istic
Ġadminist rative
ĠD ylan
Ġremn ants
r age
Ġpr int
s ki
Ġcharacter ized
Ġfal se
un ch
id ency
ĠR en
Ġr it
ĠJos h
er on
iet ies
Ġbound ary
Ġex ecut
ĠSc out
Ġr ising
Ġse ed
Ġsever ely
Ġk ings
ĠY e
ĠMar ie
Ġcrew s
Ġinstit utions
Ġmilit ia
ok es
or ious
Ġarm ament
Ġbad ly
Ġt ag
Ġdisapp oin
Ġdep ending
Ġret ail
Ġflag ship
ĠConfeder ate
Ġob v
Ġbul k
ĠBure au
Ġear ning
Ġgen etic
Ġdistinct ive
Ġbow ling
Ġg ang
Ġexpl ains
n o
Ġb ronze
Ġrec ip
Ġrank s
Ġrestric ted
Ġ0 3
Ġfall en
ĠOk lah
Ġfr ust
Ġcompar ison
Ġth rew
Ġnot ice
Ġide al
b l
re p
ĠL ov
Ġexc av
Ġdemonst rated
or er
Ġrang ing
ch o
Ġexpl ain
Ġear n
Ġcond em
Ġpo ems
Ġin land
ĠC her
ĠK al
Ġ11 5
Ġcontrol s
Ġinhabit ants
c ru
Ġcon text
Ġarr ive
Ġdra f
n ik
or ph
ĠSw itzer
Ġrid ers
ĠS in
st orm
ĠMur phy
Ġpract ices
ect ic
ment ed
Ġs isters
Ġw ants
ĠMr s
u ations
Ġm ental
om ber
Ġk W
Ġqu iet
ĠWil helm
Ġsat isf
r ating
Ġcons ervative
Ġelect ron
Ġlo op
ĠSwitzer land
p an
Ġf aster
Ġwid er
ex p
Ġman eu
Ġsh ield
ĠProg ram
Ġg ap
Ġexc lud
form ation
s ky
ĠE conom
Ġsur ge
Ġaut ob
Ġspot ted
ĠBroad way
Ġre aches
Ġrev ol
Ġdistingu ished
Ġp ace
ĠL iz
uk i
Ġpl us
Ġ17 4
Ġev olved
Ġnorth ward
Ġvul ner
e qu
g ate
anc hes
iv ia
Ġacc eler
Ġ10 1
ĠBar ry
Ġ190 1
ĠCh and
Ġme at
Ġapplic ation
l ife
Ġ Ä
it ting
Ġsy nd
ĠOklah oma
ĠE P
Ġk it
Ġexhib ition
Ġmill imet
ĠAust rian
Ġquarter back
ĠA BC
ĠM ik
Ġnomin ations
un c
Ġag ency
Ġg ate
Ġsub species
Ġprote in
Ġsatell ite
ĠS uch
ock ing
ĠFeder ation
Ġdomin ant
Ġprep are
Ġhousehold s
r idge
Ġpred icted
rupt ion
Ġpal ace
Ġtri ple
Ġfr ame
ĠA my
ath y
ot ton
ĠDel aware
Ġst orage
Ġsl aves
ĠP ed
ĠOrig inal
b re
Ġ190 3
sequ ently
Ġob tain
Ġte x
Ġ190 2
in ations
est one
ĠLith uan
ĠT an
Ġab und
Ġprin ted
C C
Ġartic les
Ġatt ained
Ġcar riers
Ġrepeated ly
Ġint ellect
Ġpredecess or
Ġall ies
ĠLes lie
Ġfix ed
Ġst ores
Ġsp r
og a
Ġver tical
Ġsur gery
Ġv s
ĠPer ry
Ġpe aking
Ġv ast
Ġy ield
Ġ15 5
Ġphilos ophy
Ġv el
Ġst rict
Ġsign al
Ġbi ographer
Ġadvent ure
Ġblock s
Ġexcell ent
ur er
ack ed
Ġdis agre
ĠOrigin ally
Ġb oss
r ine
ant on
az ing
Ġille gal
Ġphen omen
ast s
ĠBab y
Ġper ceived
ĠHar v
Ġbomb s
Ġserious ly
Ġcho ose
r ates
Ġpre tty
ĠDen mark
Ġremark ed
ĠR ico
Ġwest ward
Ġap artment
ĠJon athan
ag asc
ov en
Ġwa iting
ĠTok yo
ĠR idge
ĠN ik
Ġcom fort
Ġuse ful
ĠR ih
Ġcircum stances
f e
Ġth or
ĠCl ar
augh ters
ĠPlay ers
Ġcur ren
ript ions
Ġsurre nd
ĠBase ball
ĠAtlant a
or i
Ġmeet ings
Ġdrug s
ĠRih anna
Ġbatt alions
Ġcoin c
Ġsk et
Ġdoll ar
Ġt ight
on ed
it age
ĠN ixon
Ġlay er
Ġcivil ian
ĠJohn ny
Ġread ers
Ġwh ilst
ĠF if
Ġarm our
ac on
ib l
ĠAbb ey
f ish
Ġs ick
im en
ĠL ess
Ġph one
ĠB omb
Ġmat ters
Ġinstit ution
ĠBern ard
Ġb reat
ĠM other
Ġcast ing
Ġfriend ship
Ġstrengthen ed
Ġvis iting
Ġt iss
Ġg ust
Ġplan ets
ĠTer rit
Ġrec onnaissance
ĠCamp aign
ph a
Ġsimilar ly
Ġch amber
Ġret ain
Ġsimultane ously
ic ate
ĠEd wards
ap olis
Ġleg acy
Ġaltern ate
ĠJu an
Ġdem anded
Ġty phoon
et on
ming ham
ri k
Ġ16 8
ĠAr nold
ĠPit ts
Ġjust ice
Ġpan el
ĠD S
Ġem pt
Ġenl isted
ro se
ĠH ann
Ġal ive
ĠR u
Ġins isted
r us
s k
ĠT el
ĠR oll
ĠRail road
on omy
Ġship ping
Ġh orn
Ġre vers
ĠBr ig
ĠJim my
aver y
ar ant
Ġre venue
Ġro ots
Ġprom ised
ĠPri ze
er k
Ġdem ands
Ġbomb ing
ĠKe ith
ad i
est yle
Ġt ack
Ġp unk
Ġposs ess
ar th
Ġl anes
Ġperson ally
Ġathlet es
Ġh ook
Ġcon sole
ĠR al
Ġdr ivers
ĠIntern et
Ġstrugg led
Ġdefin ition
ent le
Ġmain land
Ġlook s
ĠR achel
Ġport ions
Ġconsc ious
r ast
ar ation
Ġp ione
ĠLe x
Ġorchest ra
Ġback ed
Ġaud ition
ĠC hel
ĠW or
ĠMad agasc
Ġs ung
ĠB h
ab s
l us
Ġprop ag
Ġcontin u
Ġdem ocr
Ġbehavi our
rop h
Ġgu ilty
Ġguitar ist
ĠYanke es
d y
Ġd iver
ĠC ra
ĠW ag
ĠTr acy
Ġjob s
Ġart ific
Ġmarket ing
T W
Ġarm ies
Ġdemol ished
in ian
ĠO pp
ĠIn n
reg ation
ĠBir mingham
Ġd ancing
ĠS oul
Ġsur pass
Ġstar ring
ĠFurther more
Ġrul ing
Ġfe els
ĠP ars
ĠH ur
Ġincre ases
Ġprof ile
Ġfact ory
ĠEvent ually
ac re
ĠOb ama
ĠN ine
Ġsub st
um a
od ox
Ġhead ing
ĠMc M
ĠH ugh
Ġcomp ens
Ġmin ing
Ġ16 6
Ġcount ies
l ain
Ġthe ater
Ġin du
ĠSh aw
az ines
Ġp ages
ĠL ost
Ġr ub
ĠP il
ĠEnter prise
Ġess ential
ĠUnivers al
Ä ģ
ĠR at
gh an
Ġbelie ving
Ġorgan isation
ĠA ld
ĠCan ter
Ġdiscover s
ĠMcC artney
Ġpurs ue
Ġexp ression
Ġdisc ont
Ġbon us
Ġ0 2
ĠGr ay
Ġaff ect
ĠPhoen ix
Ġdeliver y
ter y
ar r
ĠB aker
Ġcl othing
ind ing
Ġmultip l
d in
Ġob st
Ġsuc ceed
ĠHud son
Ġport s
el and
ĠT on
Ġmob ile
ĠC ost
ĠJ up
ĠV ik
Ġcre st
Ġelev ation
ĠBudd h
ĠBob by
ĠC hen
ĠB ach
Ġpat ron
ĠGirl s
ĠConn ectic
ĠP ubl
ĠWay ne
ou ver
em en
Ġ10 9
ĠMadagasc ar
Ġac ou
Ġsecret ary
Ġdoub t
ĠCom ple
Ġfore cast
f olk
ac c
Ġk iss
Ġdr ink
Ġeng age
ĠPear l
ĠConnectic ut
L C
Ġacc um
ĠDef ence
ĠImp act
ĠF at
Ġr if
ĠIr an
Ġs q
Ġc up
ro v
Ġhor iz
Ġst ick
Ġal tered
Ġoverse as
ĠM ans
ĠMor rison
ĠTod d
tar io
Ġc hest
p y
ĠR ights
Ġmay or
ĠBos n
Ġdeter ior
ĠPe ace
um ps
ĠOn tario
Ġdef ences
Ġlist en
ater n
Ġexp and
Ġer ected
Ġbab y
ult an
ir ty
Ġcomp ounds
Ġcan cel
Ġren ov
Ġsett lers
c les
Ġb id
ic ation
ĠCanter bury
in ces
Ġst ress
ĠFr iday
ĠKar l
Ġs alt
ĠR ub
ĠSt at
sh ore
Ġlegisl ature
ĠWork s
Ġmusic ian
gr ad
ot yp
Ġobject ive
ĠLeon ard
ĠM aj
ip h
ĠCommun ity
Ġdec isions
Ġhigh ways
Ġra ising
Ġdis l
Ġaer ial
ĠAll ies
war f
Ġv oy
Ġafter math
Ġconcent ration
Ġconvers ion
A C
Ġcampaign s
Ġsol ar
ens ively
Ġliqu id
Ġor n
Ġsold ier
Ġsit ting
Ġindic ating
Ġconsp ir
Ġw ait
Ġexact ly
as ant
ow ed
Ġh idden
ĠFore ign
ĠB i
th a
Ġpro ve
Ġorgan ised
Ġwealth y
Ġsc en
ĠSp art
Ġperm itted
Ġacknowled ged
Ġw restling
Ġd anger
ĠC yr
ĠH old
ĠL ang
ĠPr uss
Ġtro uble
Ġh app
Ġimpro vements
Ġdissip ated
ann on
Ġgrad uated
Ġstrik ing
Ġd ressed
ĠM anu
Ġreal ized
ĠMic ro
Ġappropri ate
Ġconf ron
ĠWind ows
ĠD iam
Ġsk i
at ropical
Ġrad ical
ĠBoy s
Ġexec ution
ĠG oth
Ġparen t
ĠNapole on
ĠF el
Ġmet er
Ġobserv ations
ĠGri ff
ĠUE FA
Ġraid s
ir ts
ĠP att
ĠOut standing
Ġremov al
ĠN AS
Ġprof it
Ġtrav els
Ġinterpret ation
b ird
p ent
Ġfew er
Ġcelebr ated
Ġven ue
Ġen cl
Ġpublic ations
Ġagg ressive
am ents
ok er
ues e
Ġinit iated
o ons
ĠA y
if ies
ra wn
Ġtheat rical
Ġtur ret
ĠK it
Ġpubl ishing
Ġrequ ires
Ġchap el
ĠG ary
Ġevac uated
ell i
anc ouver
ĠSe ason
Ġdeb t
Ġfound ing
Ġorig ins
Ġorigin ated
Ġjur isd
ĠV ancouver
E C
in ister
Ġsh arp
Ġstation ed
Ġexpl an
ĠT ol
ĠLe gend
Ġdef ending
Ġestablish ing
Ġcann on
ĠJup iter
ĠS em
ĠD a
ag g
Ġconn ect
it als
ul ous
Ġconsid ering
Ġrebell ion
iv ation
Ġsh orter
ĠEd in
Ġarrang ements
Ġannounce ment
ar o
Ġn et
ĠL ion
ag h
Ġsup ple
Ġbr ill
Ġ15 2
ract ion
Ġcut ting
ĠB ath
ĠPak istan
Ġgu arant
ĠMount ains
Ġt ort
Ġb ones
Ġstep s
m und
Ġf antasy
ĠG ate
ĠCh ampions
ĠMin t
ĠT NA
st an
ĠD all
ĠL aur
Ġmag azines
ĠDr ive
Ġconn ecting
r ac
Ġapproach ing
itud es
Ġhost s
aut ical
Ġdon ated
Ġasp ect
Ġextr atropical
Ġpl acing
Ġwalk ing
ĠCy cl
ad ier
Ġmus h
Ġins ects
Ġmag ic
Ġstrateg ic
Ġl ying
ĠBrad man
ĠPortug uese
ĠCh ampion
it ively
Ġon going
Ġdiscuss ion
ĠAdminist ration
enn ium
Ġcolle agues
Ġtal ent
Ġl in
Ġfun ny
Ġm emor
Ġed ited
j an
Ġout l
Ġyoun gest
ĠTri ple
Ġclos est
he ars
Ġpred ict
Ġqual ified
Ġhyp othes
ĠÃĨ thel
Ġgat hered
ĠJ ar
Ġ17 3
Ġbattle cru
Ġtub es
ĠT rophy
Ġdec ide
Ġdr ag
d ess
Ġfor th
ĠO ur
ip per
Ġvol umes
ro us
Ġput ting
ĠT it
ĠDe b
Ġland scape
Ġindic ates
Ġwaters hed
Ġstrong est
Ġwithdraw al
Ġ189 3
ĠDw ight
ĠAl ice
Ġ186 0
Ġang le
ec ution
Ġgl ac
Ġsuppl ied
ĠS ig
ĠC ov
Ġmark ets
Ġsw itch
Ġred e
Ġident ify
Ġp ale
Ġcou p
Ġfor g
Ġcirc le
ĠSt u
ĠMar vel
Ġexp osure
ĠS ak
Ġspec imen
Ġmer ely
Ġcollaps ed
Ġan th
Ġgr ay
Ġ189 6
Ġchalleng ed
Ġcap s
Ġconf ront
ĠFle ming
ĠRes erve
ĠM em
im ented
Ġpart ial
Ġdens ity
t i
Ġ11 1
Ġc ub
ĠHamp shire
ĠEdin burgh
Ġl es
m i
Ġdes ert
Ġvis its
Ġdub bed
Ġsh ift
Ġlim its
ĠNC AA
Ġaff ili
Ġfeed ing
ĠHon or
Ġb are
Ġ10 4
ĠM ission
Ġbe am
ĠOl iver
ĠPot ter
ĠS hip
ot te
ĠTh ose
ĠG ene
Ġprov ision
Ġeduc ational
Ġhydro gen
Ġconv entional
ĠJ oy
Ġse ized
ov a
Ġcl in
Ġpri ze
ĠS omet
ĠF lying
ear ing
ĠY ears
ck s
Ġdu o
Ġc reek
Ġbe aring
Ġsp ac
Ġann ually
Ġconcent rated
v y
Ġto pped
Ġmembers hip
Ġch ampions
Ġpl ain
so ft
elt a
ĠAf ghan
ĠMet eor
Ġattend ing
Ġass embly
ĠIs a
Ġpar ody
Ġcor ps
Ġ189 8
ament al
j oin
Ġrang es
Ä į
ad al
id al
ir ates
est ed
Ġex ha
c ase
ĠC hes
ĠChart s
Ġc ock
ĠL at
ĠAn c
on ium
Ġn avy
Ġoff ense
Ġdog s
ic le
ĠT ype
ĠT ob
Ġemphas is
Ġs ad
ĠAb d
ĠA S
ĠN atural
Ġweek ly
Ġf urn
Ġ17 1
ĠBe gin
Ġproduct ions
Ġexerc ise
igen ous
Ġun less
ang le
Ġtalk ing
ann er
Ġinvestig ate
Ġtick et
ag ger
Ġbas in
Ġt rough
ĠP in
Ġgr ave
ĠFin ally
uzz le
ather s
Ġleg it
Ġpromot ional
ĠRal ph
ĠL ib
Ġan ime
ĠMos c
ĠPr incip
Ġb acter
ĠB eng
id ae
hy l
ĠDemocr ats
enn a
ĠVictor ian
ĠPerson al
b ow
d a
ak s
Ġportray al
ĠS ay
Ġres ol
Ġj ury
Ġce ased
Ġfort ress
Ġflood ed
ĠL ist
ĠYork shire
Ġadvert ising
Ġb one
ter ior
Ġ17 2
iet h
Ġf ill
ĠN O
Ġreg ime
ĠArgent ina
Ġb ond
pl ed
Ġcons ervation
Ġbirth day
ĠLl oyd
ĠL en
ug g
ik a
ĠMon te
Ġemploy ment
Ġunc le
Ġpers ons
Ġout put
Ġ35 0
Ġcru c
ĠChristian ity
A R
Ġatt itude
ĠCon vention
Ġsend ing
Ġphotograph s
ĠD od
Ġev al
ris ing
Ġsoft ware
ĠVill age
I S
Ġb ishop
ĠW here
Ġexperiment al
ĠBrother s
Ġhit ting
Ġquestion ed
ad ers
ĠL as
ĠV i
port ed
Ġ12 7
ĠC elt
ĠOver all
ĠJer ry
Ġqu een
Ġgu ide
ĠChronic le
ot al
Ġsc attered
Ġ16 1
Ġdr inking
Ġball ad
Ġtransl ation
au x
Ġunderw ent
ro ying
ol ly
Ġmat ure
Ġprov incial
e an
h ous
Ġunc lear
Ġoverw hel
ĠL t
Ġend ors
Ġco ff
Ġ189 9
Ġassemb led
ell o
Ġrepl ied
Ġagg reg
Ġcous in
Ġp apers
Ġbr ig
Ġrepresent atives
ĠColl ins
ph one
Ġlaw yer
Ġswim ming
g ie
ip er
ĠBook s
Ġcomment ary
ã ĥ
Ġc ens
ĠMar ge
iff s
Ġimag ery
Ġprocl aim
ĠP ink
Ġcl ock
Ġout d
Ġco at
Ġthir teen
Ġemp ire
Ġex ternal
ĠMay a
ĠFin land
Ġliber al
Ġlov ed
ĠHow e
ĠCra ig
Ġcomp rom
ass ador
ham mad
Ġlaw su
Ġterr ain
Ġacou stic
Ġpict ures
Ġexclus ive
Ã º
it is
Ġsl ave
Ġelectric ity
Ġd uration
Ġst reak
Ġmon aster
on ica
ic ations
Ġd aughters
ĠF und
oy s
Ġmov ies
ĠDe ep
o a
as hes
ang el
ĠTurn er
Ġw ire
Ġdev ast
Ġaccompany ing
ĠO m
Ġbr anches
ĠAp oll
Ġsurrend ered
Ġm ac
ĠW ii
Ġarr ives
Ġten ure
ate ver
Ġstrong er
Ġident ical
Ġbur ial
Ġexper t
Ġsuccess ion
ĠSimilar ly
ers ed
ĠNor folk
ĠHard y
Ġre verse
Ġcomp onents
ĠQueens land
ĠP y
Ġbe ats
ĠAnd re
ĠHer itage
Ġd read
ĠN a
ri ors
Ġredu cing
Ġster e
ĠM ong
Ġchar ter
Ġreve al
ens ed
ĠAd v
Ġreinforce ments
ĠA x
ĠJ ama
Ġpric es
Ġs ang
Ġc ad
Ġm al
pl er
Ġ10 8
Ġtrad ing
ĠBel gian
ĠBur ton
ĠProt est
Ġm ask
ĠD ub
Ġdest roying
ĠHawai i
ĠNich olas
ĠProfess or
Ġsp aces
Ġfail ing
h ard
ĠE ug
Ġsc r
ĠPr im
Ġcompet ing
Ġ16 9
Ġpen et
Ġmechan ical
Ġexclus ively
ĠM S
olog ies
ĠBo at
ĠCommun ist
ĠP rop
Ġrec all
ĠP am
ĠBenn ett
Ġst ops
Ġat omic
ĠRang ers
Ġis ot
ell ation
Ġcomp onent
aj a
Ġsc ar
Ġ185 0
est y
ĠBe aut
Ġprecip itation
Ġdevelop ers
Ġsl avery
ĠDav ies
ĠC ricket
ĠServ ices
igr ants
Ġgovern ments
Ġtrad ed
Ġdev ices
ĠVinc ent
pl ace
ĠMe g
ĠEm my
ĠCred its
ĠC atherine
ric ts
h u
ab e
Ġconsist ent
Ġb anned
Ġre ward
Ġfoss il
Ġcent ers
Ġmin i
ĠMed ical
ĠLiber al
ib ilities
Ġvar ied
Ġflow ers
ig ible
Ġartific ial
Ġt ube
ĠL iving
Ġrad iation
ĠS ign
Ġdec ay
Ġconsid ers
ĠSw ift
Ġcounter p
Ġplatform s
Ġt ip
Ġvir us
ĠH az
Ġpo le
Ġmy st
Ġred es
Ġcontrib ution
ĠTransport ation
O S
Ġw ish
ĠP ap
ĠHug hes
Ġearthqu ake
ĠTr aining
Ġelect rical
ol es
Ġdis b
Ġpol ar
ĠT ak
Ġburn ed
ĠLoc al
p ike
ĠDon ald
Ġhy br
ĠPri x
Ġarchitect ural
Ġd ict
am as
Ġwas te
ĠL ock
Ġreview ed
Ġhum or
Ġsongwrit er
at ched
ĠC urt
ĠM alt
ĠL ook
Ġ189 7
Ä ĥ
ĠK l
ĠTh under
Ġboil ers
Ġpro ceeded
ĠY ellow
Ġobs c
Ġunderst ood
ĠJ un
ĠK ap
Ġfour teen
ĠGu itar
Ġp ush
Ġadv ised
Ġhand led
Ġfrequ ency
Ġinters ects
Ġtalk s
ĠS le
im p
ist a
Ġdestroy er
Ġimpro vement
Ġprofess ion
rast ructure
et hel
Ġhe ir
ĠSt ri
ĠMark et
ĠPet ers
ĠHarv ard
on ald
Ġ16 3
ĠGl en
ac les
Ġam ateur
Ġrequire ments
Ġtex ts
Ġb ath
ĠM and
ĠNe xt
Ġthe ore
Ġcop per
ĠB ak
Ġcon ceived
ĠDar win
Ġsam ples
ĠSax on
Ġm ent
ĠD ram
ag s
ĠSw iss
Ġin duct
Ġconf lic
ĠCam eron
ĠTra il
Ġphr ase
ĠâĢ ¦
Ġsix teen
Ġrefer ring
Ġinvest ment
ĠMosc ow
Ġsh ares
ĠOs lo
ĠK ate
Ġredu ction
Ã¼ r
u ating
Ġw orn
ur as
ĠR ab
ill es
ĠIn v
Ġus ers
Ġair field
Ġcertain ly
ĠPitts burgh
Ġe cc
ĠD ak
Ġchar ity
itar ian
ĠGall ery
ol en
Ġwe igh
Ġvot ing
ĠIndones ia
ici ency
it ely
ult y
Ġrespect ive
Ġcle ared
i oc
Ġpra ising
ĠH ob
Ġpark s
Ġp el
Ġlab our
Ġl ie
ax y
ĠT ax
Ġex ceed
ĠHar bor
Ġconn ections
Ġflow s
Ġphot ography
Ġtact ics
Ġthe rap
ĠGe off
ĠK o
Ġgross ing
Ġto ured
Ġqual ifying
Ġspok en
g om
er g
en cing
ĠR ic
Ġsurv ival
ĠM ust
Ġconstitution al
ethel ess
Ġs oph
ff ield
Ġqu ad
ĠBl u
Ġaut umn
ĠTer ry
um ble
Ġcontin uous
h aw
ĠC raw
Ġrul er
st rong
Ġcomm enced
Ġcommand ing
re hens
ĠD in
ĠAl aska
Ġ10 6
Ġ16 7
Ġshould er
Ġswe et
ĠAnton io
Ġn autical
emb r
Ġpat ients
raz y
O T
ĠT ig
Ġconf idence
Ġtax es
Ġlegisl ative
Ġl ock
Ġopportun ities
Ġton nes
ed ing
Ġre organ
im m
Ġatt orney
Ġ15 4
Ġ12 1
Ġenthus i
Ġst uff
Ġex ists
Ġtransport ed
ĠBroad cast
Ġf isher
ĠWall ace
Ġunl ik
h in
ĠM ason
Ġsign ature
Ġf old
Ġbl ind
Ġcamp s
Ġcommun ist
Ġcompet itive
Ġur anium
ĠMicro soft
Ġhe m
ĠL em
Ġrec on
Ġrel ocated
Ġtransl ated
ĠD yn
Ġmel ody
ĠJ TW
ĠAl i
ĠJTW C
ing ham
Ġtest ed
Ġind eed
ĠMay or
ĠSy ria
Ġrein forced
n g
ĠAfter math
Ġminor ity
Ġf asc
ep ing
Ġrock s
Ġtravel ing
Ġf ulf
Ġn it
port ing
Ġcommand ers
Ġrev ised
Ġrev olt
Ġfair ly
Ġp airs
ces ter
Ġdec e
ic ated
ĠS weet
ĠB ald
ĠK ane
ey er
Ġnob le
b es
Ġs overeign
ĠF arm
ĠF err
ĠG or
ĠU pper
ĠSt ill
Ġun w
Ġman ga
exp ected
ay an
Ġimp ression
Ġexpl icit
vent h
Ġwithd rawn
Ġcart oon
Ġl ad
am bers
enes is
v ant
ĠGr ace
Ġcrop s
on ian
ĠShe ffield
Ġprogram ming
av or
Ġdis char
urric anes
Ġextend ing
ĠIsrael i
e ared
ĠLar ry
Ġdispl aced
Ġacc ord
Ġexper iments
ĠLu ke
Ġprom in
Ġprincip les
Ġvo ices
ĠOffic er
av ia
ĠSt ars
Ġbl ues
Ġext inct
ĠSec urity
m ith
ĠM ond
ĠSte f
Ġ189 5
Ġrepresent ation
Ġmagn itude
Ġlearn s
Ġf ram
Ġh ole
ĠT ow
ĠTh r
Ġprov inces
leg raph
Ġprison er
and om
Ġun con
Ġcharacter istic
ĠJeff erson
w here
ĠR ud
Ġdist ant
w a
Ġm oon
Ġen force
is ive
ĠSe e
uss ion
Ġmar ine
Ġcul min
ĠDall as
c ott
Ġs ample
ĠE mer
Ġab use
ĠEx per
Ġsum m
ĠGame S
ĠPict ures
ĠBry an
Ġinterpre ted
Ġn at
ĠJohn ston
ĠHer ald
Ġlight s
he ll
ĠHe y
Ġwar fare
ĠX I
ĠT ogether
ĠCyr us
ĠP hys
ĠR P
Ġrel atives
ĠClar ke
ĠH D
Ġcon ce
Ġcomp ound
Ġpract ical
Ġc raft
Ġappro aches
Ġrival ry
Ġw onder
ĠA M
Ġhe rit
ĠGu inea
Ġcut s
Ġ id
ĠP S
ĠCl ay
Ġtom b
ĠPerform ance
ĠH alf
ades h
ĠMalays ia
Ġn erv
ĠE ff
Ġair ing
ĠN i
Ġtrad itions
Ġdisplay s
Ġburn ing
Ġpropos als
Ġshif ted
Ġcar ries
Ġlight ing
f eld
Ġre hears
ĠCh ile
Ġwar nings
ĠOr ange
ĠDef ense
Ġblock ed
Ġmultipl ayer
ĠW ells
ĠG ot
ĠN av
ĠO ri
ach ing
ĠAust in
Ġrest ore
Ġgirl friend
Ġmedic ine
Ġvict im
Ġparticip ation
Ġgrad uate
Ġs ings
et o
ĠF BI
ĠG reater
Ġmy ster
Ġreb els
ĠOff icial
ĠPars ons
ĠP ic
ĠP ast
ĠQu est
Ġtransport ation
Ġjud g
Ġprepar ing
Ġsk ill
ĠNe il
Ġscore s
ĠOw en
r un
ĠE ight
ĠO sc
ĠChel sea
um ph
Ġabs ent
am an
ut ton
Ġcon ven
Ġval uable
Ġinterview s
ĠFall s
as a
Ġprot ests
Ġcycl ones
ĠForm ation
Ġw ished
ation ally
ĠW oman
Ġr iding
Ġch ore
Ġbrill iant
um ped
ĠR est
Ġfilm m
ĠZ e
Ġsal ary
Ġth under
ĠArm strong
Ġunlik ely
mer ce
ĠBrazil ian
ro oms
ov iÄĩ
Ġtr unk
ĠDan ish
Ġrecover y
ĠClass ic
ĠMcK in
ĠDesc ription
ĠM ix
Ġcab inet
Ġmaint aining
ĠSe ga
Ġsal v
ĠBegin ning
T S
ĠF isher
ue z
Ġmar ch
ĠSte el
ĠQue bec
Ġdist ricts
Ġpass ion
ĠOr le
ĠGreat est
Ġreform s
Ġinter vention
Ġcinem a
Ġin g
Ġarg uing
Ġestim ates
ĠStud io
oc ity
ĠPr iv
Ġhar bour
ĠFour th
ĠR ena
oc a
Ġcour ses
Ġdrum mer
Ġrac ial
ĠA P
Ġg arn
Ġcon tend
ĠE ve
Ġbene ath
Ġgrand father
Ġrecur ring
Ġf est
Ġp ier
Ġinf l
ĠAct or
ĠP a
ĠSp r
Ġsignific ance
Ġvulner able
h um
Ġa ft
ro d
Ġe ating
Ġkill s
Ġpet ition
h l
Ġtow ers
Ġaccur ate
Ġb ull
ĠS om
Ġwe b
Ġrele g
Ġadvert is
Ġp ap
Ġup set
ĠLit er
Ġdivers e
ĠD aw
ĠT ai
ĠR io
ĠCat hedral
ĠAuthor ity
ĠE c
Ġstat istics
Ġcommunic ations
M I
Ã¶ n
ĠE is
ĠAg ency
Ġspons ored
ĠC ad
Ġval id
Ġapplic ations
ĠK er
ĠConstant in
ĠOrle ans
Ġcl ar
ĠKa iser
b al
ĠSus an
ĠSp irit
Ġnumber ed
Ġeff icient
ro st
Ġun expected
ach ute
Ġair line
ĠNe v
ĠCult ural
Ġcl othes
Ġh ind
ĠHar old
ĠUt ah
um ented
ĠJ unior
Ġdecor ated
Ġ10 2
ĠPl ant
Ġsac rif
ĠSerb ian
ĠGlob e
n t
ĠC ass
ĠF u
Ġlast ing
Ġfac es
Ġess entially
Ġshall ow
as m
ĠL ink
Ġsh ock
Ġinc lusion
Ġt ale
Ġto ler
ong e
Ġ186 1
Ġsurpris ed
ĠFI FA
Ġansw er
Ġconsol id
Ġm ate
ĠC BS
Ġg ender
our ce
Ġste ep
Ġchart ed
ar io
Ġp m
Ġi P
Ġm ood
ĠRich mond
Ġ188 9
Ġemot ion
Ġl iner
ose xual
ab ilities
oc y
Ġdeep ly
le te
Ġpar as
Ġbeat en
Ġthe ories
ut o
Ġsquad rons
at ra
be at
Ġmor ph
Ġrat io
Ġtr ick
Ġmer ged
ĠMu hammad
Ġman age
Ġinv ent
Ġ189 4
Ġpot entially
ĠProv ince
ĠConstant ine
Ġf ate
Ġsum mit
ĠNew ton
Ġdraf ted
ĠRepublic ans
Ġscreen play
ur d
ĠV ers
Ġ15 8
ĠTy ler
AT O
er ver
Ġc ant
Ġto urs
ĠS alt
ĠP ad
Ġprocess es
Ġsusp ic
ut or
ash i
ĠScient ology
Ġj et
at ical
ĠS ac
est on
Ġsw it
Ġ189 1
Ġem br
Ġdesc ent
ĠH av
ĠG ay
lev ard
Ġcr imes
Ġsent ence
Ġdanc ers
az e
Ġdem o
Ġproport ion
ĠStu art
Ã© s
Ġcivil ians
Ġseg ments
Ġpersu aded
Ar thur
at ers
Ġd ense
ĠM end
Ġbe ating
ĠF ighter
aff e
Ġbeaut y
it ious
Ġ16 2
ĠPan zer
Ġd ual
ĠA T
Ġfund ed
Ġimplement ed
Ġherit age
re ated
ĠC S
Ġ11 3
ĠYou T
ĠMin or
Ġaccommod ate
ĠApoll o
Ġalt itude
re ens
ill o
uck er
Ġreact ions
ĠYouT ube
Ġh ills
aid en
ĠPro duct
it ate
ke eper
ĠY am
Ġcol ors
ĠPict ure
ĠN S
land ers
ĠOr chest
Ġ100 0
Ġpresent ation
Ġhol iday
Ġagricult ure
ĠBuff alo
ĠS ug
anc he
ĠAm endment
Ġstruct ural
Ġgold en
Ġcompl ained
ĠE th
od ed
Ġfe ared
ĠX II
Ġadm inister
ĠV l
Ġ189 2
Ġdev oted
ĠSc ar
ĠIndones ian
ist ent
ĠK am
Ġadd ressed
cast le
ĠCard iff
Ġcolumn s
Ġev ident
Ġrequ iring
Ġsail ing
Ġre join
Ġpro of
oc ation
Ġman ip
Ġsout heastern
ĠSym phony
Ġw ine
ah a
Ġd warf
ĠI van
Ġmer c
Ġori ented
ĠS out
ap ing
Ġâ ģ
Ġbreak s
od a
Ġf ame
Ġn urs
ĠCons ervation
ĠD ays
ĠN ord
Ġerr or
Ġobs ervation
Ġtrib e
Ġ15 6
ĠWith out
Ġfollow ers
ĠElect ric
Ġmyth ology
Ġc ards
ens on
ons in
ĠReg ister
Ġvoy age
Ã «
Ġb ell
ĠD anny
ĠV el
Ġconf usion
Ġjud ges
Ġinteract ion
ĠBrook s
Ġkid n
ĠF act
ber ry
Ġ18 00
Ġkn ee
ĠHun ter
Ġpregn ant
Ġresear chers
ĠK yle
Ġb oot
Ġp ip
ĠS ox
Ġquar ters
Ġjurisd iction
ĠC avalry
Ġg ene
ĠBurn s
ĠS ection
ĠS ultan
ĠF ull
Ġrece pt
ash a
Ġoper ates
ĠW isc
ĠG round
ĠN ature
Ġsudden ly
usal em
Ġcateg ories
ĠUn til
ĠIslam ic
Ġp ink
ĠG w
Ġcomment ing
Ġop ens
j e
ĠR uth
Ġwrit ings
osp el
Ġdiplom atic
Ġemb arked
Ġobl ig
her ic
Ġinter medi
m n
Ġt ension
ri fic
Ġ13 5
ĠAct ress
Ġphys ics
c ar
is ons
Ġadv ancing
Ġsuper st
Ġsculpt ure
Ġhighlight ed
ĠJoh ann
Ġâģ Ħ
Ġr ib
Ġext ensively
ĠMet ropolitan
Ġs ized
Ġre ct
ĠH ope
ĠW alt
Ġth rown
Ġsimilar ities
ĠâĤ ¹
Ġf ert
Ġg aining
Ġag es
Ġstud ying
ĠBo eing
ows ki
Ġprincip le
ĠJer usalem
Ġchalleng es
ĠT err
Ġbe ars
her s
Ġass um
Ġsug ar
min ster
Ġh o
ĠC O
ĠAir lines
ĠS ide
ĠP ok
oth y
Ġvar i
ĠEx ecutive
ĠWisc onsin
p ot
ĠB ible
bo ards
ĠJust in
Ġgard ens
f r
am ount
ĠRe ich
ĠAb u
Ġman if
Ġ15 3
ĠTr ade
Ġequ ally
Ġsent enced
Ġstat ements
Ġdro wn
ĠMont gom
Ġlif etime
ĠMontgom ery
en ess
Ġkn ocked
ĠEd ition
Ġneigh b
ĠTy phoon
Ġj ack
Ġinf rastructure
ĠMc N
Ġconstit u
ass ed
Ġfe e
Ġloc ally
Ġeduc ated
b orn
st s
ock et
ĠLeg isl
Ġr ivals
ant ed
Ġdisturb ance
Ġor ange
ĠSt art
ĠBar nes
Ġ24 0
Ġto oth
ĠT itan
ĠA A
ĠB ased
Ġg ift
Ġdivor ce
Ġpred ators
Ġtradition ally
Ġdeal ing
Ġbound aries
n els
th odox
ĠSch um
Ġt ies
ĠW onder
ĠEn v
Ġvar iation
ĠGr ade
ĠP rest
Ġpri est
ĠIndepend ence
Ġoverl ook
Ġdoc umented
Ġunivers al
Ġexpl aining
ĠCr us
ancell or
y e
Ġres olved
Ġempt y
ĠTur key
Ġ188 8
ĠAtt orney
Ġstret ch
ĠB es
Ġrece ives
ĠRog ers
en os
is fact
Ġr ings
Ġam ph
ĠMil es
Ġsp awn
Ġen abled
ĠCent ury
Ġsw ord
Ġsettle ments
Ġrecru ited
p ine
ark s
ling ton
ĠBar on
ĠCont rol
Ġgarn ered
ĠSc ots
Ġtrav elling
Ġconsider ably
Ġn aming
ĠSe an
Ġexpl ore
Ġcommerc ially
Ġbenef its
Ġdiscont in
Ġt ape
or ia
ĠC emetery
Ġhel ps
Ġ188 5
Ġvill ain
ĠMac Arthur
Ġtick ets
op p
qu est
ĠSat urn
Ġresc ued
Ġm ud
Ġopt ions
Ã© t
Ġcr ashed
Ġhost ile
osa urs
Ġ urg
ĠA ber
Ġl ift
ĠI cel
Ġsub stitute
Ġash ore
Ġt u
ĠT ang
Ġse as
omet ric
Ġinvol ves
Ġweaken ing
uls ion
Ġn ep
Ġsup ern
ĠLe af
ĠQu ar
Ġsm oke
Ġbat ted
Ġdis order
Ġtask ed
Ġprote ins
p iece
ĠS id
Ġfor b
and o
ang ular
ĠG ang
Ġgu y
ĠChrist ians
Ġconcer ning
Ġescort ed
ĠPier re
Ġd ying
ĠA ges
Ġhous ed
un ning
ĠM all
Ġass ert
Ġdo ors
Ġd im
ĠIn s
Ġdep icts
Ġdet ect
ĠPat ri
ĠM I
Ġin ning
Ġelabor ate
Ġobv ious
ap le
ĠU m
ov ak
Ġcirc ular
Ġpurs uit
ĠBalt ic
Ġbor row
Ġvolunte ers
Ġconcur rent
ĠIcel and
i ar
ĠJud ge
Ġd imin
Ġdin ner
Ġimprison ed
ĠMan agement
Ġauthor ized
Ġinn oc
Ġcollect ions
Ġgod s
Ġin hib
ĠF itz
ĠTh ames
ĠSp ider
ik o
Ġed itions
Ġcompet itions
Ġwars hips
Ġnav ig
Ġconflic ts
Ġfle x
ĠRom ney
Ġteamm ate
Ġpurs ued
ĠU C
ĠHe arts
ĠAt hens
ĠBarb ara
u ters
Ġtem po
Ġrev ival
Ġ186 5
m aster
ĠM ind
Ġfavour ite
ĠMov ie
l ights
v et
ed ia
ĠT a
Ġre ass
Ġsp ar
Ġevent ual
Ġpolit icians
ĠP ant
ri en
ĠEv il
Ġbelief s
Ġvirt ually
Ġst yl
Ġr amp
ĠSt ra
Ġopp osing
ĠA ren
Ġchem istry
Ġur ged
ĠT ourn
ag ers
Ġv ig
ĠRe agan
Ġ11 2
Ġmanufact uring
ĠSher man
ĠAgain st
Ġrenew ed
Ġf ron
ĠN ATO
ĠCom edy
Ġdr ain
Ġhand ling
Ġveter an
ĠW es
ĠK an
Ġab road
ĠRepresent atives
Ġc ensus
ĠC ode
Ġch ase
ĠZ one
Ġmix ture
Å «
ĠN ancy
Ġvel ocity
ĠT oy
Ġst ones
ĠW inn
Ġport rait
Ġhand le
ĠReg ional
Ġexam ination
ĠT ed
Ġep ic
Ġunivers ities
u ction
ĠB ask
Ġsusp ected
l on
ĠI l
Ġ13 1
ĠFl ore
Ġc able
Ġn ut
ĠH unt
Ġst olen
ĠF ight
ĠF low
Ġun ve
ren e
back s
Ġp ill
ĠM eth
ubl in
Ġprom ise
Ġmed als
Ġparticip ants
Ġr ushing
ĠV ic
ĠTrib une
ĠS onic
ĠAm b
Ġtrail er
w right
Ġg h
Ġcol ours
Ġpromot ing
Ġrend ered
Ġcong ress
Ġremember ed
Ġl aps
Ġthere by
Ġorgan isms
M E
ĠF ish
ĠNov a
Ġinher ited
l ane
r h
ĠRe port
Ġ14 5
Ġpit cher
Ġt aste
Ġc attle
Ġcon vey
Ġapp ly
Ġver te
Ġshark s
Ġcon j
Ġan alog
Ġsp ur
on ation
is ition
Ġcom ics
ĠK rist
Ġle af
iz er
ĠRe f
Ã °
ĠH ad
ĠAn y
ĠBr anch
Ġcapt uring
ĠSte in
ĠPortug al
ĠIn vest
Ġinter ven
ĠNew castle
Ġ11 7
g ow
ri ft
se ud
Ġtr apped
Ġ15 9
Ġdecre ased
ĠF ace
ĠF ern
are st
Ġtrack ed
Ġcost ume
Ġbombard ment
Ġtiss ue
ul us
Ġpos itively
ĠConstantin ople
ĠC row
ĠN as
Ġhop es
Ġcompos itions
Ġaccident ally
Ġinh ab
ĠErn est
in ery
ĠU nd
ĠBe h
Ġo l
Ġinv aded
Ġt el
ĠC P
ell ar
Ġmet ric
Ġprot otype
Ġcelebr ation
H S
ĠN eb
oid s
ĠPerson nel
Ġble nd
ĠD raft
Ġpro x
Ġwar ned
Ġconfir m
Ġju ven
ur st
Ġv ital
ĠPet e
ĠCharl otte
Ġoccas ional
Ġtorn ado
Ġf ra
Ġm aps
Ġ45 0
Ġlink s
Ġl oud
ĠMag ic
rid or
ĠHeavy weight
Ġ11 8
ĠJos Ã©
Ġhop ing
an im
ĠB ert
Ġanticip ated
ĠJ oint
Ġup coming
ĠBr ight
ĠLabor atory
ĠHe b
Ġvar iations
Ġ186 4
ĠMer ced
Ġboy friend
ĠLiber ty
ĠAff airs
ĠEnv ironment
l imin
Ġth ro
ĠCorn wall
av an
Ġr ains
rib le
Ġav o
ĠOther s
Ġgod dess
ot ion
Ġb omber
am pton
Ġbatter ies
ĠChap el
ĠP oly
ĠCh ad
Ġdo zen
Ġprov isions
Ġmark ing
Ġlabor atory
O C
Ġs inking
en burg
ig ious
Ġimp ressive
Ġgen u
Ġaccess ible
e ff
Ġ11 4
Ġgu ests
Ġsepar ation
ĠY outh
ro e
ĠV oice
ĠFre edom
t es
Ġl augh
Ġsc andal
ĠFilm ing
Ġbi ological
Ġeas ier
Ġdepend ent
Ġnickn ame
col m
Ġhoriz ont
ann e
er ts
ig a
Ġ ib
ĠS ud
Ġsupport s
Ġpolit ician
Ġs or
ĠGl as
Ġparliament ary
Ġf ires
Ġind igenous
Ġthreat s
Ġavo ided
Ġre ver
rest rial
Ġconsum ption
Ġn ose
ĠLe ices
ĠFriend s
art ime
ild a
Ġaff ord
Ġc ow
Ġd ust
ĠB ud
ĠP ul
Ġr andom
ard o
ĠMar ines
Ġprog ressed
ĠWind s
ĠC hester
ac o
ĠArmen ian
Ġform ula
Ġdep uty
Ġbi ography
Ġrestrict ions
ĠM embers
ick ing
ĠKenn eth
Ġcorpor ate
Ġl ighter
ri or
ĠAg u
Ġvolcan ic
Ġf ed
Ġl iver
ag les
Ġel d
ĠMal colm
ĠCry st
Ġtru ly
h ill
Ġimp osed
ÃŃ n
ĠMeteor ological
ĠProtest ant
Ġmix ing
ĠOsc ar
ĠC ase
os ph
Ġr ugby
ugh t
ĠEn ergy
Ġpartic les
Ġoccur ring
ĠOrchest ra
Ġs av
ĠV ick
Ġus age
ĠChamber lain
Ġmurd ered
ĠPed ro
Ġf ier
el ing
ĠC ena
ĠB apt
ĠD uch
Ġprodu ces
cl iff
Ġf les
Ġto xic
ĠT u
ĠT ru
ĠB ears
Ġnot iced
Ġevac uation
he ld
Ġc ash
ĠS kin
ĠL ower
Ġdread n
ail ing
Ġcust omers
Ġlic ense
ĠBou levard
ĠIsa ac
ĠB eth
Ġcontr acts
Ġdefend ers
ĠC inc
ĠD ublin
Ġen h
ort ed
iel der
Ġac re
Ġw ound
is an
ĠT ree
ĠD J
ĠE RA
Ġex ile
chang ed
op les
oc al
ĠCh air
Ġ186 2
ĠS ic
ĠC inem
Ġcat hedral
Ġlawsu it
ĠZ ero
ĠAthlet ic
pt ic
Ġrel ation
f ly
Ġw ake
am ics
ĠP eng
Ġgr ap
Ġcho ir
ĠCycl one
Ġint ent
Ġspec ulation
Ġord inary
ĠRo om
en berg
Ġkill er
Ġnep hew
g Ã©
act ion
Ġdeb ris
ĠX X
Ġengine ers
ĠAnt ar
N C
Ġst all
Ġhe nce
Ġpl ates
Ġang ry
ĠT erm
ĠS af
ĠL P
ÃŃ a
Ġdepict ing
p oint
ĠA ction
ĠCare er
ĠBrad ley
ĠEdd ie
Ġas ide
ick en
Ġeast ward
Ġtim ber
Ġdisappoin ted
ĠGu ild
ĠM V
Ġpre st
Ġdevelop ments
Ġthreat ening
Ġintellect ual
ĠF il
Ġkil og
Ġign ored
ĠG lee
Ġindust ries
ĠCont inental
Ġencoun ters
Ġdecre ase
ĠB reak
Ġly rical
Ġconqu est
ĠGab ri
ĠTourn ament
Ġthrow ing
ul um
ĠMet ro
Ġc am
iz z
over ed
Ġterrit orial
ĠArch bishop
ĠSerb ia
Ġcomplic ated
ur i
ep s
Ġmechan ism
Ġundert aken
Ġm ol
qu er
Ġab b
ĠAlbert a
Ġrevolution ary
Ġthunder storm
ĠCinc inn
ĠS aw
ĠAl tern
ĠTra ff
Ġvic inity
Ġm ounts
ĠT ake
ĠW atch
get t
Ġconv icted
m o
Ġel ite
Ġtouchdown s
Ġstrik es
ĠH as
Ġhuman ity
ĠB ark
Ġun e
emb le
Ġchampionship s
Ġexhib it
Ġconvers ation
a uc
ent ieth
ane ous
Ġconf ident
Ġfocus es
Ġ10 7
ĠCol lection
ĠTom my
ĠSpring field
os ion
Ġcont acted
Ġrem in
Ġlack ing
umber ed
Ġmamm als
Ġinaug ural
ĠG on
Ġent ert
Ġreal istic
ĠMich a
Ġthe rm
Ġf ab
ĠF uture
Ġpres erve
Ġsusp ension
Ġfarm ers
ĠG ates
ĠTh an
heim er
r acks
Ġw ard
Ġg if
ĠV illa
Ġconst antly
ĠPl ace
Ġbo ost
ĠMusl ims
ĠÄ Ĳ
Ġa rose
ro gen
ĠR O
ĠSh ah
ĠGib ral
ĠJo an
Ġmet re
Ġinf ection
Ġfer ry
ĠYugoslav ia
Ġhelicop ter
Ġbre ast
it ime
Ġfac il
ĠStud ies
Ġdiam ond
id ia
Ġ15 7
Ġvot ers
ĠMarsh al
Ġst im
ov ic
Ġfe athers
Ġcollabor ated
Ġpredomin antly
limin ary
Ġs tern
Ġto ols
ob a
Ġpost s
Ġ184 0
Ġthor ough
en cer
ĠC anu
Ġdes per
Ġass erted
ik ed
ĠMalt a
ĠSh iva
ĠSl av
ĠWag ner
ic ing
ĠC and
ĠM ang
ĠJ ake
ĠEn t
Ġpat ient
han ced
Ġabsor bed
ĠGibral tar
ĠM aine
m ont
Ġcent ered
Ġrele asing
Ġcast les
et ary
ĠShe p
Ġhol es
Ġin fer
ĠP as
os y
Ġgrow s
Ġremov ing
ĠCincinn ati
Ġp or
Ġm os
Ġpen insula
quir y
ĠTai wan
Ġ22 0
ĠPark s
Ġillust rated
Ġm it
ĠR ear
ĠV o
ĠSe x
ĠAngel ou
ĠFried rich
Ġexplan ation
ĠAnc ient
Ġt une
ĠCom ics
rol led
Ġknow s
Ġspeed s
Ġsust ain
oir s
ot ing
ĠH ood
ort ion
Ġus er
Ġap olog
ĠBul gar
it ol
Ġcomp iled
ĠRob in
Ġbreed s
ĠLu ft
Ġcancel ed
on ial
Ġbow l
Ġp enn
le b
ĠT int
Ġres id
Ġret rie
ĠRe ed
ĠOr d
Ġant ib
Ġsit uations
Ġphot o
Ġrelie ved
Ġis n
ell ers
Ġindepend ently
ĠNorm andy
ĠWat ers
it ic
ĠA L
Ġen orm
Ġch rom
reg ular
ĠBul g
h ou
al g
ĠL ords
au ge
Ġroad way
ĠH ull
od ium
ĠU k
ub ble
Ġ188 7
D I
g ans
Ġd a
Ġl over
ĠM aced
ĠL S
ĠSh ield
Ġple ased
Ġ97 8
ĠVe gas
H g
it ure
as ury
Ġinc om
Ġoff shore
ĠAll iance
ission ed
Ġmar ched
ĠCam b
Ġlay ers
ĠOl ivia
ĠAfghan istan
ĠC het
ĠR ound
Ġcl ergy
Ġshe ep
ĠH om
Ġlocomot ives
h art
Ġout standing
Ġview ing
ĠMad ison
Ġ186 3
ĠVII I
Ġper c
Ġrec ruit
Ġcould n
ĠTw itter
ip her
Ġare na
ass y
Ġgen res
Ġpay ing
ĠBur ke
ĠCons ervative
ĠM i
Ġexp anding
Ġ12 6
Ġ13 2
ĠEd mund
Ġ188 6
Ġp ig
oc ol
Ġclos ure
Ġpros per
Ġvary ing
ĠTechn ology
ch a
ĠP ay
ats u
ĠGreg ory
Ġcol ored
ĠLe eds
Ġdisapp eared
ĠForm er
umber land
ĠSchum acher
ak h
oc c
Ġ11 9
á º
over ty
ĠRevolution ary
Ġc u
Ġm ild
ĠK id
Ġreg ulations
Ġreport ing
Ġsuggest ion
rel s
ĠPok Ã©
Ġa est
ĠJ NA
Ġcelebr ate
Ġat op
ĠOr ton
Ġarm oured
ie g
Ġhybr id
Ġsent iment
ĠBrook lyn
Ġfung us
in stein
ĠMerc ury
Ġconspir acy
Ġinduct ed
Ġb apt
Ġbl ast
Ġback st
enn ial
isc her
ĠJul ian
ĠPrinc eton
ĠP ros
ĠD ennis
Ġbut ter
Ġfac ulty
Ġattract ion
le m
Ġl ib
rit ic
rib ution
ĠMcKin ley
f ound
om ed
ĠM ult
ew ork
Ġrep orter
Ġrom ance
ĠC er
ĠM ann
ĠH ubb
Ġfl our
Ġnever theless
Ġdro pping
m usic
im ony
ĠBrown s
Ġwitness es
ĠK on
iz ard
Ġbl amed
onn ie
ul ates
Ġcon ced
Ġsub mer
ĠEl s
ĠSer ge
ĠTig ers
le ted
ĠC ort
Ġe agle
ĠR ush
ĠOrgan ization
ĠN ation
Ġfund amental
Ġswe pt
ĠD ud
Ġrem ote
Ġpublic ity
Ġcompan ion
ĠHel en
Ġst ored
ĠLe o
Ġrep ris
Ġorgan ic
Ġposition ed
Ġwh atever
ĠN athan
Ġdr unk
Ġpark ing
Ġsubmar ines
ĠML B
Ġsp ir
ĠBr and
ĠHistor ical
Ġret reated
ĠMus ical
Ġpat ri
Ġf ant
Ġm ad
Ġst ability
Ġann ex
Ġvers es
Ġprog ressive
ĠMon th
ett a
Ġfort ifications
Ġfocus ing
Ġtarget ed
Ġcondem ned
Ġf ract
Ġin Hg
Ġ188 4
Ġox id
Ġshel ter
ĠNAS A
ĠHubb ard
ĠS oph
ĠF ly
ens is
ĠBar cel
ĠGlas gow
Ġw rap
ĠT alk
Ġno ise
Ġir regular
Ġcorrespond ing
ac ular
Ġg entle
Ġmon it
ĠSte am
Ġflow n
ĠSal v
ĠCanu cks
Ġt ent
ĠT ests
Ġcur ve
Ġresign ation
Ġdisb anded
Ġas c
ĠF ather
ĠE ld
Ġfoss ils
m ates
Ġl ung
ia h
ĠIs le
ĠPolit ical
ĠA ub
Ġconf used
Ġdet ected
Ġconv ince
Ġm ail
Ġwin ners
Ġtorped oes
Ġchalleng ing
Ġtele phone
ach t
ĠOper a
ĠDev il
Ġmagn etic
Ġpreced ing
ĠIs ab
Ġsw ing
Ġreb ounds
Ġcru ise
Ã ¢
Ġm entions
Ġro ster
Ġmach ines
Ġqu oted
ĠCo al
ĠSm ack
ĠPhill ies
ĠFif th
ĠK az
Ġbr ings
ĠHol land
ĠMont ana
ĠGh ost
Ġr ice
Ġstud ios
Ġins urance
Ġwor se
ĠN W
Ġcalc ulated
Ġf ault
ĠSt al
Ġdirect ing
Ã© n
Ġconcept s
ĠSol ar
Ġmel od
Ġsole ly
in ated
Ġd iversity
ĠThe odore
Ġreg iments
Ġterm inal
ĠHer bert
Ġcreat ure
ĠK ill
Ġtour ist
ĠPer cy
ĠBC E
m ans
en z
ĠN ass
Ġm igr
ĠIn side
Ġthan ks
ĠMill ennium
Ġdark er
Ġro tation
ĠWest minster
Ġjud icial
aud ed
Ġn ice
ĠM orning
ĠC hem
ĠO il
ĠIn sp
ust ers
ish ops
Ġhistor ically
Ġ187 7
Ġh ide
ĠB urg
Ġtri umph
Ġfav ored
ĠAdvent ure
ĠTint in
ic les
Ġ15 1
ĠCelt ic
ard ed
Ġexam ined
Ġscholars hip
ĠCE O
o om
w ing
Ġa qu
Ġj ersey
ĠMerced es
ĠCh ang
Ġ10 3
r Ã©
Ġb ore
ut ter
ĠH us
Ġmy self
ĠDen ver
b el
Ġch a
ĠV ern
Ġ187 6
ĠBask etball
ĠK in
ĠEp is
on so
Ġg ear
ig ger
over y
Ġz ero
ĠC ond
am ine
ol ia
ĠL ud
Ġbattle field
Ġprompt ing
Ġstead ily
Ġw artime
hen tic
ĠAust ro
Ġ13 8
Ġconf ig
Ġacclaim ed
i ors
Ġtri o
Ġmess ages
ĠAlb any
b ie
Ġs ulf
Ġround ed
Ġball s
Ġwalk ed
g us
Ġc otton
Ġsh aring
Ġmeas uring
Ġmonaster y
ĠP oe
Ġj ew
Ġreconst ruction
Ġspac ecraft
ew ise
Ġsc reens
ĠY ard
ĠGl ou
ĠStr ong
ĠAddition al
ĠRon ald
Ġa f
Ġel igible
Ġconn ects
Ġelev ated
ĠBulg arian
ĠC any
Ġag encies
Ġgu ards
Ġagre es
v ar
om on
ĠThe ater
Ġgust s
Ġgh ost
c our
ĠR us
av ian
Ġro uting
Ġdec isive
Ġthem ed
Ġ11 6
Ġdist inction
Ġref uses
Ġcur ved
Ġtro op
Ġcommit ment
he nd
ĠT ir
ros cop
Ġpres ents
ĠOtt awa
ĠCarl os
ĠP ick
ĠAt hen
Ġmot if
ĠCur rent
Ġaccompl ished
ĠGoth ic
ĠNev ada
ĠE C
qu al
Ġrad ius
Ġop ined
Ġcloud s
g ary
ĠA er
ĠR ivers
Ġk ids
lud e
Ġpost p
Ġconduct ing
Ġhy per
Ġreven ge
Ġc emetery
Ġm asc
ĠC ou
ĠC ox
Ġex terior
Ġinc idents
ass ing
ĠEx pl
Ġarg uments
z es
ĠS ri
ish n
att y
Ġphys ically
Ġwalk s
g on
ĠC e
ĠTerrit ory
Ġproclaim ed
ĠPokÃ© mon
ĠBarcel ona
c ell
Ġcreat ures
Ġkilomet ers
Ġlin ear
ĠMicha els
Ġt ap
as p
Ġe cho
Ġcom ed
amp a
Ġ12 9
Ġ23 0
uk a
Ġparticip ating
Ġflow er
Ġconsequ ence
ah l
Ġenc omp
Ġ183 0
Ġintegr ated
h all
l ined
Ġto ugh
Ġh osp
ĠS quad
Ġ12 2
Ġind irect
Ġ13 4
Ġlo ose
Ġfin est
Ġ187 5
ĠCard inals
Ġven ues
op ard
Ġcent imet
ĠPar aly
Ġwid th
Ġreb el
ing e
Ġf o
ĠR I
ĠEn ix
ĠAb ra
om ical
ĠB erm
ist ical
Ġch ann
let t
aul ts
Ġcompl imented
Ġtheat ers
b ach
f low
Ġin tend
Ġsp ell
ĠCh uck
Ġrun ner
Ġmil k
Ġproper ly
Ġcerem onies
á» ĩ
Ġrit ual
Ġen hanced
Ġdem ographic
Ġless er
d ing
it ars
Ġsp ots
Ġpr ince
Ġpost er
ĠDr ake
ĠMil an
Ġcontrib ute
ĠChurch ill
Ġextend s
Ġdeliber ately
Ġl akes
Ġsc out
ĠPark way
Ġtel esc
Ġremin isc
Ġto uc
Ġm ansion
Ġpe oples
ĠCol in
Ġbow led
ĠB ris
all ing
ack ing
Ġvar ies
ĠRay mond
Ġprepar ations
ed a
Ġc osm
ig hed
ĠF oster
Ġrem ake
ett es
Ġheav ier
Ġbor ough
Ġmart ial
ĠH ok
Ġins uff
Ġ188 3
ĠMet ac
ĠDer by
Ã ¥
Ġh arsh
ĠR BI
ĠE sc
ĠMe ga
Ġweak ness
Ġinstruct ions
arth y
ĠW ings
Ġcan on
Ġsouth western
ĠBar n
ĠEm ma
Ġcontr ad
ĠOper ations
Ġon wards
ri ans
se ason
Ġmin isters
ĠRoman ian
Ġtransform ed
ĠCa es
Ġintermedi ate
in ter
un ge
M usic
ĠS or
ĠV erm
Ġplay able
ĠMar l
Ġcontin ental
Ġposs essed
Ġ188 1
Ġupd ated
ro b
Ġco aches
ĠManu el
Ġachie vements
D own
ar ians
Ġh urt
ĠJ ose
Ġro ok
Ġsens itive
ĠCirc le
Ġiniti ative
ĠSmack Down
ĠP el
ĠR an
ĠO cc
ĠSc iences
Ġair borne
ash ire
Ġprosp ect
Ġr ider
Ġout come
Ġlog o
A P
nd a
ĠL ed
Ġtrans mission
ĠVen ice
Ġpropag anda
Ġa ided
Ġcrit ically
ĠNorth west
Ġhom osexual
ĠComp uter
Ġconsider ation
ĠMidd les
ĠJama ica
z ed
Ġf ru
ĠP ack
Ġy d
Ġall ied
Ġvar iable
ĠHis pan
Ġopt im
Ġconscious ness
ĠB our
Ġdis abled
ĠBel ie
ĠRichard son
ĠBra h
Ġveget ation
Ġautob iography
he rent
ĠR NA
ĠD uc
Ġorchest ral
ĠParaly mp
Ġtour ists
Ġ186 9
Ġemer ging
Ġdepos its
ĠDiam ond
ĠR osen
Ġdep iction
Ġestim ate
Ġexerc ises
ĠPow ell
Ġw it
ĠN ad
Ġâ Ļ
Ġsp ite
Ġmon ster
ĠBl air
iron ments
ĠDun can
ĠLanc ashire
el in
ĠCal gary
ĠComp osition
Ġmo ist
Ã ¦
ĠB ody
Ġun h
iz ers
Ġland mark
alt ies
Ġpun ishment
Ġperman ently
ĠHend erson
Ġun anim
ub s
ĠUn it
Ġwork er
Ġconsist ently
Ġrout ine
ĠAren a
c ont
ĠS ad
ĠHe in
Ġnort heastern
Ġ186 6
Ġcompris ing
Ġb orders
ac er
ĠG a
Ġgr id
Ġpres idency
Ġlat est
Ġdoct rine
£ o
ĠFer din
at on
or f
ĠT otal
Ġst aged
ĠD elta
ĠBr id
ĠIs les
ĠFl oyd
ĠWe ather
Ġassass ination
ĠV oy
Ġperform ers
Ġsum mon
Ġmanag ing
Ġenv ironments
Ġjournal ists
Ġsearch ing
Ġdeleg ates
Ġsubt ropical
v or
er ies
Ġas cend
Ġdam aging
Ġreve aling
Ġachie vement
Ġpay ment
Ġsail ors
Ġmunicip al
if fer
ĠAl am
ĠSp eed
Ġhon ors
Ġbelong ing
l ake
Ġb in
work s
Ġwitness ed
r ang
ĠSy n
Ġmyster ious
n i
Ġh oney
ri ages
Ġmar g
Ġencour age
Ġin put
Ġ12 8
ĠMill s
Ġpsych iat
ĠUs ing
Ġarchae ological
Ġcomple ment
Ġprior ity
Ġreluct ant
R S
b u
Ġd ock
ĠCont em
Ġphilos opher
ĠCraw ford
ĠCany on
Ġg ates
ĠR ange
Ġep it
ĠSch ol
Ġprevent ing
Ġphenomen on
Ġre h
Ġdisp atched
Ġunsuccess fully
ĠSpr ings
Ġamph ib
ĠLeices ter
j u
Ġm arsh
ĠSe b
ĠFr ances
ĠArch ae
Ġod d
B rien
ĠH erm
Ġact ively
ator ial
Ġarg ue
Ġsil ent
ĠEll en
Ġenl ar
Ġvent ure
Ġvers us
Ġbelong ed
Ġhypothes is
ĠR av
ĠW is
Ġpre f
Ġlength s
Ġcoach ing
ĠVer onica
ĠRod rig
Ġswit ched
Ġcon fer
ass ic
ĠGro ve
ĠPalest ine
Ġp overty
Ġfin ance
Ġstr ange
Ġ75 0
Ġfrig ate
G M
Ġan arch
Ġse al
Ġcor ruption
Ġeight een
Ġce iling
Ġdisp uted
Ġdistingu ish
Ġaware ness
Ġexecut ives
act ic
ĠAr c
Ġ12 4
Ġlist ening
Ġscient ist
ĠPlan et
ĠCryst al
Ġo ct
ĠT as
ĠH i
ĠF ischer
Ġintrodu ce
al ia
ĠT ucker
ĠN am
ank a
Ġdirect ions
Ġcontrib uting
ĠCons erv
Ġmechan ics
ĠHead quarters
ad ows
Ġsh aft
Ġexpl oration
ĠMed ic
Ġ187 3
Ġexpect ations
i ating
ĠP unk
ik es
Ġ ion
ĠM ut
ĠTe legraph
ĠAss ist
Ġ188 2
Ġproced ure
ĠW el
Ġr ational
ĠCar n
Ġintern ationally
ĠReg ion
Ġ187 1
ij ing
Ġadj ust
Ġwh ales
ĠF un
Ġform ations
Ġcar ved
Ġmolec ular
p in
Ã ´
Ġic on
Ġsurpass ed
Ġnat urally
T unes
Ġmet als
ĠCl oud
Ġobject ives
at ar
Ġm bar
Ġg est
ĠF ood
ĠF landers
Ġv amp
Ġle agues
Ġgu itars
Ġadv ocated
Ġimpro ving
Ġ186 7
ĠFilm s
Ġmyst ery
Ġs aving
Ġro ot
ĠTr uman
ring ton
ri um
ab ad
Ġint r
Ġdes ired
Ġtrib ut
ec hes
od ied
Ġshe et
ĠMar qu
Ġship ped
ĠÃ ī
Ġpriv ile
Ġre op
ch i
ist ocr
Ġpl um
og g
Ġacc us
ĠComm ons
ĠKe pler
Ġdimens ional
Ġsubmer ged
L A
Ġp seud
ust y
Ġab st
Ġprocess ing
Ġdiscuss ing
ĠInt ellig
Ġabund ant
v ik
Ġrequire ment
Ġoverwhel ming
Ġrem ind
Ġstay ing
c ore
ĠSe as
Ġtem ples
Ġaccept ance
Ġtask s
ol an
ĠP ine
Ġcon vert
ĠK il
Ġ187 8
Ġcruc ial
ĠM ile
Ġun rel
Ġres on
ern ess
Ġassoci ate
Ġhorse power
ĠStand ard
Ġcub ic
ĠDud ley
Ġm ant
ĠU B
ĠAl t
ier ra
ĠBe ijing
ner y
ĠDep uty
as aki
Ġpart ners
ang ered
ĠSh in
ĠWh y
z ig
ĠTr ue
Ġexpl ored
ĠWat son
ĠMas ters
as ia
ch w
ĠAn at
Ġest ates
Ġcompris ed
ĠP ly
Ġspec ulated
ĠMcC arthy
Ġblock ade
Ġrefuge es
Ġnerv ous
Ġd ive
us ive
um i
ĠCom merc
Ġgen es
Ġkey board
ĠDes ert
Ġcompos ers
Ġopin ions
Ġchann els
g or
ĠS A
Ġl iv
ĠNew man
ĠTr inity
Ġaut hentic
Ġcame o
Ġcollect ing
am ation
ass es
Ġad equ
ĠAd ela
ĠBe a
rew s
Ġresemb le
Ġfrag ments
app a
ĠEx ped
Ġload ed
Ġnav igation
is ations
Ġele ph
Ġsuff er
Ġaver aged
Ġundert ook
su ing
Ġimm igrants
Ġi Tunes
ĠGib son
ed ed
ĠLuft w
H C
Ġj aw
Ġhabit ats
Ġturb ines
Ġperc ussion
Ġp ump
ĠProfess ional
im mer
Ġse eds
Ġ13 7
ĠGu adal
Ġcomprom ise
k h
le x
ĠR aid
Ġr ushed
Ġrep ublic
Ġcompl aints
Ġmanufact ured
ut ely
Ġwh ale
th lete
Ġ20 2
Ġass ets
Ġgener a
Ġpost hum
rehens ive
ĠM ail
Ġan ts
ĠAl pha
ĠCl if
Ġhom eless
Ġnetwork s
ĠCult ure
Ġc raf
ar us
ĠE agle
ĠMal ay
Ġphot os
Ġo v
Ġh az
ĠA qu
Ġman ages
Ġdisc our
Ġconsequ ences
ĠA aron
ĠM eyer
Ġunder water
Ġfact ion
Ġfem in
Ġcoast line
Ġben ch
ĠMetac ritic
Ġb ars
Ġg auge
Ġen suing
Ġdiss olved
ĠSur v
Ġpsych ological
ĠWell ington
Ġabsol ute
ĠI b
ĠH ass
ĠCol omb
ĠAng le
ĠBer g
Ġsymb ols
Ġreconst ruct
Ġerupt ion
il ogy
ĠM obile
ult ure
Ġhonor ary
Ġles b
Ġfab ric
ĠLuftw affe
ĠT ib
Ġst air
ĠR if
ĠL uther
Ġrep et
ĠBerm uda
Ġin eff
ĠS yl
Ġcons ensus
bo at
Ġlength y
ĠShel ley
ĠBapt ist
ĠP sych
Ġrel ied
ĠTr av
ĠApp ro
Ġult imate
ĠVl ad
re ction
Ġvar iant
Ġlem urs
Ġs ic
Ġc ave
ĠM ak
Ġadd s
Ġloyal ty
ĠB ass
em ploy
Ġar istocr
Ġsing ers
ograp hed
ĠMon roe
ĠMeth od
Ġf ears
ov es
Ġsign als
Ġsum mar
I V
Ġland ings
ĠMon ster
Ġimpro v
igg ins
Ġreserv es
Ġunve iled
m other
ĠW ant
ist ing
ab a
Ġint act
amp ed
Ġph osph
Ġqual ities
Ġeld est
Ġ187 2
Ġdisapp oint
Ġassess ment
Ġfra ud
il era
Ġ186 8
ĠSel ena
Ġteacher s
ĠMach ine
ĠAgu ilera
ĠNot able
Ġcontem por
in qu
ĠM ick
Ġdef enses
Ġamb assador
ĠTim ber
Ġdoct ors
ĠRP G
or ig
Ġun re
Ġmill ions
Ġrock et
Ġinteract ions
ĠEngine ering
ĠOt to
Ġbattlecru isers
Ġfles h
av il
Ġbu ff
Ġhar vest
Ġemot ions
Ġspect ators
ĠUr ban
ĠC ut
ĠM ull
Ġdel ight
Ġliter ally
Ġprin ting
Ġgross ed
ĠVar ious
Ġd uck
ch ild
ĠCh oice
Ġcomp aring
Ġbr ut
Ġtrad em
Ġpound er
ĠWol ver
Ġtw entieth
ĠHen ri
Ġow ing
is k
Ġwe ighed
Ġam id
Ġant hem
aly sis
Ġcost umes
Ġlif ted
Ġess ay
Ġsongwrit ing
Ġse ar
Ġcl ip
ĠMar x
ĠFl ames
Ġenorm ous
r ays
ĠWood s
ĠCab inet
ĠFem ale
ĠP on
Ġeng aging
gr ade
lic ted
ĠEll is
Ġexplos ive
th rough
ipp ing
Ġbacter ia
ĠDak ota
un ar
Ġde alt
Ġtri ps
Ġrev ived
Ġintellig ent
Ġbats man
ĠS H
im ity
Ġr ally
Ġpolit ically
Ġappe aled
Ġinstruct ed
Ġpatrol s
ĠRena issance
ig rated
Ġst abil
ĠG enesis
otyp es
Ġinsuff icient
ĠH il
Ġde als
ĠSt age
ĠLe igh
Ġt ensions
end ar
Ġrel ating
Ġstr ings
Ġinstrument ation
ĠMV P
ĠExped ition
G B
Ġc ro
ĠM oney
Ġst roke
Ġen rolled
Ġte lev
ĠNew port
Ġread er
ĠSoviet s
st own
Ġst om
Ġsu ited
Ġinter f
Ġdise ases
ĠChand ler
Ġhorizont al
Ġgrap hic
Ġc ats
mon ton
ĠMax well
ĠPhill ips
Ġh urricanes
Ġr aw
Ġup s
Ġmet all
ĠPl at
ĠWW F
ĠAdela ide
Ġs in
ĠF a
Ġvocal ist
ĠCurt is
ĠGeoff rey
om ys
ĠR iley
ĠHe aven
ik i
ĠBar rett
Ġbit ter
Ġrefere e
ke ley
ĠNe pt
Ġwid ow
Ġslow er
B O
ĠC ool
Ġan x
ri p
Ġsub ordin
Ġterm ed
ĠBut ler
Ġchap ters
Ġincom ple
Ġreminisc ent
or ge
ĠH anc
ĠW rest
ĠCh an
Ġper f
Ġinters ections
Ġexhib ited
ĠFerdin and
i ary
Ġdecl aration
Ġmiss ile
ĠKn ights
Ġdig it
ĠSur rey
Ġalleg ations
Ġmush room
an us
id o
ut onium
Ġcl an
ĠThere fore
arm a
Ġw ishes
aun a
Ġextra ordin
ĠEs sex
ou ch
Ġover come
ug s
Ġinvol ve
Ġcoun sel
Ġmist ake
Ġet c
Ġdiscip line
Ġh ier
op ol
Ġinc red
ĠPol l
Ġtact ical
Ġmathem atics
ul k
ĠSp encer
ott o
ĠCap ital
Ġdisl iked
ĠAbra ham
ĠPly mouth
ak u
ĠMad rid
Ġcult ures
ĠRom ans
ĠGameS pot
Ġsacrif ice
et a
ĠF ellow
Ġgall ery
ĠP rison
ch t
Ġsh irt
Ġinter ference
Ġathlet ic
Ġquant ities
ĠComb at
ĠBl ake
Ġjoin s
ĠL ore
ĠGon z
Ġh unt
ber y
Ġsub d
Ġmod est
Ġthick ness
ĠMov ement
Ġproceed s
ed ar
ĠC M
ĠN ak
Ġexp ense
Ġtrans it
Ġsynd rome
or ic
ĠF ur
eb e
ĠBur ger
ĠMarc us
el ia
ĠK err
Ġ12 3
Ġcirc les
Ġfight s
ĠRes ident
Ġcal iber
Ġnickn amed
ĠBosn ia
h t
y c
at em
Ġg am
ĠSc he
Ġsuppor ter
ĠContem porary
u its
Ġm igration
ĠL amb
ĠSc reen
ĠAd rian
Ġimport ed
Ġmach inery
ĠDaniel s
ĠHanc ock
R C
Ġsp ores
Ġass ign
Ġinterview ed
Ġpan els
ĠRel ations
Ġlocomot ive
Ġnom ine
ĠBrig adier
d am
Ġrep aired
Ġ14 1
head s
Ġrif le
ĠC ome
Ġwas hed
Ġg aming
ĠR ight
ĠâĢ ²
ĠSp it
ĠAv iation
Ġfat al
Ġf rog
ĠFlore nce
Ġres ur
Ġcomment ators
Ġcust ody
Ġf are
Ġh ung
ĠT ales
Ġbank rupt
ĠFer gus
Ġshop ping
Ġmolec ules
ĠH ond
Ġun aware
Ġj oke
ĠSh an
ĠPubl ishing
Ġprox imity
id en
Ġcontin ent
Ġflu id
ĠBald win
Ġf inger
ĠR ah
ĠJer emy
ĠM C
ĠK es
ĠGar c
ĠAdmiral ty
Ġcurren cy
Ġw eld
Ġm es
ot illa
Ġsh ar
ĠHe ath
c ock
p ect
ur ers
im er
ig o
ĠRe ading
Ġcur ves
ĠNor se
ĠAg ricult
kin son
ĠUs her
ĠNob el
Ġpron ounced
ĠVi enna
Ġredes ign
y an
Ġf ir
ĠD j
ĠN L
ĠHer gÃ©
ĠMan ning
ĠJenn ifer
ĠArk ansas
ĠPrest on
Ġall ocated
ĠDr um
ĠLt d
ol ith
Ġbe er
ĠFl ood
ĠRoman ia
ĠMet al
ĠArt icle
Ġacqu ire
ĠCont in
ĠTw enty
ĠTas man
Ġsuccess ive
Ġknow ing
Ġsepar ately
Ġrul ers
Ġcontest ed
ĠBanks ia
at hetic
ĠSt ories
ĠV iew
Ġunder go
Ġrel ay
Ġflo ors
it ects
Ġp uzz
ag i
Ġbet ray
Ġdem anding
Ġre ef
ist le
Ġpop ulated
Ġav iation
Ġmem ories
c ious
Ġh atch
ur bs
ĠLe ad
ĠLe ban
Ġwood s
ĠMcD onald
x ide
ĠM om
Ġhe ct
Ġpre liminary
elf th
Ġdiscuss ions
ĠArch itect
Ġgather ing
Ġmaneu ver
n al
r int
ĠS ans
ĠW ool
Ġr iot
Ġdis gu
ung le
Ġ187 9
Ġf unk
ag ons
Ġpubl ish
Ġnorth western
Ġm im
ĠB rew
ĠK em
Ġinter rupted
ĠNew found
ĠMin ogue
Ġcompar able
Ġz ones
Ġscrap ped
Ġregard less
Ġcyl inder
al id
ĠP ent
ĠJ G
Ġpro ud
Ġfar ms
Ġbill s
ĠMcC ain
Ġphot ographer
Ġscreen ing
ĠElect ronic
Ġs ect
ic ular
Ġd awn
st ar
ĠOr thodox
ĠBow ie
Ġdemonst rate
ĠId ol
ĠCh in
ĠCh ase
Ġadv ances
Ġce ase
Ġdiscontin ued
ĠSkin ner
y d
ess es
ĠAll music
Ġed iting
Ġdam ages
Ġmass acre
Ġinstall ation
ĠHawai ian
ĠBeng al
l ings
Ġtour ism
Ġninet eenth
Ġp aved
Ġg olf
Ġch lor
ĠAd ri
ĠEd monton
Ġdyn amic
Ġeditor ial
ew ard
ĠCap itol
Ġal ly
ĠL ie
ĠChar acter
Ġhal ted
Ġt ong
Ġb ol
ĠW a
ash ing
Ġsport ing
ĠIndust rial
ĠLanc aster
ĠT all
art ed
ĠSp onge
Ġsubs idi
Ġcyl ind
ĠNewfound land
w ind
os ity
Ġreg ained
ĠPer th
Ġlic ensed
Ġgrav ity
ĠT ask
Ġup rising
ĠSing le
Ġseem ingly
Ġneighbour ing
Ġtherap y
n ut
ĠS uff
ĠE sp
ist ence
Ġch ord
Ġsub tle
Ġsub sc
ĠSh ar
Ġhar bor
Ġs ew
ĠW ald
Ġun rest
olog ically
Ġproject ed
ĠSen ior
Ġopt ed
Ġcrown ed
ĠS uz
Ġgr ain
Ġprot ecting
Ġbus y
Ġcontr acted
Ġdisp utes
ĠTur ks
Ġcitiz en
Ġadminister ed
ĠF ab
ĠE qu
ian g
ĠSh adow
Ġcre ates
Ġless ons
Ġdescend ed
st and
ĠP orts
ast on
Ġinst ruction
Ġfunction al
Ġdeploy ment
ĠBeaut iful
Ġan ger
Ġopen ly
Ġmass es
Ġdescend ants
ur se
Ġtre m
Ġpriv ately
ĠCirc uit
Ġbare ly
l ia
w ig
Ġl ip
ĠH at
ĠW inc
Ġcol oured
Ġreg ist
Ġaccompl ish
Ġcapt ivity
Ã¶ r
ĠMot or
Ġtot ally
Ġcooper ation
p it
ĠB ent
ĠSen ators
Ġnorthwest ward
Ġde eper
ov sky
Ġper pet
Ġover h
Ġcor ridor
Ġhon est
Ġsym met
Ġvolcan o
Ġjump ing
ĠBuddh ist
ram id
Ġatmosp heric
ĠM ol
ĠM ounted
ĠL ogan
Ġgener als
Ġfar ming
Ġcoll ision
ĠCarol ine
onn ell
Ġflu or
ĠJan et
Ġoutd oor
ĠL af
an ian
Ġm isc
ace ous
Ġplan es
ĠLou ise
Ġrap per
Ġnecess arily
Ġdeleg ation
Ġstead y
Ġib n
Ġc hess
Ġf ile
Ġl ux
ĠG az
Ġinv ented
Ġdel ays
Ġlack s
Ġamb itious
Ġori ent
Ġn ests
Ġg amb
ros se
ĠMot ion
ĠAdvent ures
f ront
gu ard
Ġcoal ition
ĠProt ection
isp here
ĠT iger
Ġre iss
Ġcont ing
Ġsub urb
ik h
ble m
ĠGener ation
er vers
Ġe ject
Ġgr an
ĠS ierra
Ġg reet
im ir
Ġqu it
Ġdevelop er
Ġmut ual
ĠNash ville
ĠC rom
ĠM ake
ĠCh op
Ġcre am
Ġfat alities
achel or
ĠProduct ions
ic ity
ĠTr ad
Ġtrack ing
Ġdecl aring
Ġroll er
Ġexcess ive
h ow
Ġo ak
Ġm embr
ĠB ot
ĠB ear
ĠP ut
Ġj oy
Ġj okes
A L
t age
Ġt rophy
ĠSt ore
Ġpres um
ĠLyn ch
ĠS ep
ĠB uch
ĠAll Music
Ġ27 0
re z
Ġteamm ates
ĠOn line
iss a
ĠPl aza
ĠEm ily
ĠPal mer
ĠCommission er
z ac
Ġl ava
ĠH ous
ĠSh ank
Ġ14 6
ĠAir borne
Ġcop yr
ĠObs erv
Ġprohib ited
Ġin ject
ĠH off
Ġsh ops
Ġdiv ine
Ġcal m
ĠB ri
ĠK ens
ĠAp art
ĠPar achute
Ġke en
Ġstrugg ling
grad uate
ĠN um
Ġun employ
ĠCon sequently
Ġsix ty
Ġrecogn ize
le nd
ĠT ab
Ġdec omp
ĠSp in
Ġoper ator
ĠPar amount
Ġhon ours
Ġpregn ancy
Ġkit chen
Ġaggreg ate
is ans
Ġg ains
Ġsh adow
ĠHar per
Ġreal izes
fic ial
ĠGar field
ĠDam age
er ia
ĠN othing
ĠK ub
oth s
Ġgener ate
Ġput s
ĠBus ch
Ġelimin ate
ĠDram a
ĠS ib
ent ric
Ġcab in
ĠMaur ice
ĠMax im
Ġiron cl
h and
ã Ĥ
ĠC C
ĠCh all
og s
ĠY et
Ġback up
Ġstory lines
ops is
ĠChair man
ĠB od
ant o
Ġtr igg
Ġed ges
Ġfind ings
Ġdisapp ear
ĠDev on
Ġmerch ants
ĠH ait
elf are
Ġoper as
Ġattract ive
nold s
Ġd ug
Ġn am
ĠP all
less ly
Ġacqu isition
Ġdraw s
Ġincomple te
Ġp ine
ĠP i
ĠJ en
Ġres erved
Ġunus ually
Ġa uction
on ing
ay ette
Ġar bit
ĠReg ard
Ġsurf aces
ĠGriff in
Ġmemor able
ed ge
ĠR ams
ĠCh ancellor
ĠAr ctic
Ġmet ap
Ġ187 4
Ġremark able
P a
ĠF M
Ġ14 9
Ġexper ts
let cher
ĠGl ass
ĠMy st
Ġ184 8
ĠPan ama
Ġrid ic
Ġproceed ings
Ġstream s
Ġrevers ed
Ġconj unction
ĠC ann
Ġpack age
Ġadapt ations
Ġunp op
Ġca ution
Ġscen ario
y ers
ĠC N
ĠM k
Ġdec omm
Ġgr ants
Ġelect ro
ĠFranc o
ĠLar ge
Ġperfect ly
Ġch ances
leg iate
ĠSur vey
Ġru ins
Ġsket ch
Ġh ur
ri pp
Ġsec ular
Ġimp ress
Ġfre ed
Ġrestaur ants
ĠFinn ish
Ġsubst ance
Ġt ennis
Ġmin im
Ġmet ropolitan
Ġkeep s
Ġsufficient ly
ver y
Ġmotor way
ĠStart ing
l ist
ĠG ust
ab et
ra id
Ġcl ay
Ġpr inc
ĠMo z
ĠSponge B
oph ical
Ġlob by
ĠMichel le
ĠWinds or
ĠB ott
ĠHol mes
Ġlif estyle
Ġwor ried
Ġalleged ly
ĠArmen ia
Ġveter ans
Ġped est
nd um
ĠJ unction
ĠK y
Ġres ort
Ġso ap
Ġass essed
Ġmod es
ĠCar r
Ġdet ached
ĠSer bs
Ġemphas ized
ĠJac ques
ĠLind wall
Ġflo ating
Ġs hed
Ġtrans c
Ġtrans p
Ġd iving
le w
ĠN umber
ĠHe at
Ġpr ay
Ġprog ression
Ġtun nels
ĠTun nel
Ġtop ic
ĠForm ula
Ġfest ivals
t aining
Ġh iding
ĠKore ans
ĠSo ft
ĠArab ic
ĠTri p
Ġdemonst ration
Ġt um
Ġm uzzle
Ġd ors
us hes
ĠJ ur
Ġsp o
Ġ21 0
Ġnight s
ĠTo o
Ġer osion
Ġincorpor ates
ĠSol omon
Ġload ing
Ġmanif est
ĠEd win
aur us
ĠB ron
ĠÂ µ
ĠGu atem
ux ili
Ġclimb ing
ĠAdv ance
Ġpl utonium
Ġspe eches
h o
ag ic
Ġmon itor
ĠStar r
Ġ Ï
ro zen
ĠR andy
Ġatt achment
ĠPh ant
ĠDou g
ĠStan ford
ĠMond ay
ol ades
ĠH ip
Ġr ays
ĠCl aire
Ġesc al
ĠBer keley
Ġflood s
roll ing
Ġsupple ment
ĠD ian
oc ene
ĠVal ent
ĠSuper man
ingu ished
Ġam endment
ĠSp y
ĠBo oth
Ġerr ors
Ġdiagn osed
b us
Ġtr ap
Ġcent res
ĠGer ald
ĠPres ley
Ġintern et
Ġinvestig ated
Ġtend ed
Ġrang ed
Ġupgr ade
Ġapprec iated
p es
p ow
Ġover d
Ġover th
ĠMar tha
Ġmod ifications
Ġpar am
Ġfle e
Ġple asure
Ġpros ecut
i ability
or us
Ġcons ul
ĠRe form
ĠSp iel
Ġwar rant
enn e
Ġintrodu cing
Ġn aked
ĠB ast
ir k
iv ic
Ġst y
um ar
ĠE U
ĠGu ards
Ġmer ger
Ġcounter att
ĠLu is
ĠLeg ion
Ġh aul
ĠM am
ĠG y
Ġcons ent
Ġcamer as
Ã¨ re
ĠPier ce
Ġinhab ited
Ġun st
Ġgener ations
Ġline up
Ġmob il
ĠCub an
it i
Ġe ase
Ġnot ion
Ġsec uring
Ġ14 4
Ġcr ust
Ġcomfort able
p at
ĠS old
ug u
off icial
ĠJenn ings
ĠRhodes ia
ĠGabri el
ĠS ue
Ġne arest
ĠAugust us
Ġthough ts
Ġconf ined
ĠRec re
Ġham let
pent er
ĠBroadcast ing
ĠBulgar ia
Ġst ance
Ġinc ons
Ġen able
ĠY ok
ĠMan or
Ġ185 1
ĠFinal s
Ġqual ify
Ġthr ust
ĠSound track
Ġstrengthen ing
Ã ª
ĠA ur
im ination
ot us
em a
Ġor gans
Ġmet ab
yl um
Ġsyn th
ĠChap man
ĠCommerc ial
Ġf ox
Ġb onds
Ġin ver
Ġp ushing
ic he
Ġread s
ĠDel hi
Ġmaint ains
ĠS r
ĠW ake
ĠIr ving
ĠTurn pike
m ate
Ġit em
Ġelect oral
ĠHaw k
bird s
d i
Ġre vel
ul u
ĠWar wick
ĠCol lect
ĠPr ice
Ġstri pped
ĠIll ust
r aine
as i
ĠC ec
over ning
Ġart if
Ġwater line
ĠAnt i
Ġcolle ges
Ġout s
Ġmus cle
ĠGr an
Ġspe aker
Ġdoub les
a ude
n or
r ators
ĠK iss
Ġemb arr
Ġelder ly
ĠSpongeB ob
st ad
ĠH oll
ĠW id
Ġbut t
Ġcomp at
Ġmon key
Ġgrad uating
Ġgrand son
ĠHop kins
i op
t z
ĠC os
ĠI C
Ġam pl
Ġflag s
ĠJeff rey
ĠSub sequently
ĠMir ror
hous es
Ġmon ks
ĠGl enn
Ġens emble
ĠHay es
Ġenthusi astic
i ots
ĠTh ings
ĠPre par
b ing
ist ically
ĠMar ath
he ro
at oes
ere k
ich i
velop ed
Ġprev al
Ġsuccess es
Ġsac red
Ġfil ter
Ġlegit imate
oca ust
ĠBer ry
ĠT yr
ĠH M
Ġcare fully
ĠSw ord
Ġbrig ades
Ġc ere
ĠK ath
ĠEd gar
Ġste pped
Ġbar rier
S A
Ġp hyl
ĠF letcher
od on
Ġcour age
Ġesc apes
Ġlay ing
Ġlay out
hol m
ĠBor ough
Ġentert aining
Ġrook ie
m ill
as se
Ġto ol
Ġinf ected
Ġmonth ly
ĠMan ager
ĠSch w
Ġsex ually
ĠCr ime
Ġincorpor ate
ĠReview s
ĠLaur a
ĠSpiel berg
m el
in us
Ġw itch
ĠR up
av our
Ġex ceeded
Ġele venth
Ġrest r
ĠSouth ampton
ĠKenn y
Ġcompens ation
Ġ ump
Ġw ounds
ĠS qu
ĠS under
ĠO ber
Ġhon ored
ĠBel le
Ġdark ness
Ġexha ust
osy stem
an an
ĠBr andon
Ġprom ising
Ġ28 0
Ġread ily
Ġfront ier
Ġsat ir
Ġhealth y
Ġgenu ine
ĠS aints
ĠP irates
Ġsc hem
Ġkn ock
Ġdefe ats
Ġdefin itely
ĠPatt on
n an
Ġs us
Ġpress ed
Ġconsequ ently
enh ower
Ġs oci
Ġinv itation
ĠÃ ģ
Ġmist aken
ĠBol ton
ĠBang l
Ġmonarch y
er als
Ġb er
Ġre ly
ĠC ave
ount ain
ĠVen us
ĠGlob al
l en
Ġf usion
ĠF ac
Ġdr ives
Ġmid night
rie ved
Ġmaneu vers
m at
ĠM ade
ĠE aster
Ġmiss iles
Ġslow ed
rif ied
ĠBas in
ĠNO K
Ġc oc
is le
Ġthird s
ĠArt illery
Ġdi ary
umn i
Ġfrag ment
Ġspawn ed
ĠE SP
les i
Ġloc ate
Ġconclud es
Ġreflect s
Ġpup ils
ĠHend rix
ĠPrincip al
Ġsoph istic
Ġunpop ular
ĠP orter
ĠL ut
os hi
Ġtr am
Ġsub mit
Ġ14 8
ĠPr in
Ġprof its
Ġident ification
Ġemploy ee
Ġdisappoint ment
h urst
Ġre per
ĠP ra
Ġbe nd
ĠR ugby
ĠRock y
ĠCr ane
ĠGo eb
ĠGard ens
c ut
v o
Ġf ib
ĠM ember
ĠTr uth
Ġdest ination
Ġmag ical
Ġblack s
ĠArt ist
Ġnegot iated
Ġmeasure ments
Ġinsc ription
Ġret ros
Ġconst r
Ġconv inc
Ġcor p
Ġcompet itors
Ġexc iting
Ġimm un
ĠLight ning
ĠH ess
oin ts
ĠLe ader
Ġ13 6
Ġnorth bound
Ġref it
Ġdisp ers
Ġcelebr ity
Ġhero es
Ġtra its
Ġcoff ee
ic us
im id
Ġcomp uters
ĠTre asury
Ġdu et
Ġmir ror
Ġcontroll ing
ĠEis enhower
D A
Ġt ide
Ġf ever
ĠR are
Ġcons umed
Ġass ume
osp here
m ons
Ġs el
ĠL ay
ĠL akes
Ġass ignment
ĠArgent ine
ĠStef ani
Ġaff ecting
Ġcolon el
P S
ig on
os ely
ĠMc A
Ġphys ician
ĠWars aw
ĠNeb r
al ogue
Ġl ined
ol ine
ib al
Ġdec iding
ict ions
Ġpos ed
Ġtest imony
Ġautom atic
Ġaccur acy
ĠG as
ne ath
can al
Ġcho osing
ĠLuc y
ym n
Ġpredecess ors
ĠAI DS
Ġneighb oring
ĠSeb ast
Ġfor ts
Ġdist ances
Ġ13 3
ĠHam mer
Ġstrugg les
Ġarc ade
Ġevolution ary
an z
ĠAl most
Ġcap abilities
ĠSus sex
Ġproced ures
l ies
ĠW als
ĠG one
and in
Ġtop ics
Ġfre ight
Ġ37 0
ĠPow ers
ĠFergus on
N e
Ġs ink
ters hire
ĠWill is
ĠRh ode
Ġunn amed
is or
Ġj ail
ĠBrit ney
oph one
Ġdrain age
ĠC G
om es
Ġwould n
Ġrele vant
Ġac ids
Ġreal ize
ĠColumb us
ĠGuadal canal
Ġ es
Ġor al
Ġbes ie
ĠRey nolds
Ġstom ach
Ġd orm
Ġreg ret
Ġsm art
Ġmoment um
Ġpreced ed
ĠMort on
Ġl ion
Ġr ush
Ġun t
Ġfair y
ĠS E
Ġsp are
Ġher ald
Ġdem on
ĠCast ro
ĠVar iety
ĠUnivers e
Ġvolunte er
Ġp sy
il ia
ol ics
ir s
ĠD oc
Ġab d
pl ing
ade qu
uch i
Ġrequ ests
Ġillust rations
chang es
ĠI U
ir ate
ĠF ear
Ġse iz
Ġle ather
Ġresp ected
Ġant iqu
Ġhard ware
Ġcho ices
ĠG am
od ia
Ġsub urban
Ġcar n
Ġfem inist
Ġtrib al
Ġsett ings
ĠAnn ie
Ġkick ed
ĠHy d
Ġblow n
ĠH utch
ĠPl aces
ĠRuss ians
Ġnob ility
Ġadvoc ate
V A
u ates
ĠC itiz
ĠR ice
ĠE ss
Ġwar riors
Ġspe akers
Ġlimit ations
ĠMun ich
Ġdimens ions
Ġenh ance
ĠNebr aska
in ite
Ġb old
Ġbur st
ĠGreek s
Ġincor rect
z o
Ġh in
Ġg overning
ĠCal vin
ĠBey ond
Ġbass ist
Ġteen age
rim ination
ĠLithuan ia
g s
ĠS ite
ĠH anna
Ġany where
Ġabol ished
R T
ĠV ul
Ġte a
ĠFl ag
Ġtw elfth
writ er
Ġresemb les
Ġt ab
Ġto ss
ĠS N
ĠR ever
te gr
Ġunder neath
Ġwant ing
Ġpain ter
Ġsusp ect
Ġille g
Ġrefere ndum
Ġabsol utely
Ġendors ed
Ġenforce ment
ĠM unicip
ig u
Ġconqu ered
o op
Ġe cl
Ġv it
Ġbre ad
vers ely
Ġcryst al
ĠIntellig ence
d ict
ĠB atter
ĠSp ect
Ġthr iller
Ġprec ise
ĠPop ular
Ġcompris es
ĠLithuan ian
d an
ĠE ighth
Ġle ase
be it
Ġrepe at
Ġnation ally
Ġcong regation
Ġlem ur
Ġaccord ance
p ost
oc ese
ĠSt op
arch y
Ġmunicip ality
ĠUlt imately
Ġw are
ĠD awn
ĠBoy d
bro ok
ĠâĤ ¬
Ġextraordin ary
Ġnam ely
ĠA F
Ġpro ven
Ġmat urity
Ġ26 0
ĠHam mond
Ġsecret ly
Ġske leton
ĠFran z
D P
is bury
ĠC u
Ġcom merce
Ġpr ayer
Ġunder lying
Ġdep r
Ġren own
ĠDist inguished
ĠCath olics
ĠEug ene
C O
z i
ĠB av
ĠR hys
ĠD erek
qu et
Ġpres c
Ġfort ified
Ġimprison ment
Ġj am
Ġqu e
Ġnick el
l ance
ĠM umb
ĠP age
ĠR ather
Ġfe es
Ġ14 2
Ġext ant
ĠQuar ter
ĠM ing
ĠP s
ĠSt yle
Ġspecial ized
Ġ185 9
Ġsaf ely
Ġrum ors
Ġinnov ative
Ġdors al
i ott
Ġse ize
ov ich
Ġext inction
Ġcou pled
Ġnegot iate
ĠSout heast
Ã £o
Ġl ocked
Ġcust oms
ĠLo is
Ġsubstant ially
Ġw ool
it ating
el ic
ĠL ear
ĠN ab
Ġpl astic
ĠY u
ĠBrit t
Ġtotal ed
Ġkey boards
ĠRoberts on
Ġa ug
ĠG ren
Ġun ited
Ġsc ales
Ġen acted
Ġlim estone
Ġgen ius
ĠRoad s
ĠUlt imate
v ae
so on
cy cl
Ġspecial ist
Ġjudg ment
ou b
ĠS port
Ġal beit
ain ted
ĠO st
ish i
Ġsc ope
ĠCom ic
ĠAssoci ated
ĠRem ix
Ġgif ts
m itt
ir med
Ġat oms
Ġex port
Ġpre view
Ġret aining
Ġconv iction
Ġnational ist
Ġhang ing
Ġeat en
Ġmillimet res
Ġsubsidi ary
ĠH ast
us el
ĠW ander
Ġch ains
ip el
io let
ĠBl aine
Ġeff iciency
Ġtradem ark
j ud
Ġcomp act
ĠSh ack
Ġhosp itals
Ġcopyr ight
c omm
Ġre writ
ĠC ant
ĠCan ber
Ġsoc ieties
Ġp ian
Ġrun way
Ġpoin ting
ne um
Ġcat alog
ĠTax onomy
Ġf art
ĠP un
Ġder iv
Ġfit ting
ĠSunder land
H A
Ġin adequ
Ġp ige
ĠW as
ĠFr aser
Ġpat ch
Ġ184 5
Ġmic ro
ĠJoy ce
E D
ĠG ross
Ġan at
Ġarr ay
Ġreal m
Ġinvestig ations
ĠOut side
Ġcrowd s
Ġmurd ers
ab ling
Ġsp here
Ġcomp rehensive
Ġpres ervation
Ġdesign ers
Ġ13 9
Ġsouth bound
Ġfact ions
Ġdiv ide
Ġwel com
Ġdece ased
Ġthro at
l ides
ĠB alk
ĠQu inn
ĠGame play
agon ists
ĠSal isbury
Ġsumm ary
ĠWrest le
in ely
Ġs ou
ĠD art
ĠN ed
Ġgu ided
Ġax is
ĠBright on
Ġf ake
Ġpl a
Ġper ception
ĠJo el
Ġintrodu ces
Ġachie ving
Ġthink s
Ġoccup y
Ġgar age
ĠScout ing
b age
Ġst unt
ĠF ant
Ġro d
ĠWill ie
ĠRed s
ĠDou ble
Ġsexual ity
Ġhelicop ters
Ġb out
ĠM ine
ĠAr ms
Ġinf licted
ĠCrit ic
ĠLind a
ĠJenn a
Ġintercept ed
Ġconfron ted
on om
ot on
oun ce
Ġcl iff
Ġ12 00
Ġcontr ary
Ġdom ain
Ġfresh man
ĠLess er
Ġserv ants
Ġreal ised
Ġfac ts
Ġvol unt
Ġbreak down
ĠStal in
ĠTimber lake
g ence
Ġin ex
ĠH IV
ĠâĢ ĺ
ĠHol ocaust
Ġmerch and
ĠRI AA
Ġin quiry
ĠW ed
ĠF an
Ġr ape
Ġrel ax
Ġhigh lights
Ġdr agon
Ġsevent een
Ġresol ve
Ġa thlete
ĠS ed
ĠD ry
Ġv ow
Ġperm it
Ġtend ency
ĠDomin ican
ĠH ig
ĠR acing
ess a
out ed
Ġsc orer
Ġbl ank
Ġinf ant
ĠArab ian
ĠAx is
el est
ĠW oll
Ġal ert
ap a
Ġmon sters
Ġprot ective
ĠBu enos
Ġpros ecution
Ġpitch ing
ĠWhit ney
ov o
Ġeffect iveness
ĠEx am
ĠSw an
Ġexc ited
or ters
ad ic
ĠD re
Ġte nder
Ġsol utions
Ġavail ability
ĠTor res
ĠNort on
ĠPorts mouth
Ġdecomm issioned
Ġm ouse
ĠS hen
ĠK aren
Ġcont ents
Ġgr ace
Ġmat ched
Ġadm ired
Ġvac c
Ġsynthes is
r ically
Ġc ement
Ġp ocket
Ġd ome
ĠP red
Ġdraw ings
ĠScot ia
Ġroll ing
g un
ĠV on
Ġam ino
Ġball ot
ĠD oll
Ġ... .
Ġbas ement
aul ted
sp ring
Ġactiv ated
ij i
Ġancest ors
Ġsub stit
Ġmon uments
Ġcollect ive
ĠPeters burg
Ġlesb ian
Ġund ers
Ġbl og
ĠAir craft
Ġbar b
ĠDay ton
s a
Ġ à
ĠD iet
Ġgr am
ĠSh awn
ĠAm az
ĠMet all
ĠEll iott
o ft
Ġdepend s
ĠNon etheless
Ġw ors
Ġpl acement
Ġend angered
Ġsub urbs
Ġperform er
ĠFor bes
Ġcare ers
ĠEu ro
agon al
Ġadopt ion
ĠBes ides
ĠW end
ĠIn formation
Ġam azing
Ġhom age
Ġcitizens hip
Ġski ing
ĠFerr ari
ĠSic ily
Ġhe ll
itte es
ĠBa iley
ac co
ĠCh i
ĠSc andin
ĠMon ument
Ġstop ping
Ġconclud ing
ĠWeb ber
ĠDur ham
Ġm ere
ĠH V
ĠR af
Ġan k
Ġr er
Ġsp ont
Ġro de
Ġreg ulation
Ġbar racks
Ġmathem atical
ĠOm aha
it ory
ĠC oul
ĠP end
ĠL odge
Ġunder m
Ġ182 0
ĠGal ile
ĠEconom ic
ĠS MS
ĠB M
Ġrel iable
Ġmet eor
Ġvar ieties
Ġfav oured
Ġmot ivated
ĠSing h
ĠHum ph
Ġal umin
ĠG av
ĠK ot
Ġrun ners
Ġins ect
Ġ14 7
Ġann oy
Ġvis uals
au er
Ġden omin
ĠEngine ers
ĠHug o
ĠESP N
Ġcountry side
ĠVol t
c ope
Ġb ishops
ent e
ĠR esp
ĠSt rait
Ġcomm ended
Ġear s
Ġworld s
Ġdepart ments
ĠHistor ian
Ġdin osaurs
z ym
Ġf ut
Ġg ren
ĠD y
ĠAnd ers
Ġgoal keeper
c at
Ġo z
ĠG iven
ĠBl ock
Ġorgan isations
Ġsem if
ĠMod el
Ġcolle ague
Ġbot an
ĠMcM ah
Ġunh appy
uxili ary
es ters
ĠL ope
Ġwork sh
Ġmill imeter
ĠTr ain
Ġsol ve
ĠGard ner
Ġseason al
Ġrece iver
Ġwat ches
ĠAust en
Ġgovern ed
Ġsl ot
Ġreflect ing
Ġsubs id
Ġsatisf ied
Ġdemocr acy
Ġrecon cil
Ġpuzz les
Ġb inding
Ġd ign
ĠP itt
Ġdomin ance
ĠMore over
aud i
ĠPhilipp ine
Ġinstall ment
ibl ings
ad oes
ĠM aple
ĠB og
ĠB irth
Ġspec ified
ĠBah amas
Ġacceler ated
ĠAssist ant
ĠMumb ai
ĠC ros
ol o
Ġst uck
Ġj e
ret ion
Ġfort une
Ġtalk ed
Ġinher it
Ġecc entric
ĠCaes ar
Ġreh abil
ro ck
ĠAn a
Ġph ases
ĠMon ica
Ġter restrial
Ġche ap
Ġwood land
Ġcorrespond ence
Ġdiagn osis
ĠCanber ra
P C
n am
ar med
ĠI X
os al
na e
Ġobs ervers
Ġaver aging
Ġfail s
ĠPruss ia
Ġborrow ed
r av
in ate
Ġc ott
ĠR uther
lu ence
Ġgoal tend
ĠAngel a
ĠDemocr at
Ġincorpor ating
Ġexplicit ly
f old
Ġthe or
Ġs id
Ġl ingu
est ock
Ġmar itime
Ġ185 4
ith m
Ġex agger
Ġdown ed
Ġgu id
Ġactiv ist
Ġpers isted
Ġsil ence
ĠPri est
Ġcle ver
ias m
Ġisot opes
ĠLope z
ĠR overs
ĠL ag
so ver
Ġ185 7
iat us
unc iation
Ġs iblings
Ġbusiness man
ĠSn ake
Ġfrust rated
Ġjuven ile
ĠG iant
Ġle aked
Ġcl uster
Ġperform s
Ġback d
Ġexhib its
eld a
ĠConc ord
Ġst ip
ĠL il
ĠL av
ĠN ME
ond e
ĠSh a
Ġdet achment
ĠSy rian
Ġchart ing
Ġens ured
Ġremark s
ĠPear son
l ass
ĠA ires
ĠW ong
Ġr am
ĠK os
Ġev ol
ĠPl ate
Ġval ued
ĠMac L
Ġboard ing
ĠDist ribution
Ġconfig uration
ĠD iana
Ġshort ened
aged y
Ġconduct or
Ġprec urs
Ġmor ale
Ġec osystem
Ġcl er
Ġpresent ing
ĠMy c
ĠHam burg
Ġorb its
ĠRecre ation
D T
ar ity
Ġp s
Ġl od
ĠW ilm
ĠF C
ĠL ions
ĠE agles
Ġsound ed
ĠOpp en
Ġanth rop
ĠT ell
ĠS au
ir i
ĠW ang
ct ive
Ġmin eral
Ġbus es
Ġste al
Ġdisagre ed
ĠK ann
Ġtr ilogy
Ġint entions
Ġbo om
Ġer up
Ġavoid ing
Ġc it
ĠT ampa
ĠP ix
ĠJ azz
ish na
ĠNew ark
Ġvari ants
ĠDuc hess
t he
Ġd rift
ĠS my
Ġal iens
av ity
ov an
Ġexp elled
Ġsl opes
ĠEngine er
ĠJosh ua
ovak ia
x ter
Ġm ast
ou fl
ĠS ter
Ġun ity
Ġdevelop s
Ġdesc riptions
Ġmed ian
Ġimm igration
Ġnortheast ward
ĠVol ume
ĠJess e
Ġanch or
ibl ical
cliff e
r ina
Ġt ier
Ġt yr
ĠD uck
aun ton
ĠPlay ing
ĠDi á»ĩ
ÅĤ aw
Ġreun ited
Ġpoison ing
ĠDiá»ĩ m
Ġn Ã©e
Ġtr ump
Ġlow ered
Ġdeterm ination
Ġimm une
Ġorb ital
ĠHold en
r ide
Ġport rays
Ġste ering
ĠFran Ã§
ĠA ven
ĠP ont
Ġout lets
Ġreg ain
ĠNe ither
Ġsan ct
Ġb ure
Ġafter ward
ĠCom pton
ĠBe ast
Ġscreen ed
Ġb icy
ĠC yp
Ġr ises
Ġim per
Ġfound ations
Ġorgan ize
Ġsat isfact
Ġscript s
Ġpersu ade
Ġs aves
Ġm all
Ġh ipp
ĠK ay
Ġret iring
Ġdep ot
ĠHall ow
Ġsuper hero
Ġdoub led
ĠDest iny
Ġpromin ence
ĠC reat
ĠR Ã©
Ġacc ent
Ġlar vae
ĠZ h
Ġstr ain
Ġrespons ibilities
Ġbow ler
Ġcinem at
Ġin ability
ĠP and
ĠL ac
Ġr av
Ġle an
ĠAd ult
Ġattrib utes
Ġdrop s
Ġshel ters
Ġfrig ates
Ġcontinu ously
ĠEnvironment al
Ġoverh aul
it ational
Ġch ambers
ĠSh ir
Ġprim itive
Ġsil k
ĠRh ine
Ġadvent ures
Ġdream s
Ġt ailed
Ġin ev
Ġfre ely
gr im
Ġbig ger
ĠSav age
ĠConc ert
en ary
is ch
ĠC ore
ri et
ons cious
Ġsymb olic
Ġnarrow ly
ĠKnow les
ĠHann ah
ĠA zer
ĠW ick
Ġover time
ĠAr med
ĠIm medi
Ġjud ged
Ġpeace ful
ĠAsh ley
ĠCru z
Ġwel come
id ity
ĠK ang
ast ical
ail and
Ġsmall est
sw ick
ĠBangl adesh
ol esc
if ax
ub les
Ġthan k
Ġt ales
ĠY ang
ĠCl aud
Ġbreak through
Ġgrad uation
Ġlink ing
ĠWrit ers
Ġroof s
Ġenlar ged
ĠM ale
ĠI vy
ĠH ers
ĠD over
em pl
ĠG aza
ph an
air d
ĠSchool s
Ġche er
ighth ouse
Ġmanuscript s
ĠAdri atic
z ens
th rop
Ġcon ve
ĠG at
ie v
Ġac ute
ĠKing ston
ĠBer k
Ġ185 8
ĠPre v
Ġaccommod ation
ĠDod gers
ro ft
Ġd io
il is
ĠB ened
ĠD ale
Ġv ibr
Ġtr ails
ĠAll an
Ġdet on
ĠRet rieved
Ġabol ition
Ġo st
Ġd ish
ĠB un
Ġv eto
Ġtr act
Ġrespons es
ĠPal m
Ġlov es
Ġexclud ed
ĠH ave
ĠW u
ĠF alk
Ġpl ag
ack er
ĠCon v
ene z
Ġcommand s
ĠPhil os
Ġaccept ing
Ġfinanc ially
Ġspect rum
ĠMov ing
ĠAlexand ria
Ġtong ue
ĠTrad ition
n et
ĠN u
Ġab rupt
ĠAng lic
ĠSing er
Ġtransform ation
Ġisol ation
Ġreven ues
ĠAntar ctic
M ania
ĠC ock
ĠB le
per ed
ĠAr n
ĠInd ivid
Ġleg ally
lin ing
ĠIm m
ĠWrit ten
Ġinte g
zy me
i ology
Ġh aun
art z
ĠGu err
ĠBah rain
Ġsovereign ty
ĠSug ar
Ġcentimet res
z ing
Ġir re
w er
Ġb red
ĠH ollow
Ġshort age
ĠBet ty
Ġlaunch ing
Ġexpress ing
Ġreleg ated
ĠS AS
om fort
ĠX V
Ġ181 2
Ġconvoy s
Ġkid ney
Ġgal axy
ĠBird s
Ġovers aw
ĠCost a
avil ion
ĠMcMah on
Ġb ag
Ġsh apes
alf ord
Ġpri ests
ĠPresident ial
Ġ32 0
ĠChap ter
Ġquant ity
Ġdeterior ated
Ġcontempor aries
Ġwelcom ed
F ar
r ush
as ive
ĠT at
ĠF iction
ĠY ank
ĠLe ft
Ġent ries
Ġbl ame
omet own
Ġcoun ted
Ġactiv ists
Ġclear ing
Ġenthus iasm
ĠLim ited
Ġunw illing
ĠÂµ m
as ures
ĠL an
ov ina
ra h
ĠIndian apolis
ĠCap com
Ġeconom ics
ĠObs erver
Ġfier ce
o an
Ġc ord
ĠT ill
ĠV a
Ġtechn ologies
Ġ55 0
Ġrejoin ed
c ies
m atic
al and
Ġsh ocked
ĠSh ore
ĠDan ube
Ġsymp athetic
Ġaccum ulated
ĠSerge ant
Ġt ables
ĠA U
ĠC ert
ĠR ook
ĠN ame
Ġpoll s
ĠXII I
ĠRuther ford
b ul
Ġs aint
ĠA way
ĠM Ã¼
ĠD ana
Ġfr ames
Ġgrand mother
Ġbul let
ĠEy es
Ġclim ax
ĠNept une
Ã ł
Ġp neum
ĠD ata
Ġcon form
Ġan onymous
Ġsu ed
Ġsur ve
Ġship ments
Ġmed ley
ĠMin ne
ĠCr ash
Ġ185 6
Ġ184 9
Ġtourn aments
ĠAv on
he y
ĠT ank
raw l
Ġmanag ers
Ġrecommend ation
ĠTib et
ĠRe id
ĠAfter wards
ĠFr inge
ĠMc E
ĠUnder ground
Ġtelev ised
ĠWinc hester
v ous
ĠC razy
ĠH utton
ĠF aith
og ical
ĠSp ot
ĠTr avel
Ġsw all
ĠBut ter
Ġsubject ed
Ġnar rator
ĠHal ifax
ĠJul ia
Ġevac uate
Ġnit rogen
u in
Ġd ull
st ock
ĠR ip
ĠO C
ĠJohn s
br ates
Ġworth y
Ġtelesc ope
b ane
ĠR oth
ĠBro ck
Ġlaw yers
Ġphys ic
oe uv
Ġfavour able
o i
am ous
ĠM ig
ĠI g
ĠCh al
ĠTr in
Ġprop eller
Ġcas em
Ġpoll ution
Ġnucle us
ĠPruss ian
Ġconfront ation
ĠDyn asty
und y
ĠTh ailand
Ġdis k
Ġplat oon
Ġpurs uing
Ġtheore tical
ĠHeb rew
orig inal
Ġphyl ogen
Ġb eds
ĠR id
ĠD rew
ĠN em
unk er
ĠComp an
Ġp p
Ġre app
Ġhe ating
Ġbe ings
ĠD um
art e
ra its
Ġint rig
Ġinvestig ating
Ġencour aging
ĠWhe eler
Ġdispl acement
Ġwonder ful
Ġsuperst ructure
Ġw elfare
at ab
Ġd ent
ĠJ ag
Ġcont acts
Ġman or
Ġacc idents
Ġcat ches
ĠMiddles ex
Ġg ig
ĠL omb
ĠN y
Ġrec apt
Ġconc lus
Ġfr atern
ĠNe g
Ġmean while
Ġmeant ime
he res
it ative
ent ry
el i
Ġ33 0
Ġimag ination
Ġalt ogether
ĠDisc overy
Ġwrest lers
c hester
Ġadm its
gr aded
Ġcompar isons
ĠAR IA
Ġrecre ational
s burg
um s
Ġshow c
ting ham
Ġcrit eria
Ġtro ubl
Ġaver ages
ki en
Ġdram atically
Ġprol ong
ĠH aven
Ġhe s
Ġnew er
Ġunder graduate
Ġreview ing
ĠBrad ford
Ġpostp oned
Ġl auded
ĠB ever
Ġg ills
ĠD ock
Ġsc ream
Ġaffili ated
Ġa ster
Ġc ros
Ġh ometown
ĠR S
ĠL ans
ĠN ig
Ġpre ference
Ġexp enses
Ġref usal
Ġcapt ive
Ġtro ut
ĠNor wich
ĠAst ron
ĠTraff ord
Ġinfer ior
ic ia
Ġsh ale
Ġcons erv
ĠBar ber
Ġobs erve
bor o
ĠInter ior
ĠStaff ord
ĠPrim ary
Ġrenown ed
Ġd y
Ġwh it
Ġview er
Ġdecl ining
ĠDon na
Ġtend s
Ġrebu ilding
ĠJess ica
Ġautob i
ĠLaf ayette
ĠSebast ian
C N
ĠG ould
Ġinc omp
ens ing
ĠAng els
ĠEven ing
ĠMedic ine
l ay
Ġt ired
Ġst ake
ĠL ich
ber ger
Ġpl ug
Ġtr ace
ĠCo ch
Ġorder ing
iment ary
ĠFre eway
Ġautom atically
olith ic
ĠWrestle Mania
Ġf et
ĠD h
ĠJ ava
ĠK le
ĠK om
Ġper ipher
Ġpar ade
Ġevery body
Ġter rible
Ġmoder ately
ĠT ina
Ġl unch
ott a
Ġsend s
ĠStew ie
Ġbr ass
Ġsocial ist
Ġcal endar
Ġplant ed
ĠGre ene
Ġdedic ation
Ġmanufact urer
Ġsupposed ly
Ġadvertis ement
Ġthunderstorm s
Ġtrigg ered
Ġw ages
Ġo t
Ġn a
op al
ĠV ince
ĠLe vel
ĠÎ ¼
Ġdisturb ed
ĠRoc hester
Ġmonit oring
c i
Ġl oses
ĠL az
ĠV augh
Ġinter rog
ĠComm odore
Ġcerem onial
Ġimplement ation
Ġpure ly
ar u
ik er
Ġdest ruct
Ġadm ission
ĠLiter ary
Ġc ig
Ġf ins
ĠE rie
Ġde er
ĠBy rd
ĠWe ber
Ġrecommend ations
Ġtruck s
g ent
an or
il ian
ĠC ai
im an
Ġep id
Ġdisc rimination
Ġcur ric
Ġspok es
Ġhapp ens
Ġdrown ed
er os
ĠA N
ĠP itch
av o
red ited
rodu ction
Ġkind s
Ġreason able
Ġse am
oy le
ĠMar cel
Ġmar ble
Ġconcent rate
ĠGlou cester
Ġd olph
Ġst un
Ġ14 3
Ġfre estyle
Ġdeg ener
igg s
Ġw ond
ĠP ike
ĠJ in
ĠIn g
ub a
Ġsm oking
ĠCanad iens
Ġ65 0
ĠBrun swick
d ie
Ġs ax
Ġm ock
ĠH appy
ĠW ade
ĠJ ets
Ġbu ying
al ine
ĠA j
op old
Ġpass ages
ĠBe ing
ze g
Ġcivil ization
Ġrow s
ĠPriv ate
Ġrect angular
ĠBeh ind
cycl op
Ġc ater
ĠC IA
Ġn urse
Ġg re
ĠR ama
ĠO g
Ġex empl
ov ny
Ġpe as
ĠCorn ell
ĠHun ting
Ġtim ing
ĠShak ira
ropol is
Ġneighborhood s
Ġexha usted
ĠDuch ovny
Ġl ibr
Ġg ospel
Ġal k
ag ara
ĠK arn
Ġ185 2
Ġnation wide
Ġsupp ress
ĠDam asc
Ġmort ality
Ġcontroll er
Ġguid ance
ĠOppen heimer
Ġt iny
oy a
Ġdisc l
Ġconf isc
Ġportray ing
ĠFore ver
ĠWy att
Ġic onic
Ġtherm al
ĠO S
ĠTh urs
ĠSh aron
ĠRich ards
Ġsle e
Ġtorn adoes
Ġbats men
ĠThor pe
Ġdemocr atic
c aster
Ġs ided
ĠB L
ch y
ĠK end
Ġco aster
ĠBe au
Ġpow der
Ġnest ing
Ġpublisher s
Ġunn ecess
Ġf ing
ĠS es
Ġapp rent
Ġdis rupt
ĠCo ach
E R
d ish
ĠG and
ĠTh orn
Ġcap ability
Ġprom ises
Ġdet ective
Ġobject ed
al an
ĠZ oo
ĠGu est
Ġindu ced
her d
ĠJ oker
Ġcl erk
Ġbo ards
Ġstat ute
ĠMet roid
Ġ184 7
ĠYank ovic
Ġam ounted
ĠCo hen
Ġaff ection
ĠBet ter
Ġlabel ed
or p
id ad
ĠG Ã¶
orm al
Ġins urg
Ġcommunic ate
Ġphilos ophical
ĠHind i
ĠHem ing
Ġencl osed
ĠEpis ode
ar in
ĠA w
ĠL or
ĠVol unte
ĠIraq i
Ġadequ ate
ĠD ame
Ġv in
Ġinst ances
ĠHar bour
aster ly
Ġradio active
Ġcelebr ations
Ġaccount ing
r ag
Ġd il
em ics
Ġren t
ĠMil ton
Ġtort ure
f ires
h m
Ġn ost
Ġoper ators
Ġsk illed
Ġpat ent
Ġinvest ed
ĠLouis ville
Ġut ter
Ġdemol ition
j ar
ĠC ly
ig uous
th ood
ĠN iger
Ġcomplex ity
Ġfarm land
Ġfilmm akers
ĠEld er
st ead
ĠR ank
hy d
Ġgener ic
ĠPer u
Ġbed room
ĠImmedi ately
w ald
Ġinter face
Ġ185 5
ĠDar ren
Ġrecip ient
Ġsophistic ated
c ip
Ġh ollow
ĠE t
ĠK ra
Ġret ro
ĠGr ad
Ġtest ified
ĠMy ster
Ġ184 6
Ġqual ification
Ġmanufact ure
Ġsand stone
Ġcanc ellation
Ġculmin ated
ĠLeban on
j ord
art a
Ġcl ient
Ġhel ium
ĠStud ent
Ġvirt ual
al us
Ġl or
ir able
ĠV enez
Ġreg ards
Ġcr us
Ġinnoc ent
ĠMig uel
ĠDamasc us
g ae
ĠH od
gest ion
Ġviol ation
ĠMah ar
ĠRhodes ian
h orn
ĠF ow
ĠL ey
Ġsh irts
iz able
Ġhard er
Ġdischar ge
ipel ago
ĠHumph rey
G S
R O
id ian
Ġst ing
Ġimp ed
Ġsk irm
Ġbroadcast ing
ĠEy e
Ġdivor ced
ĠRup ert
ĠS audi
im o
ord ination
ĠAr cher
Ġass ured
Ġaest hetic
Ġconced ed
ĠHast ings
b ai
Å ¾
is ure
ĠH undred
Ġpur ple
Ġdon ations
Ġdissip ating
c ling
Ġl ady
am us
ĠF ul
ĠE b
ĠE uras
oc ate
ĠAl onso
ĠAs ide
Ġco ached
ĠZ elda
Ġposs essions
Ġpar ad
ĠÅ ł
Ġtack le
Ġconvinc ing
pl ane
Ġpe ers
Ġsl ip
ĠMo h
Ġprem ise
ĠCle ment
ĠBas il
Ġancest or
ĠJam ie
Ġhorn s
Ġpsy ched
e le
ĠS iege
ch ant
Ġfl aw
ĠVir t
unt a
Ġconsum er
ĠLex ington
Ġing red
Ġdesper ate
ar ms
ĠN olan
Ġch im
ina e
Ġ183 2
ĠGeorg ian
ĠDog gett
Ġcam oufl
ĠChet nik
Ġs its
ĠH ank
ĠH ern
Ġru ined
O R
ĠK as
ov ed
Ġper imeter
Ġdis rupted
Ġoff spring
ĠJul iet
ĠGw en
ĠSans k
ĠAzer bai
Ġh alt
Ġl ots
if ier
Ġgu ys
Ġox ide
Ġdio xide
ast rop
Ġcl usters
Ġreg ener
umber ing
ĠJul ie
Ġrend ition
Ġmort ar
Ġcateg or
Ġrub ber
Ġdimin ished
ĠSaf ety
Ġkilog rams
ur ated
Ġhe ated
ĠG ael
Ġpro c
Ġtr igger
ĠV ocal
Ġred dish
Ġdecl are
Ġinvest ors
Ġdev ised
ĠAnn ual
ĠTon ight
f ast
Ġo ath
Ġd ining
ĠT ong
Ġl am
el ong
ĠL angu
ĠG ret
rib e
sh i
Ġarch itects
ĠCle m
Ġdefend er
Ġparallel s
ĠAC C
ĠHispan ic
ĠTh irty
ren cy
Ġfl ies
Ġcorn ers
ĠStock holm
ĠFull er
Ġaccus ations
ĠS C
ĠN A
ace ae
Ġpres umed
Ġgen et
Ġbal let
ĠInit ial
ĠVis ual
ĠAppro x
at ters
il ight
ĠM ered
id ium
im son
ass ium
omet ry
Ġaccept able
ĠCub s
ĠBuck ingham
ĠMans field
Ġliv estock
Ġn erve
ĠK ur
Ġher b
ĠWar riors
Ġstar ter
ĠGl ac
Ġop ener
ĠMinne apolis
I C
ĠN im
Ġcompan ions
ĠWor cester
Ġplum age
E F
in tend
Ġd ys
ĠC ret
Ġn as
Ġv iral
ĠCar penter
Ġeight eenth
hold ers
Ġremn ant
Ġsleep ing
Ġrelie ve
Ġabb ey
ĠBris bane
ĠMered ith
ĠL og
ĠV as
lud ed
ke e
Ġland sc
Ġpartic le
ĠNe igh
Ġpay ments
Ġstrict ly
Ġposthum ously
o que
w orld
ĠC lear
ĠM ater
od ing
Ġperson a
Ġvict orious
Ġche ek
Ġcolon ists
Ġbox es
Ġbackd rop
o qu
on er
Ġs acked
at as
Ġc ogn
Ġf og
Ġh ate
ĠS ul
ĠJ ak
op us
ĠAl ien
Ġprem ier
Ġexcept ional
Ġinadequ ate
Ġa ims
at ri
ar re
al ore
ĠP aper
Ġbe aches
ĠL anka
ĠE MI
ib e
ĠInd eed
ĠDec l
Ġfeed back
Ġthrow s
ĠMethod ist
ĠHallow een
ĠP ath
se nd
Ġarch bishop
ĠGrand e
Ã¤ n
ĠScient ific
Ġcommemor ate
ĠS ag
ĠB Ã©
ĠF olk
Ġman ned
Ġdef ining
ĠAd olf
ator ies
Ġlim bs
ĠWild life
Ġcool er
ĠLaure n
Ġmos que
Ġschem es
I T
Ġo re
ĠM iy
ĠH ear
Ġman oeuv
ĠBe atty
Ġcat aly
ĠOrig ins
Ġbes ide
ĠT omb
Ġl ord
ĠD ob
land o
Ġannoun cing
Ġprof ound
Ġcomb ine
Ġdiss at
Ġh iatus
Ġkn ight
Ġam p
Ġcharacter ised
ĠMe et
ĠPe g
ĠMac D
Ġ185 3
Ġcook ing
Ġorient ation
Ġpresum ably
b red
ĠW imb
Ġcl ause
ĠShe ar
ven ge
Ġgu err
ĠNorth umb
ĠTe en
Ġcor poration
sequ ent
Ġpen alties
he a
ĠT win
Ġsl ope
Ġbre ach
ĠSup porting
ĠShack leton
Ġt ear
ou k
Ġal tar
Ġsp arked
ĠSpec ies
ĠCart e
ĠSansk rit
ĠT act
ĠK iel
Ġun official
ces tershire
Ġmake up
Ġbroad er
ĠMor oc
che v
aver n
ĠKey s
Ġinstruct or
ĠAnim ation
Ġ Ì
Ġl oot
ĠC ay
ĠD id
ew ays
ĠY ale
ren ches
ific ate
Ġmon soon
ĠCol bert
oul t
Ġuncertain ty
Ġt ears
Ġst alk
ĠW ess
Ġnum er
Ġam end
ĠOr lando
Ġcoun ts
Ġpack ed
Ġunp re
fl ies
ĠWed nes
w oman
iv ided
ĠL iv
ĠK Ã¶n
ĠLe ip
led on
Ġnon etheless
ĠHam pton
ĠSub sequent
Ġwrest ler
an as
Ġth read
ĠB j
ĠR ot
qu in
Ġsp ans
Ġj eal
ced ented
Ġinf ilt
Ġport raits
sh adow
Ġconv entions
Ġcollect ively
ĠKap oor
c omb
u ke
ar ck
id an
qu el
ĠSe ym
Ġdef ine
ĠFl ash
Ġdeb ated
Ġrail ways
ĠCast ing
Ġwild life
Ġobserv ing
Ġlect ures
Ġshar ply
l ide
Ġform ats
Ã© l
ĠCal c
Ġconcent rations
ĠPers ians
add y
Ġoutf it
Ġdies el
Ġforg otten
ĠApprox imately
Ġt rop
Ġw ears
ol ves
ĠF en
Ġcon ning
ĠCh ambers
ĠTh anks
ĠAnd rÃ©
Ġant agonist
ĠPalest inian
un ion
Ġr ip
Ġdep ress
ĠDe xter
by ter
ĠSeym our
c or
as ma
ĠF i
ĠTh ir
Ġen abling
Ġrel at
ĠSh ane
Ġref lection
Ġkey s
Ġtax on
Ġsen ator
Ġkilomet re
Ġmechan isms
Ġdiff ers
Ġclin ical
Ġadvertis ements
ap or
Ġsp ark
Ġtr aced
Ġret al
ĠCl are
Ġele g
Ġref using
ĠOr k
Ġhum our
Ġ184 1
Ġspeak s
ĠCher ry
Ġnomine e
Ġunpre cedented
Ġl ords
ĠB ess
th ouse
ely n
ĠLe opold
ĠGeor get
ĠNe ed
Ġfund ra
Ġz inc
ĠPerson a
Ġfant astic
ĠHoff man
Ġh ub
ĠC risis
ĠM its
Ġcl oth
Ġrep orters
Ġtri angle
Ġfr ight
Ġemer ge
ĠComple te
Ġlisten ers
Ġecc lesi
Ġfram ework
Ġfron tal
ĠWes ley
ĠS inc
Ġr abb
Ġcom eb
ĠKn ox
ĠPant hers
Ġ ell
ĠS z
ĠN an
Ġserv ant
empt ion
Ġcour ty
ĠPat ric
ĠKr ishna
Ġresemb lance
ĠWell es
Ġclimb ed
leb rit
Ġf illing
Ġse ated
Ġro uted
ĠAr d
Ġadd itions
ĠVict ory
Ġpurch asing
ĠAlb ion
ĠCorn er
a ic
l led
l air
ĠS tern
ĠG ore
Ġbut ton
Ġwhere by
Ġland own
ĠJack ie
Ġstret ched
ĠVik ing
ĠSomet imes
ĠHok ies
Ġf oul
ec a
ut ors
Ġrec laim
ĠAr ist
Ġrem aster
Ġsouth ward
Ġel imination
ĠBel grade
Ġrid ges
Ġpup pet
ĠTechn ical
Ġpull ing
Ġpromin ently
ĠCoal ition
roscop ic
Ġcomed ian
Ġbe friend
Ġ20 5
ĠCar roll
Ġevery day
Ġstat ues
Ġ184 4
ĠOak land
ĠLyn n
ĠSin atra
Ġspir its
Ġhect ares
ĠNum erous
Ġe ager
iv ier
ĠR hy
Ġse aled
ĠK amp
Ġres ource
Ġdo zens
Ġrep rin
ĠStud ents
mar ine
Ġdisapp ro
ĠWin ston
ĠWork ing
ĠCard inal
1 0
or o
en stein
res cent
Ġsp ear
Ġsimilar ity
ĠBel arus
Ġteen ager
idel ines
Ġcurren ts
ĠHeming way
W R
ĠC um
ĠD ixon
Ġle nd
Ġcomp osing
amp h
ĠPar ad
Ġhy ph
Ġguarant eed
ĠCinem a
Ġf als
op ing
Ġmus cles
Ġste als
ĠHor ror
ĠPil ot
ĠVenez uel
lebrit ies
b in
at ches
Ġon set
Ġinter im
Ġreal ism
Ġunc omm
Ġang les
Ġhot els
Ġancest ry
ĠCec il
z el
Ġto b
ĠS elf
et e
umb ent
Ġuniform s
Ġdevast ated
Ġ. .
Ġf u
Ġp ard
Ġm ating
ĠT roy
ĠS ah
ĠF ey
ib les
ĠAn imal
Ġent ity
Ġship yard
Ġdisc o
Ġelect rons
Ġsoc cer
Ġassoci ates
ĠBer gen
ĠAut o
Ġexped itions
ĠHard ing
ĠKa hn
Ġboil er
Ġpatron age
ĠS ales
ĠM iz
Ġen zyme
ach i
Ġshoot s
Ġdead line
Ġdig est
Ġpione er
ĠDaw son
ĠP ale
Ġhe ter
ĠO wn
Ġex changed
ell es
Ġover night
Ġaccept s
ĠFer ry
ĠGet ty
Ġcounterp art
ion ed
ĠS it
om orph
Ġde leted
Ġse ating
Ġsm ugg
Ġmay be
Ġsit com
Ġpract iced
Ġtransport s
ĠCamp us
ĠTrans it
Ġcontem pl
ĠVer de
Ġspread ing
ĠSystem s
Ġovert urn
Ġguarant ee
er get
Ġs au
ad ar
ĠW ey
ie u
Ġund ef
Ġ179 0
ĠEle anor
ĠâĻ Ń
g irl
h ist
ĠM echan
ĠM GM
Ġch ron
ĠPr adesh
Ġbi ology
Ġ183 6
Ġrecover ing
Ġintegr ation
Ġcha os
Ġsummon ed
ĠWis den
ĠSurv iv
i em
ĠS eth
ĠA chie
av i
Ġwhe els
ĠCl aude
Ġbroad ly
Ġhost ing
Ġunc onscious
Ġelement ary
Ġsuperv ision
ĠMcL aren
cont inental
Ġreop ened
Ġjeal ous
Ġc razy
Ġinv ention
uc lear
Ġsomet ime
Ġutil ized
Ġabund ance
k ward
Ġp orn
ly ph
ch air
ĠE van
Ġde ity
Ġen zym
Ġbet a
Ġgr avel
ĠQ ual
Ġpo ets
Ġrein st
Ġge ographical
ĠBart on
Ġjoint ly
p ur
Ġt renches
ĠD und
Ġpro se
Ġsp ore
ĠV ery
Ġmill s
ĠGu am
Ġwest bound
Ġagre ements
ortun ately
Ġcompl aint
ĠAnglic an
Ġs ne
Ġp ub
il us
am o
ĠL C
ĠHer zeg
Ġsuggest ions
Ġgas oline
ĠByzant ines
Ġdreadn ought
Ġaf raid
D OT
Ġw ives
Ġloc als
ĠArab ia
Ġmagn et
Ġ177 6
Ġconstitu ency
Ġst up
ik k
Ġsw ift
Ġbar rel
Ġreform ed
Ġanch ored
Ġexclud ing
Ġtouc hed
Ġb ra
Ġl av
Ġr iots
ĠO sw
Ġpr ide
ĠBatt les
ĠHait i
Ġmetap hor
r imin
ent in
ĠD ors
Ġne u
Ġrep ly
ĠAm azing
ĠBlack burn
Ġbill ed
Ġflow ing
ĠAnt illes
ĠFeder er
Ġcounterp arts
Ġf ond
un ct
ur red
Ġmin ers
Ġimp acted
ĠItal ians
ĠArab s
ĠCommun ications
Ġl ith
ĠB end
ĠB ism
ĠR ise
ul ent
Ġj ungle
Ġdef icit
Ġcomb ining
Ġbackground s
Ġaw kward
Ġsket ches
Ġtroubl ed
Ġp ac
Ġd up
ĠG ive
op oly
ĠK ids
Ġdis qual
Ġext ract
ĠPr imet
Ġassoci ations
hib ition
Ġcru el
Ġ183 7
Ġsupern atural
Ġcongress ional
ĠWimb ledon
ĠPrimet ime
E T
l ot
ĠB ronze
th al
Ġdis in
ĠRe in
ĠBl oom
Ġcr ack
Ġel ong
Ġfac ial
Ġcollect or
Ġsymp ath
Ġurg ing
m are
on ely
ĠM Ã©
ĠJ a
ĠJo ey
Ġoverl ap
ĠTel ugu
ĠBelie ve
e ated
ĠS ask
om ans
us ions
Ġsp y
Ġblock ing
Ġbox ing
Ġauth ored
Ġinsc riptions
ĠReturn ing
ĠUnd ert
om i
ĠB ard
ah o
Ġcor onation
Ġbar n
Ġcreat ors
ĠMong ol
iffer ent
is a
ag ne
Ġun beat
ĠZ agre
Ġpost ing
Ġsound ing
Ġmel odies
Ġcros sover
Ġcomeb ack
ĠZagre b
ĠH its
ĠD ot
Ġtr aces
ĠV ishn
ry ing
Ġmater nal
Ġsculpt ures
rell a
ĠWeb ster
ĠValent ine
e g
f ork
h al
ĠS pl
ul ator
ess ing
ĠUn f
Ġacc ounted
erv es
af e
Ġhard ly
Ġdism ant
ĠCe lebr
Ġregist ration
n ant
ĠM oor
ĠF ork
Ġhand ful
Ġtro ubles
ĠAT P
Ġprest igious
Ġfart her
f ax
Ġs izes
ĠA val
ĠK yl
ĠSt ark
Ġwe ird
ĠPl ains
Ġinform s
ĠÃ ħ
ĠCong o
Ġshoot er
ĠLo ch
Ġmountain ous
Ġfung i
ĠBened ict
f a
h ot
ĠS ara
am y
ĠB ret
Ġr ud
az ed
Ġgener ating
Ġcampaign ed
Ġvac ant
Ġrenov ation
it ia
ĠB iography
Ġeast bound
ĠCr an
Ġreact or
Ġresemb ling
Ġsurvey s
Ġterror ist
ĠGaz ette
ĠS andy
Ġatt ain
Ġmatch ing
Ġoccup ying
Ġdiss ent
ĠChief s
ĠSher iff
Ġlegend ary
ĠGuatem ala
ĠIU CN
intend ent
h aus
y on
Ġs her
ĠC ul
ĠB ord
ĠSt oke
Ġinc arn
Ġcons ec
Ġpr one
anc a
ĠQu int
Ġprin ts
ĠAtt ack
ĠAthlet ics
Ġpy ramid
Ġconsolid ated
ĠOrk ney
ic on
Ġcomp ose
ĠMan a
Ġfore ver
Ġlab els
Ġmotor cy
Ġaw a
Ġdownload able
Ġremix es
ĠDor othy
Ġod ds
Ġlect ure
Ġdevast ating
Ġrecall s
mans hip
l ord
Ġp ant
Ġp agan
Ġg orge
ul ative
ul atory
Ġch icken
Ġen erget
ters on
ĠZ imb
Ġfact ories
Ġste aling
Ġcalc ium
ĠSpe aker
Ġconfron ts
Ġnut ri
Ġf usel
ac a
Ġg ases
ĠF ine
Ġpl ots
Ġiss uing
ape ake
Ġ183 9
Ġseek s
Ġtermin ated
Ġhall s
Ġrecru iting
ĠCros by
Ġinteg ral
ĠC edar
un s
act ions
ty m
Ġstar board
ev o
Ġstore y
Ġnob les
Ġadvis ory
an za
ĠT ud
ad os
ĠF o
ĠJ et
Ġtr agedy
ĠSm art
Ġlik es
ĠKr ak
ĠTol kien
ĠHein rich
Ġunst able
l ore
Ġf eder
Ġfor get
ĠDe al
ĠSy rac
Ġbroadcast s
Ġemb ry
Ġspect acular
ĠReview ers
Ġbreat hing
ĠiP h
ĠTrin idad
ĠGael ic
Å Ħ
Ġhe ights
ĠD ew
ĠD iss
ĠJ ain
ill on
ĠK oh
Ġcons ort
Ġsub f
Ġheav en
ĠHy de
Ġbombard ed
Ġpap al
p op
it us
is ely
Ġh ailed
ĠS aff
ab ul
ĠCon rad
Ġdesign ing
Ġdeb ts
ĠAir ways
ĠEm inem
Ġball ads
Ġvir uses
load ed
ĠRos a
ĠLegisl ative
ĠDian e
Ġerup ted
Ġwh ites
ĠN one
ĠAl c
Ġspec ially
isc al
Ġrock y
Ġswe ep
Ġdeliver ing
Ġfirm ly
ĠAbb as
Ġfaith ful
Ġconsol es
ĠArchitect ure
ĠGuerr ero
ĠW itch
os er
ew all
Ġres ume
Ġem issions
Ġdivision al
ĠKh rush
och ond
Ġcorrect ly
ĠSocial ist
ĠExpress way
ĠAub urn
c ul
w y
ĠC rist
ĠW emb
Ġend emic
Ġprof itable
Ġstrik er
ĠFel ix
ĠVoy ager
ĠSinc lair
u cc
ur ai
Ġal umni
op y
ĠK or
ann i
Ġstr anded
Ġgu ilt
ĠTe le
ĠEm b
Ġ46 0
Ġprompt ly
Ġneut ron
Ġsulf ur
v i
ou x
ĠB f
ĠB oot
ĠE ly
Ġob taining
Ġemb assy
ĠPlan ning
ĠKann ada
ĠKhrush chev
l im
r ors
el man
Ġsub pl
atter ing
Ġpress ures
Ġshould ers
ĠGl ad
Ġrit uals
Ġmush rooms
ĠSyrac use
p arts
ĠT yp
ĠM atch
Ġkn ife
Ġtrans mitted
Ġconsult ant
ĠAndre a
Ġmelod ic
Ġpla que
Ġunnecess ary
ĠM off
ab bed
Ġcontin uation
ĠWorld s
ĠAg re
ĠMat ilda
hr er
Ġdepict ions
Ġresid ences
ĠHerzeg ovina
ĠWemb ley
m id
Ġt et
Ġb und
Ġle ased
Ġro pe
Ġab n
Ġad ul
ang a
Ġexp ired
Ġtrans mit
Ġthir teenth
ĠKr usty
ĠChes apeake
Ġt ying
Ġc ure
Ġh ire
am oto
Ġr ats
Ġsurv ives
Ġgrad ual
ĠArt ists
ĠMid way
r aged
in as
is en
Ġl umin
Ġl unar
Ġg ale
ĠE lement
op l
ĠK ind
Ġcomp elling
Ġdisp ersed
Ġlo ans
ĠSix th
ĠRepresent ative
Ġmembr ane
ĠThurs day
Ġfusel age
Ġc ob
Ġd ances
ĠM ath
Ġst iff
ĠV eter
aw i
Ġwhen ever
anc er
ĠSouth west
rick en
Ġ183 5
ĠWy oming
ĠEff ects
ĠBritt any
Ġmerchand ise
Ġuncomm on
F R
t ically
Ġb ord
ĠG em
ist on
ial s
Ġenc irc
Ġenv ision
ĠClass ical
Ã± a
Ġdisappoin ting
Ġquad rup
s ed
at z
ĠD uff
av ier
Ġpl ed
Ġed itors
ĠPer fect
iction ary
Ġpers istent
ĠLi u
Ġb a
ĠT rent
ĠB ren
ĠH oney
Ġcomm ittees
Ġdiffer ently
Ġpath s
ĠGi ro
Ġkingdom s
Ġquant um
Ġdanc er
Ġment or
Ġemotion ally
ĠFight ing
Ġbesie ged
ĠSes ame
j m
Ġf uck
Ġb inary
ĠR aven
ag her
ĠJ ill
Ġr ic
ĠHe p
Ġdet ection
ĠChrist ina
Ġhum orous
bo ats
Ġrev ision
Ġopt ical
Ġpun ct
vest on
v ia
Ġre acted
ĠL Ã¼
Ġle v
aw ak
ĠCom ment
ĠTr acks
Ġdiscover ing
ĠSol id
Ġaccur ately
Ġabst ract
Ġconting ent
Ġcurric ulum
Ġhyph ae
Ġ ã
ĠH ort
ĠP P
ĠE man
ĠOtt omans
Ġshif ts
Ġreserv oir
Ġdepos ited
Ġcoinc ided
ĠVern on
Ġvin yl
ĠLeip zig
in os
rit z
ern s
Ġpo etic
Ġrepl ay
Ġrefer enced
Ġce lebrities
Ġdeterm ining
ĠWat ts
Ġpin ned
Ġconcur rency
Ġbattlecru iser
Ġvamp ire
ĠWander ers
c os
ĠL GB
ĠJ ourney
Ġcomp uls
Ġcl ad
ace y
Ġperiod ic
Ġentire ty
ĠMag gie
Ġmem oirs
Ġdiff ered
Ġbankrupt cy
ĠShan gh
Ġt idal
Ġf a
Ġp unt
ĠB ates
ĠR ide
ĠE S
ab we
ĠK ol
Ġman ual
ĠSh annon
Ġcirc ulated
ĠRand olph
Ġgoaltend er
Ġtob acco
ĠZimb abwe
at um
Ġf itness
ĠL ass
ĠG ilm
ĠG ospel
ĠJ MA
ĠSt ructure
Ġsp iral
ans en
Ġ30 5
Ġcr ushed
Ġhalf way
Ġ179 9
Ġdismiss al
Ġdin osaur
ĠTow ards
Ġt ides
Ġre pt
ĠCh a
Ġdec oration
row ing
Ġexpl oring
Ġintens ification
Ġconstit uted
ĠGal veston
Ġtal ented
ĠBed e
ĠAbd ul
Ġamphib ious
ĠHutch inson
e als
Ġp amph
ĠC A
ir us
em ia
ĠSt yles
ĠBo hem
Ġ183 8
ĠAber de
Ġgamb ling
ĠDecl aration
s ay
ar c
ĠH es
ĠH ook
ĠL ak
Ġfl att
ĠChar ac
Ġmag ist
Ġlo osely
ien cing
Ġmel ting
ĠVen et
ĠProv idence
ĠTasman ia
Ġank le
Ġprolong ed
ĠShangh ai
e ur
en ic
ĠH ale
ĠD up
Ġal igned
Ġsub mission
ĠNW A
Far lane
Ġb ark
ĠH ipper
ĠV iol
ĠHe ights
Ġpop ul
Ġshort s
Ġvis ibility
Ġtre ason
Ġsat ire
ĠClark son
ĠComple x
ĠPhant om
atab ase
ĠSask at
O L
Ġa uxiliary
Ġto y
ĠT uls
ig ion
ĠL ars
Ġqu ot
Ġprop ulsion
aren ts
Ġdiscuss es
Ġmob ility
Ġrebu ild
Ġham pered
Ġprotest ed
Ġerupt ions
Ġfurn iture
Ġcant ata
Ġfru its
Ġtrem end
er man
Ġb ust
st a
Ġun ified
Ġinc umbent
ail able
Ġlong time
Ġins erted
by e
ĠWest on
ĠEx eter
Ġident ifying
Ġinsp ection
ĠTw ilight
Ġunbeat en
b one
d al
Ġw olf
Ġc age
ĠA ston
ĠH ew
ĠR ox
ud er
ug ged
ĠBay ern
Ġ182 9
lam m
Ġlux ury
b led
n ch
in ished
Ġs urn
Ġm aj
ĠA by
el ius
ĠR ut
ch ard
Ġsp erm
Ġsy ll
Ġgr at
ĠRail ways
Ġris ks
Ġbal anced
Ġwa ited
Ġrend ering
Ġspr int
Ġobst acles
Ġecho ed
Ġell ip
ĠH og
ĠAl leg
Ġen roll
ĠWar rior
Ġsol itary
Ġpred ator
ĠSl ayer
Ġlab elled
lo o
ĠMagn us
ĠPitch fork
b ands
iz ards
ĠAugust ine
Ġrank ings
Ġexcept ions
ĠTre vor
ĠBook er
Ġretreat ing
Ġrecru its
Ġcryst als
ĠSchol ars
ĠCharac ters
ac ements
ĠH imm
ĠR ican
Ġint imid
ĠDavid son
ĠPe ak
ĠBre ck
Ġdress ing
ĠWeb b
ĠAnim als
ĠLook ing
Ġinc on
ry s
Ġsent ences
ĠJul ius
enh agen
ĠSomet hing
Ġweigh ing
ĠLGB T
Ġn u
ĠM CC
ĠR ough
Ġpre tend
Ġstr ang
ĠTor ch
ĠParliament ary
ĠSil ent
edd ed
Ġexceed ing
Ġreleg ation
pow der
Ġartif acts
ĠiPh one
c ill
Ġst ricken
ĠV ij
ok en
ĠCar son
ĠPar ish
Ġsurf aced
ston ecraft
Ġspl its
Ġansw ered
ĠCzech osl
Ġverte bra
occ up
ĠWoll stonecraft
Ġs ab
im i
ĠCh am
ĠGe ography
ĠMore no
Ġshr ine
Ġsoph om
ĠUk raine
Ġprecurs or
Ġc aut
ast rous
Ġint ensive
ĠPres byter
Ġfun nel
ĠGl ory
isher s
Ġliber ty
Ġec ology
K O
Ġt ill
Ġf iles
ic z
ĠB rett
ĠG ear
ĠG anes
Ġmin istry
ĠAd van
Ġvis itor
Ġrepl ica
Ġlik ewise
Ġobject ions
ĠMer cy
Ġsett ling
Ġattract ing
ĠVishn u
p ets
on i
Ġp ipe
Ġal ike
Ġprogram mes
Ġ184 2
ĠNot e
Ġ183 1
Ġens ued
Ã³ w
ux e
ĠNaz is
Ġdownload s
Ġlat itude
Ġrum ours
Ġreprodu ction
p ath
Ġt ens
Ġt rench
Ġp aired
ĠP ain
Ġan ten
ĠAmeric as
Ġcontin ually
Ġown s
Ġmar ching
Ġsn ake
Ġvalley s
Ġintention ally
Ġreprodu ctive
Ġinfl ation
Ġunemploy ment
u y
ĠS alford
ĠSt reets
ram ent
Ġexper iencing
Ġfar mer
ĠEmp ress
ograph ies
Ġtra vers
Ġoutf low
cour t
Ġw orm
ĠG entle
if a
ĠK re
ĠK un
Ġend e
Ġgun fire
Ġdeb ates
ĠEx change
Ġsequ els
ĠSl ant
ids hips
ĠNot tingham
Ġhero ic
ĠDev ils
Ġhappen ing
Ġrecre ation
ĠLad ies
ĠChem ical
Ġhaz ard
ĠBatter y
ĠS aid
ĠC hess
et ers
iv orous
ĠO DI
qu is
Ġdis astrous
ĠY uc
Ġdist ress
Ġpat ches
Ġmarket ed
Ġut ility
Ġbelong s
ĠCop enhagen
Ġham mer
Ġspan ning
ĠUndert aker
u ana
ast ically
Ġun av
Ġdis par
Ġcar riage
ĠNorth umberland
ĠApp eals
ĠCa uc
Ġinsc ribed
Ġmoist ure
Ġreconstruct ed
ĠWednes day
Ġm ars
ĠM Ã¡
orm an
ens en
ĠSe v
ph is
n ance
Ġh ast
Ġgrant ing
Ġharm ony
ĠDream s
ĠBomb ay
chw ader
Ġc rick
ly wood
im acy
Ġst ressed
ast ed
Ġsp or
ĠMar ian
Ġwar rior
ink s
Ġeng r
ĠÂ ½
Ġstri ps
Ġinform al
ĠSl am
Ġ184 3
Ġmor ality
ĠProg ress
Ġwrap ped
Ġsubordin ate
ĠAmaz on
e ason
Ġc aves
it ches
Ġl ac
ĠP or
ill ance
ĠCh ron
Ġdec ent
Ġam idships
ĠSp ike
ah u
let te
ĠReg ular
Ġexam ine
Ġ180 1
Ġ48 0
ĠGood man
ĠAndrew s
isf ied
Ġtot als
Ġp atern
ĠJ ed
ib ald
Ġstory t
Ġtown ship
Ġbow lers
Ġacad emy
Ġrob ust
ĠMetall ica
ĠYuc at
us k
ĠP Ã©
ĠN ep
ater al
Ġopp ose
Ġbroad side
agn etic
Ġrow ing
ĠSu ccess
Ġthorough ly
ĠMonth ly
onom ous
Ġconve x
Ġenzym es
R e
f inger
st op
ĠN om
op ot
Ġpl aza
Ġsp iders
Ġun in
ĠUS AF
ĠPh ot
ĠRiver a
Ġren umbering
ĠRob b
Ġder ives
Ġden y
Ġens uring
Ġ41 0
Ġ181 5
Ġreun ion
m ass
t ra
u ce
Ġa unt
ĠT ul
ĠL ines
ĠG M
Ġor phan
ough ts
Ġinst ant
ĠAd vis
ĠId aho
ogen ic
Ġapprec iation
Ġcounteratt ack
ĠC it
ĠB orne
Ġst ellar
Ġde ities
ĠV iv
Ġsc iences
Ġdown stream
Ġide ology
Ġlim iting
Ġmanufact urers
Ġdial ect
Ġfert il
ĠCret aceous
r ath
Ġf rozen
Ġm ates
le ased
Ġab ortion
Ġrem atch
Ġimp acts
Ġturn pike
Ġprot esters
Ġlight ning
Ġheav iest
ĠGal axy
Ġadvis ories
Ġcens orship
Ġisot ope
Ġunrel ated
ĠChall enge
Ġf ring
as is
Ġsu ite
Ġcal ib
Ġfail ures
ĠTest ament
Ġextr as
Ġmist akes
Ġsuspic ion
Ġjack et
Ġprosper ity
ĠPrin z
ĠAgre ement
Ġã Ģ
I N
e a
Ġb og
ĠH ipp
Ġal pha
Ġv est
Ġint imate
Ġind ex
Ġinst antly
Ġident ifies
Ġren ted
Ġreign ing
Ġmic roph
Ġgrav itational
Ġexcav ated
Ġcu is
Ġcourty ard
ad ian
ob il
Ġexpl oded
ĠBar row
ĠComp et
Ġindic ation
Ġcoin age
Ġir rit
ĠAI F
ĠWinn ipe
ĠIsab ella
st age
ĠC age
Ġn atives
ge on
Ġinc ap
Ġar ches
Ġair play
Ġph arm
au kee
idd ing
ĠWil f
Ġescort ing
ĠTs ar
ĠGeorget own
b ons
c het
Ġo mitted
Ġin herent
ĠJ ab
ib an
Ġdisc arded
Ġcare ful
Ġequ ality
ĠChar ter
ĠOff ensive
Ġbur den
Ġcoin ed
ĠMiddle ton
Ġcryst all
ĠEconom y
Ġchore ography
Ġconcurrent ly
Ġaqu atic
ĠObserv atory
i ago
en za
Ġh oly
ĠT aft
ĠB ie
ĠL ik
Ġsh oes
ĠSt ro
ĠCl aren
Ġinf ect
erv ing
Ġfood s
Ġconstruct ing
ĠLeg al
Ġteach ings
sk irts
Ġmarg inal
Ġh ab
ĠL ance
ĠN ES
ag ements
ip ed
Ġsp ider
Ġstrong hold
Ġgl am
Ġcult ivated
Ġball oon
ĠIm ag
Ġraid ing
Ġtall est
Ġoverlook ing
Ġeleph ant
ĠDart mouth
Ġd w
ĠH abs
Ġep onymous
Ġind ef
ĠNo el
ĠPol icy
Ġhost ilities
Ġmission aries
Ġreject ion
Ġtrust ees
Ġretrie ve
ĠCai ro
ĠT ues
ĠC unning
ot ted
um er
Ġsu cc
Ġcomp ass
Ġro lled
ĠY osh
Ġind ie
Ġgr ades
ĠWar ning
Ġph on
ĠAc ross
Ġinters ecting
ĠNik ol
ĠIb n
ĠVlad imir
Ġfir ms
g ren
at os
Ġb io
ĠA ch
ĠB rom
ĠE gg
Ġwe aker
Ġgovern ors
Ġconst ellation
Ġsl aughter
ĠAg ent
ĠFin anc
ĠLet ter
ĠLoc ke
ĠNic ole
Ġsuperv isor
ĠCov enant
Ġcraf ts
Ġgran ite
u f
Ġc ents
it he
ĠS ap
Ġst atic
Ġout skirts
ĠY ar
Ġcomm ence
Ġrel ate
ĠCom merce
gin a
Ġorgan izing
Ġbas al
Ġenjoy able
ĠLev ine
Ġassum ing
f ight
id ays
Ġbe et
ĠK ant
ĠTh ing
Ġexp end
ĠPl atinum
Ġcor rel
Ġcritic izing
ev iÄĩ
Ġcinem atic
Ġbrut al
Ġinex per
Ġd itch
ĠB aja
ĠD ow
ĠW orth
Ġj umped
ĠCl ose
Ġmark ings
Ġappe als
gr at
Ġlik ened
Ġpract ition
Ġpers ecution
Ġ180 9
Ġ179 4
ĠPrepar ations
ĠWinnipe g
or row
Ġh Pa
ĠS ons
us a
Ġcl ips
ĠSe venth
ik ing
Ġ23 5
Ġprob able
ĠTown s
Ġmodel ed
O W
l if
ac ious
ĠP hel
Ġex otic
ĠV amp
ĠRe bell
Ġmen u
Ġord in
Ġcoll ided
Ġquestion ing
Ġsuperior ity
ĠDiv isions
ĠFact ory
ĠLeaf s
Ġc roc
ĠE instein
ĠSt anton
urn al
Ġgr aves
Ġref urb
ĠHer oes
ĠMad ras
Ġstrateg ies
ĠMatthew s
ĠRand all
ĠComb ined
Ġmetall ic
ĠKem p
ro vers
ĠD enn
ĠG aming
Ġres isted
Ġsl ide
ĠNe gro
Ġoccur rence
ĠMaria h
Ġbot tle
ĠRO K
b ot
Ġf iscal
ĠT ip
ĠA us
ĠF resh
op r
Ġup stream
ĠChrist ine
Ġtemper ate
Ġ179 8
Ġresemb led
ĠAlexand ra
ĠMem phis
Ġcock pit
ĠAltern ative
Ġrepet itive
Ġcylind rical
ĠAdvan ced
Ġp ad
ĠM ell
Ġst ained
ĠR otten
ĠL yr
Ġun ions
Ġteam ed
Ġind oor
ific ent
Ġpol es
Ġeng agements
ĠMon ten
Ġnovel ist
Ġimm inent
ĠMic key
ĠPop M
Ġw age
ĠS ut
ĠM ant
ĠE cc
up e
Ġsh y
ast ing
Ġsp ray
rit ion
Ġver dict
ĠPar agu
Ġaccess ion
Ġec ological
Ġintegr ity
ĠCow boy
Ġaudition ed
ĠAgricult ure
G A
f le
k ar
u um
al ley
ĠS K
el o
ĠM oss
ĠP ret
ĠK ee
ĠGerman ic
Ġappe aling
Ġbar ometric
Ġtow ed
Ġasp ir
ĠField s
Ġ85 0
Ġb ind
ĠS ource
st idia
ĠR um
ĠL uz
ĠG ott
ĠJ ump
ĠMar ion
Ġam alg
Ġfin anced
ĠBro ken
ĠBar ack
Ġburn t
Ġansw ers
Ġastron aut
ĠHass ett
ĠIllust rated
ĠHabs burg
g ency
Ġt in
it ement
Ġp ose
ĠP ole
ĠD ol
ĠW ords
ĠL akers
Ġatt itudes
ris e
Ġinf lict
ĠPl ain
Ġdiss olution
ĠWork ers
Ġsac rific
Ġmemorial s
ĠCornwall is
Ġdreadn oughts
Ġfacil itate
Ġgreet ed
ĠFranÃ§ ois
R NA
ur u
id able
ĠH ack
Ġamb ush
Ġ38 0
Ġineff ective
Ġpian ist
Ġs ap
Ġ20 3
ĠEurope ans
udd y
Ġsurpris ing
ĠGib bs
ĠMaur it
Ġkidn apped
ocol ate
u ins
Ġc odes
Ġb ast
Ġp uzzle
ĠCh o
ann ers
Ġinf lamm
Ġdist ract
umb led
ĠRev ival
Ġsle nder
Ġyield ed
Ġdigit ally
ĠBism arck
or ers
an ic
ic ol
ĠL oyal
ĠÂ ²
Ġpersonal ities
Ġemerg ence
ĠMort al
Ġforb idden
ĠVerm ont
Ġpreval ent
Ġdestruct ive
ĠMonten e
ĠB il
ĠP emb
Ġle ak
ond heim
Ġrep uls
Ġins ight
ĠÂ ±
ĠAm ster
ĠEl vis
Ġtechn ically
ĠBat ista
Ġsomew here
Ġcong reg
Ġsuperv ised
ĠCas ino
Ġupd ate
Ġanth ology
Ġpeas ants
ĠClaren ce
es h
an ol
ĠHar ald
Ġunc overed
ĠMcC le
ĠRock ets
Ġpot assium
Ġviol ated
ĠEr in
Ġsevent y
Ġexpress es
Ġmuseum s
Ġinnov ation
ĠLangu age
g i
ĠT ouch
et ed
Ġst alled
ver n
ĠL anding
Ġout n
Ġver b
ĠRe bec
Ġtheat res
ĠShep herd
Ġmetab ol
n ie
w aukee
Ġp its
Ġd ed
ĠB reat
ĠF ast
Ġex iled
Ġpl asma
Ġcor al
Ġvill ains
Ġsex es
Ġdomin ate
Ġnob ody
Ġfrust ration
ĠEmer gency
ĠHep burn
Ġp ond
ĠM W
Ġad olesc
Ġne uro
Ġaut o
Ġ181 9
ĠAlb ania
Ġintercept ion
sole te
ĠLam bert
Ġtrunk line
Ġprinc ess
Ġcamoufl age
d ed
ĠT orn
Ġare n
Ġass erts
Ġstr ained
ĠEurop a
ĠCal iph
ĠNe ville
Ġintens ify
Ġbene ficial
Ġwebs ites
Ġcool ing
Ġcoordin ated
Ġaffili ate
Ġmini ature
ĠWals h
D H
p us
er en
Ġb anner
ĠC ord
am orph
ĠV ett
ign e
Ġunder going
Ġgun nery
Ġaff ects
Ġtre asure
Ġmother s
Ġunc omfort
Ġill umin
Ġ181 4
ĠBry ant
Ġcomplic ations
Ġmillimet ers
Ġunexpected ly
Ġspokes man
ĠB ram
ĠO z
Ġdis hes
oin ing
ob s
Ġvis ually
Ġpost season
ĠMart y
ĠGreen land
Ġdefend ant
ĠBon o
ĠRest oration
ĠFace book
Ã© r
Ġaut onomy
aun ch
Ġdisp osal
gl ades
Ġunf inished
ester ly
ĠBark er
Ġconsul ted
er ie
Ġb oring
ĠB ols
ol ar
Ġcl ients
Ġout post
ĠOn o
Ġadm iral
Ġfle eing
ĠGro ves
Ġviol in
Ġden ounced
Ġtext ure
Ġcert ification
Ġenvision ed
ĠAberde en
ar f
ĠS F
Ġst ems
Ġgroup ed
ax ies
ĠIs m
ĠMan it
Ġcommission er
ĠOld ham
Ġ179 3
Ġproblem atic
ĠShir ley
u er
ĠT able
Ġn ave
ad vant
ĠE ston
ĠV ent
Ġunder way
Ġexp ecting
Ġelect rom
ĠThom son
ĠGold man
ĠEver glades
Ġobsc ure
Ġecclesi astical
ĠCunning ham
ĠAmster dam
c over
Ġf ool
ĠT aunton
ĠR ao
ĠD im
Ġpre jud
Ġsix teenth
sh ine
Ġlight ly
Ġvirt ue
ĠCart man
Ġculmin ating
ĠBott om
Ġpsyched elic
R I
i Ã³n
Ġre work
ĠA ce
ĠR ib
Ġse ab
ip se
ĠSc outs
ĠCon versely
Ġdep ressed
Ġcontrib utor
Ġsusp ects
ĠFar mer
Ġcart oons
agu ar
Ġchrom os
p rin
ul ance
ĠK any
Ġâ Ĩ
Ġover c
Ġoff s
Ġmus k
ĠMur d
Ġexplos ives
ĠPeg gy
v as
Ġv iable
ong s
Ġcent red
Ġback s
ij uana
Ġattract ions
ĠLand mark
Ġshif ting
Ġoxid ation
Ġ ~
Ġr h
Ġtr im
Ġprov oked
Ġposs ibilities
Ġcult iv
Ġsym ph
Ġdead ly
Ġ181 0
ĠProdu cer
Ġtarget ing
ĠEvery thing
Ã° r
ĠEls ewhere
d ays
h im
ĠF ol
ĠF rost
ĠN uclear
est e
ĠO kin
Ġv ector
Ġmus c
ĠCol ony
ger ald
Ġacqu iring
ĠCongress ional
ĠRod gers
ĠBosn ian
ĠFitz gerald
ĠNig el
ĠV HS
Ġfl uct
ĠPl ans
Ġmid st
ĠLu x
ĠBu ild
ĠWal ton
Ġdoub ts
ĠRel igion
ĠGill ian
Ġdeliber ate
hard t
Ġenerget ic
Ġt am
Ġb ail
Ġh ij
Ġl ocks
ĠU P
Ġchar m
Ġmon k
ĠBr uss
Ġob solete
Ġdisplay ing
ĠNap les
ĠTun is
Ġspar row
b ard
Ġd rought
ĠG ob
Ġinter changes
ĠLe h
Ġjust ified
Ġhun ter
lyn n
Ġtu ber
ĠAchie vement
ĠMoff at
v ana
ter a
Ġal gor
ĠN HC
ĠE g
Ġwhe at
omb at
Ġ22 5
Ġdemonst rations
Ġplanet ary
Ġupgr ades
ĠSurviv or
ĠHimm ler
ĠRebec ca
ĠBols he
v als
Ġt ips
ĠH itch
ĠP ond
Ġr all
ist ice
ap y
ber n
Ġsu ck
Ġinc ent
og le
Ġbus h
ĠKey nes
Ġconsc ience
ĠGene va
ĠStri ke
Ġparas ites
ĠMarl borough
Ġfing ers
p ole
Ġthe ology
Ġc ivic
il iation
ĠI B
ĠP ione
ĠR ita
ĠL ocated
ĠE bert
ĠIn form
Ġdis organ
Ġchar itable
Ġback wards
ah an
Ġground ed
ĠMed ieval
ĠGod win
ĠFort ress
ĠMot ors
ĠBrun o
k ill
Ġs odium
ĠT aking
om o
ĠB uc
ĠI OC
iv ities
oc o
Ġup held
vers ion
Ġobs erver
ett i
Ġsurround ings
Ġamb ition
Ġ177 5
ĠLind say
ĠRel ief
Ġelimin ating
ĠDick inson
ĠErn st
Ġanticip ation
Ġflex ible
Ġconstr aints
ĠFinanc ial
ant i
ang o
Ġfe as
Ġcost ly
ĠInst r
Ġcorrespond ent
c ats
Ġw and
Ġref use
Ġprot agonists
af ts
ĠHigh land
ĠSup port
Ġindivid ually
Ġcust omer
Ġagg ression
Ġrob ot
Ġimpl ied
Ġdischar ged
Ġmerc ury
elest ial
r ice
v ara
ĠM old
ĠM ales
ĠB rest
Ġen act
ĠCl imate
ĠPer iod
ĠOl ivier
ĠMat hem
ĠDet ective
Ġcolumn ist
Ġadvis or
Ġsurge on
ĠSalv ador
ĠTud or
at ile
Ġp iv
ĠC asc
ĠM oses
ĠB rent
ag ogue
ass ment
Ġdis advant
ĠAn s
ĠMar se
ĠSh oot
ĠSh arp
ĠBr aves
Ġgovernment al
Ġcapt ains
ĠEv olution
ĠNot re
ĠAcad emic
Ġ179 2
ĠSar awak
Ġdefend ants
Ġspons or
Ġsight ed
Ġalter ations
Ġol ive
ĠGlac ier
tym ology
ĠS ounds
ĠC ensus
ĠL one
ĠK w
ĠSt am
ke f
ism atic
ĠEd g
ĠCan ning
Ġaddition ally
ĠWil kinson
Ġconcept ion
Ġplant ation
Ġpun ish
ĠJenn y
ĠNob le
Ġcontinu ity
Ġreward ed
Ġredes igned
ĠFern ando
ĠPresbyter ian
ĠBruss els
M C
r ust
Ġm aid
ĠC ertain
ĠM ets
ĠP od
pp e
ok a
ile m
Ġout line
ĠZ ach
Ġanim ators
ĠMil waukee
Ġpan ic
Ġprogress es
ĠLiter ature
Ġmit ochond
Ġtribut ary
ĠGust av
Ġreper to
ĠÎ¼ m
Ġb ite
ĠThe od
ut z
Ġst aging
ag ua
up er
Ġun m
Ġnumber ing
Ġfound ers
ĠPh ase
ĠEver ett
ĠHon ours
ĠRome o
Ġclim bs
Ġexcav ations
Ġsus cept
ĠBorne o
ĠPopM atters
m al
Ġd ried
Ġh ood
ĠC umberland
ĠB elf
ĠI TV
ag ram
ag asy
ost ic
Ġsub du
Ġ15 00
Ġcr ater
Ġtw ist
Ġke eper
ĠHigh lands
Ġtouch ing
Ġinterpret ations
Ġprofession als
L L
Ġd rif
ĠM ih
ĠB ax
ĠI A
ut ies
ĠIn stitution
ak ov
Ġdec ree
ins ki
Ġage nda
ĠAct s
bor g
Ġi OS
Ġsevent eenth
ĠWild e
Ġastron omers
Ġrot ating
acc ur
ĠAmb assador
bu ilding
ĠB S
Ġar che
app ers
iment al
ĠAle c
Ġve in
ĠSant iago
c are
ĠR onnie
Ġsu its
Ġun changed
Ġfe eds
Ġinf ra
Ġarch ipelago
Ġdev otion
C ube
d o
Ġc um
Ġl uc
ĠH our
ĠW enger
up s
Ġeight y
onst ruction
Ġcann ons
Ġvac ation
Ġfulf ill
ĠJohann es
ĠMunicip al
Ġm our
Ġm asters
ĠThe me
id y
ĠL ip
Ġch ords
Ġmod ification
Ġcou ples
bour g
Ġemb edded
ĠAlb anian
ĠMalays ian
Ġlad der
Ġinterven e
ĠSoft ware
Ġsophom ore
f ielder
u ber
Ġc ites
ĠE rik
ill as
Ġpl ains
Ġrel ates
ĠWe in
ĠX en
Ġow ed
Ġdiver ted
Ġrehears al
ĠPay ne
ĠChop ra
ĠShank ar
n ar
Ġc ope
Ġin accur
ĠC F
ĠM orm
ir ie
ĠH ir
Ġas ylum
ĠO uter
art et
und a
Ġcont amin
Ġup t
Ġpe er
ĠCl iff
Ġfact o
sp e
Ġpsych ology
ĠChap lin
Ġgal axies
Ġninet een
Ġrede velopment
haw k
Ġprest ige
auc r
ĠClif ton
Ġgram mar
Ġhab its
Ġt iger
ĠI st
Ġsome body
ĠBl anc
ĠAll ison
Ġhel met
Ġwall ed
ĠSecond ary
Ġ182 5
ĠFre eman
Ġtom bs
Ġsan ction
ĠIran ian
ĠFil ip
ĠHi ros
Ġironcl ad
ĠRegard ing
Ġcorp se
ĠRebell ion
ĠL ana
ĠMin aj
Ġstation ary
Ġwid ened
Ġscript ed
Ġcatch ing
ici ary
Ġsymp athy
Ġsupple mented
Ġhomosexual ity
ĠParalymp ics
Ġbicy cle
h oe
m m
Ġd irt
Ġh orm
ul i
Ġapp lying
ĠY o
ĠWh ig
Ġem blem
ĠDav en
reg or
ĠSol o
ĠTim othy
Ġresist ant
ĠSav oy
ĠEst ab
ĠBeaut y
ĠNass er
ĠCrom well
w yn
Ġe ch
ĠP omp
ĠD ang
Ġcon grat
ag ged
Ġcom edic
ĠMar co
Ġmin erals
Ġfin ed
app ropri
Ġpick s
Ġir r
Ġfix ture
Ġdisagre ement
ĠLegisl ature
ĠContin uing
Ġmim ic
ĠAzerbai jan
k ind
nd on
Ġp all
il ib
ĠH uff
ist ani
ĠU g
Ġmer it
ĠMcC oy
que z
Ġcriminal s
ĠPak istani
ĠMaj esty
ĠCamb odia
Ġbapt ism
ĠAby ss
Ġd uel
Ġl ighthouse
ĠB iden
ĠH ert
ĠK au
Ġ20 6
Ġdis orders
ep ers
Ġair ports
Ġwar ming
Ġrest ing
Ġ180 4
Ġhun ted
Ġ178 9
Ġble w
ĠRele ased
Ġconsult ing
Ġobv iously
ĠLion el
ĠS P
ĠI rene
iz arre
Ġne o
fore st
Ġhit ter
Ġredu ces
Ġ179 5
Ġ182 4
Ġmunicip alities
ĠiP ad
Ġredesign ated
ĠFow ler
Ä «
Ġm ould
le en
ĠC H
ĠM itch
ĠR az
Ġr iff
Ġmat rix
ps il
ĠCour se
Ġneg atively
ĠGo ing
Ġstrike outs
Ġru in
Ġalleg iance
ar ius
Ġn mi
ir ling
ĠP ill
Ġal arm
Ġcl ade
ĠBar r
Ġmind ed
igr ant
enz ie
Ġrehabil itation
in itely
ed o
ĠT otten
Ġl ent
ĠC ust
ĠB enson
ĠR ings
ĠW hed
ab y
ĠY uk
ob e
Ġdem ise
ĠAm bro
ĠRec ent
ĠMal agasy
Ġmission ary
Ġkick off
Ġbreat h
Ġglac iers
Ġscr ut
ĠBrid g
ĠDors et
Ġc ree
ĠM A
ut nant
Ġtr unc
Ġdem ons
Ġbas ically
Ġdev ot
ĠCoast al
ez vous
Ġtrend s
Ġphenomen a
ĠClay ton
Ġoblig ed
ĠCase y
ĠRever end
Ġin und
Ġh airs
Ġl aser
ĠB P
ong o
ĠAn alysis
ĠEx c
Ġcelebr ating
Ġ182 1
Ġsatisf ying
Ġexagger ated
ĠMacD onald
ĠS ale
ĠK ombat
Ġlast s
Ġdam s
na i
pris es
ĠHel ena
Ġhun ters
Ġundert ake
ĠLet ters
ĠBuff y
ĠPhys ical
Ġinherit ance
Ġm aiden
Ġre int
ĠK et
Ġsp ells
Ġen forced
its u
Ġtechn ological
Ġinvest ments
Ġemploy er
ĠTown send
Ġ183 3
anth rop
Ġprol ific
ĠColomb ia
ĠSaff ir
u j
at ro
Ġwh olly
ĠIn ch
Ġtr agic
Ġsup reme
ĠSh op
ins ky
ĠHer c
Ġdepart ing
Ġsen ators
ĠSand ers
Ġtal ents
Ġmamm al
Ġmand atory
Ġretros pective
Ġcasem ates
Ġtremend ous
g iving
he ed
ar is
le igh
ĠS ally
ĠS earch
il ated
Ġg lee
ĠI P
ĠJ ol
Ġout rage
Ġso ils
Ġrel inqu
ĠCom ing
Ġins ert
Ġ21 5
Ġstat istical
Ġcampaign ing
ĠHung arians
Ġspect ral
ĠWolver ines
Ġreperto ire
ĠT S
ip le
ĠAr row
hes is
ĠZ ack
Ġpar an
ĠGeor ges
Ġtreat ments
Ġphot ographed
Ġmind s
Ġtru ce
ĠTitan ic
Ġbutter fly
ĠWilm ington
Ġsurve illance
ĠCly de
t or
al ie
Ġn ude
ĠR ash
ĠG C
ĠE cho
ĠK ell
Ġlater al
ĠGr aves
Ġexpl ores
ĠGro ening
Ġrelig ions
Ġ179 7
sw orth
Ġfolk lore
Ġcompens ate
ĠEuras ian
ĠâĨ Ĵ
b ral
t ures
Ġp ec
Ġh aven
ĠThe mes
ig ue
ch ron
Ġat om
ĠJ ut
ber ht
ĠK ip
Ġret ains
Ġed it
ĠBro oke
Ġconclud e
Ġ180 5
Ġ180 6
ĠWrit er
Ġ178 0
Ġathlet ics
ĠGriff ith
Ġuncomfort able
it ivity
Ġl uck
Ġhe aling
ĠAr gy
ĠPro per
Ġequ ation
Ġappoint ments
anth a
Ġexplo it
ĠPic ard
Ġthe sis
at l
id as
ĠR ac
ĠR anch
pt ical
pl ant
Ġdes k
Ġday light
Ġsing ular
ik ini
ĠDe e
Ġsl am
Ġnight cl
Ġang ered
Ġess ays
Ġdefin itive
ĠVick ers
Ġunanim ously
Ġweld ing
en b
es ome
ĠA e
ĠP D
ĠR ising
ĠPr ague
Ġshort ages
Ġcor rupt
Ġcommun ists
Ġmax im
quar tered
Ġsear ched
Ġbure aucr
ĠTues day
ĠMaurit ius
ĠM are
iv o
ĠH ole
ĠW ord
ind a
ĠAr r
Ġme al
Ġfl ames
ĠCon an
Ġins ign
Ġvol ley
Ġhy mn
Ã¼ hrer
Ġrac ism
Ġsculpt or
ĠAh mad
Ġanx iety
ĠMoz amb
Ġs a
Ġh iring
ĠS ang
Ġl ig
Ġg onna
Ġst ir
th y
ra ul
ĠSh ock
ĠGl aston
ĠMon key
het amine
ĠKn own
Ġaim ing
Ġconfirm ation
Ġsher iff
Ġcroc od
ĠDaven port
st aff
ĠC yn
Ġcon gestion
Ġle isure
ĠCh amp
Ġbu ck
ph abet
Ġem ission
Ġrest oring
Ġcomment ator
uff ed
ĠPat terson
Ġmaster piece
Ġdecor ations
Ġfold ed
ĠTerr or
Re illy
ĠT ate
Ġg low
Ġg raz
ĠH ogan
ĠP ist
Ġtrad ers
Ġboard ed
Ġfinanc ing
ĠEr lew
Ġbank ing
Ġvolunte ered
Ġeval uation
ĠEug en
Ġdisappear ance
ĠErlew ine
om ac
ĠB elt
ĠH BO
Ġst ole
ĠW S
ĠF ew
ew ood
ĠPr att
Ġdiffer ing
Ġview ership
Ġemploy ing
Ġbreak away
ĠMac don
ĠBet a
Ġpick ing
ĠWhe el
Ġlegend s
ĠStevens on
Ġconven ed
Ġelong ated
w alk
Ġmon itors
ĠFl otilla
Ġbar rage
Ġz oo
Ġfort unes
Ġraid ed
ĠCharl eston
ĠHan over
ĠNad u
ĠAlam os
Ġw avel
Ġg ill
Ġse ap
Ġex its
Ġcontend er
ĠGlaston bury
p ers
Ġ ^
ĠS T
st en
oc ative
ek s
ĠPl uto
Ġbre w
Ġvarious ly
Ġcommission ing
ĠCont rovers
Ġcat astrop
ĠStep han
Ġang ular
ĠCatholic ism
ĠKyl ie
h arm
l und
o os
in ers
as urer
ic ious
ĠW augh
Ġen velop
ll a
yl on
Ġprem ises
Ġaltern ating
ĠPot omac
Ġwars hip
ĠHond uras
ĠSuff olk
ĠC rew
ĠM az
ĠB onnie
ĠD ru
ĠN ell
and ra
unk ers
if iers
ubl ished
ĠBo one
ĠMal vern
Ġtreat ing
Ġproduct ive
ĠArm oured
Ġdecre asing
Ġmist ress
Ġingred ients
ĠBreck in
Ġ ions
ĠH orses
Ġgro ove
Ġesc aping
Ġimm ort
ĠAnt io
ĠColon ial
ĠExt ra
Ġmal aria
Ġkilog ram
r ÃŃ
im ated
ĠI gn
ĠK atherine
ĠCh ak
Ġinter fer
Ġdec ks
Ġinv ade
Ġgrad uates
ĠCr iminal
Ġcriticism s
ĠNick el
Ġautom obile
ĠBol lywood
Ġaccomplish ments
ĠKany e
Ġwavel ength
b ank
in ch
at aka
ar ios
ĠS EC
Ġe man
ok i
ĠAr j
ob ic
Ġten or
Ġmot iv
Ġsex y
Ġcommercial s
Ġ300 0
Ġastron omical
Ġtack les
ĠLen in
Ġunanim ous
ĠRodrig uez
ĠM is
ĠB A
ĠP oul
ath am
any a
ĠCar m
field s
ĠBlack s
ĠSal am
Ġpal m
Ġrehears als
ĠNass au
ĠSche er
Ġware house
y ards
ĠL ob
Ġpl enty
ĠU tt
ov al
ĠAl ger
Ġout right
ph al
Ġpop e
Ġref ined
ĠGu in
ĠAm ber
ĠPres ent
ĠSan ct
ĠInter active
Ġge ographic
Ġimprov ised
Ġo urs
ĠT oul
Ġg ymn
ĠG oes
Ġtr ait
ĠCar ne
Ġcomb ines
Ġpeak s
Ġbad ge
Ġpip eline
m ir
Ġo val
Ġd well
Ġst int
Ġadm it
Ġeth anol
ĠHy der
Ġglob e
ĠCart oon
ĠCre ation
ĠJar rett
ĠNi agara
Ġdup lic
ĠP os
ĠF ritz
ĠL if
ri o
ard i
Ġover head
ĠBr ady
Ġany way
ĠBy r
Ġdest inations
ĠCal d
Ġcult ivation
ĠPer haps
Ġsal mon
ĠRain bow
ĠTal bot
ĠInn oc
Ġoverlook ed
ĠSoph ia
eli hood
ĠWess ex
Ġundef eated
ĠVett el
C onn
k an
r and
or an
Ġl ing
Ġn ic
Ġg lands
ĠR i
th on
ĠY es
ĠRe vel
Ġexp ans
ĠSc ream
ĠMcC l
ĠTom atoes
ĠFle m
Ġprec isely
ĠEp stein
Ġcatch y
Ġturb ine
ĠRook ie
ĠPhel ps
U P
am bo
ĠE k
ĠIn ner
ab i
Ġsc rew
Ġfl anks
ĠCol ts
enn es
Ġdev il
ĠLaw s
t ail
es is
ĠC ull
Ġj un
Ġste amer
ĠQu ater
Ġ34 0
ĠAv atar
Ġcouncil s
ĠHun ters
Ġconvin ces
ĠPhill ip
Ġnom inal
ĠParalymp ic
Ġchlor ide
Ġsty led
ĠW igan
ill ion
ĠUn cle
Ġcar c
Ġdet ention
Ġcompet itor
Ġ27 5
ĠMon k
ĠMy s
Ġbomb ed
ĠMill ion
Ġ183 4
Ġremix ed
ĠDest roy
Ġscr atch
haw ks
Ġdim ension
g il
Ê »
on ne
ro be
ĠC oin
ĠP oor
ver age
ĠR esc
ĠD ix
ĠSt ones
Ġapp ar
Ġend ured
ox ide
ves ter
ĠCal ais
ĠPol es
ĠÃ ĵ
ĠBen ch
Ġairfield s
Ġoverth row
Ġremaster ed
ĠOsw ald
Ġcuis ine
ĠLyr ically
ĠManit oba
ĠC over
us ement
ĠR umble
Ġr amps
ĠK art
Ġ29 0
Ġexc itement
Ġprem ature
Ġyour self
Ġfur ious
Ġboot s
ĠVaugh an
Ġfor aging
ĠE state
ian ces
ĠEn s
ident ified
aj i
Ġmon etary
Ġinf ring
Ġinf ections
ĠGr im
Ġcoll ar
Ġconsum ers
Ġoverwhel med
ĠSac rament
ĠInvest igation
ĠOkin awa
ĠMacdon ald
ĠQuater mass
Ġc ass
om al
ĠR as
Ġun se
Ġfin ishes
ĠPr act
Ġlet ting
Ġcomplex es
Ġreason ing
Ġlog ic
ĠGi ov
ĠBor is
ĠBed ford
Ġump ire
R L
s son
it ism
Ġb ent
th ms
pl us
ron es
ĠRe formation
ĠAb ove
Ġ61 0
Ġrend ezvous
Ġmant le
Ġrevel ation
Ġvertebra e
m ere
Ġt iles
Ġf ence
Ġy e
oy ne
Ġpres eason
Ġdep osed
ĠRes erv
ĠGar rett
Ġfresh water
ĠCrow ley
ĠAmbro se
ĠF oss
ap arte
ĠU se
ric s
Ġblood y
ĠEver ton
Ġveget ables
Ġphr ases
ĠRoc kef
Ġrig id
Ġmorph ology
ĠUk rain
ĠMult iple
Ġcompat ible
ĠLik ewise
b uck
v ie
ut a
ĠF av
ĠF ry
ĠIs s
ĠHam let
ourn als
Ġamb itions
Ġtiss ues
ĠExper ience
Ġinterf ere
ĠYucat Ã¡n
opr ano
ĠAntio ch
p end
w aters
ĠT z
ec uted
ĠB ly
Ġal ign
Ġr het
ich o
ĠV ed
ĠV ander
Ġkn ights
ik ovsky
Ġcar b
ĠMcC ay
Ġpreced ent
Ġprosp ects
Ġlad ies
b eck
Ġl ions
el ope
ig ma
ĠN ina
ĠCh ange
ĠTh ur
Ġag round
Ġover run
Ġshow case
Ġrest art
ĠMan ila
ĠCanad ians
Ġsepar ating
ĠBer ger
Ġlif elong
ĠMir anda
ĠCirc us
Ġvolcan oes
Ġchemical s
Ġpron unciation
Ġderiv ative
ĠPix ar
Ġcrick eter
o j
o it
Ġd atabase
le af
Ġn oun
Ġshe er
Ġbro w
Ġdet ained
Ġprop elled
ĠChar ity
Ġpress ing
ĠRep orter
Ġ182 8
ĠRem ember
ĠRey es
ĠHem isphere
ĠRat ings
ĠAnat omy
Ġautobi ographical
ly ss
ĠI w
ĠR ag
ĠL Ã©
ĠCh ip
Ġover ly
Ġinter vals
ft ime
ĠCom et
ĠRe x
Ġadminist rator
ĠMa o
Ġagg ress
Ġillust ration
Ġign or
ĠHere ford
ĠBuddh ism
ilib rium
ĠTotten ham
Ġ ãĥ
ĠT il
ĠC ory
ĠR anger
ĠD irection
ĠG ul
ĠAs hes
Ġbel ly
Ġhead quartered
Ġrest ed
Ġbar ons
Ġbar rels
iec es
ĠMil ky
Ġcat alogue
ĠSum mit
Ġhero ine
ĠPo et
Ġimpl ies
Ġstret ching
Ġdecor ative
Ġunre leased
abul ary
N S
N T
Ġc ripp
ĠA in
ĠC ope
ĠB ene
Ġch ased
Ġgu idelines
Ġlist ened
af i
Ġspok esp
Ġmo ons
Ġfisher men
Ġpip es
ĠKarn ataka
Ġreprin ted
Ġsurn ame
n otes
Ġp istol
ĠS abb
ĠP t
ĠR KO
ce ans
ĠV ision
Ġj umps
Ġcons ume
ath a
ĠBe ech
ĠPr ide
Ġtotal ing
ĠNort heast
ĠCarl isle
Ġess ence
Ġexerc ised
ĠRow land
Ġreluct antly
ĠTob y
Ġassum ption
Ġinver te
Ġchim ney
Ġstoryt elling
r ud
er un
Ġb urg
ĠC otton
ol son
ĠH ag
Ġbe es
ĠF erm
ĠN g
Ġcomp ares
ĠMar ina
Ġchar ging
ern er
Ġcur tain
ĠHer man
Ġfif teenth
Ġhost age
Ġhear ings
ĠEdd y
ĠKub rick
Ġlibr aries
Conn or
g io
r ane
Ġin appropri
st ones
am ily
ig rate
Ġst re
ĠK iller
ĠRe qu
ĠBrit ten
Ġ181 6
Ġfear ing
Ġteen agers
Ġplate au
ĠPriv y
ĠKer ry
Ġjew el
ĠWhed on
ĠMozamb ique
W A
Ġthe ft
Ġw rought
ĠT ah
Ġbe ef
ĠF lynn
ĠN et
Ġpro st
Ġex ported
Ġinter mitt
aw k
af ia
Ġvill agers
ĠHol iday
Ġneg lected
Ġclear ance
Ġtraff icking
ĠTw elve
Ġconver ting
ĠIndivid ual
ĠA ccess
ĠR ory
ĠW ine
ĠO K
ook s
lect ric
ĠAt omic
ĠBy ron
Ġassist ing
ĠEv a
Ġtur tle
Ġge ological
Ġexec ute
Ġchor al
ĠRun ning
Ġmasc ul
Ġtribut aries
ĠVul can
Ġconfisc ated
ĠBreckin ridge
or um
ĠH ib
ĠG le
Ġse als
Ġk in
Ġstand ings
ĠMy ers
Ġemploy s
Ġche ese
ĠApp eal
Ġrequest ing
Ġ179 6
Ġhyd raul
ĠLy on
Ġ74 7
Ġconsp ic
ĠConserv atives
Ne ill
nae us
Ġ ul
Ġd irty
ĠB ound
ĠL ark
ĠN ike
ĠTh ous
Ġmid fielder
ĠEl iot
ĠPet erson
Ġdepth s
Ġspin ning
ĠSpart a
Ġincred ible
ĠMoroc co
Ġa irst
Ġb ike
le z
ĠC B
ĠM aking
Ġst amp
her ical
ov ar
ĠMe gan
Ġadm ir
ĠSy nd
Ġdi ocese
ĠStr at
ĠStr ange
Ġmathem atic
Ġdrag ged
ĠNord ic
ĠFact or
ĠBuch anan
ĠBri ar
ĠExam ples
Ġw is
Ġp uls
el ly
ĠD res
ĠF ig
ĠL ing
ĠU rug
Ġnot orious
ĠRe venge
Ġmus ically
ĠSc r
Ġpost ers
Ġmeasure ment
Ġrenov ated
ĠSpart an
rang ed
ĠBelf ast
Ġb izarre
ĠT ry
ĠS I
st reet
ĠM uss
ĠB acon
Ġar ise
lud es
Ġconc ession
ĠOr ion
rict ion
Ġcy t
ĠPe pper
Ġrow ed
Ġwreck ed
Ġtoler ance
Ġsect ors
Ġseiz ure
ĠRockef eller
ent on
un al
ĠR ous
ew ater
ĠMin h
Ġide als
ĠÃ ĸ
ĠRes olution
ĠSal em
ĠSa igon
ĠNapole onic
Ġexcav ation
ĠGarc ia
ĠJur assic
Ġinev itable
b ase
ed e
Ġw ise
ĠT rial
ur ities
ĠD as
ĠL A
ĠV atic
ind y
Ġcr ude
ĠCap t
Ġabs urd
for ward
Ġtun ed
Ġmotif s
Ġaug mented
Ġrer outed
ĠBolshe vik
Ġt ally
Ġin ception
Ġth res
ĠB ung
ol and
ĠI o
ĠK ash
aus es
ual a
ek a
ĠQu ick
ĠBu ilt
Ġadj usted
Ġsurpris ingly
enge ance
Ġliber ation
Ġvac uum
Ġdescend ing
ĠKen ya
ĠCru ise
ĠCole man
ĠRap ids
ĠFem ales
rep rene
acer b
Ġsatir ical
p ox
Ġb il
Ġto ys
Ġst ays
pp ers
ĠV il
Ġpre hist
old ing
Ġgun powder
Ġlist ings
Ġequ ity
yn t
Ġneg lect
Ġcandid acy
Ġty res
ĠLow e
ĠRub y
Ġeject ed
cyclop edia
L U
Ġo mn
al ach
Ġm g
are z
Ġfin ances
Ġgovern ance
Ġref r
Ġtri angular
ĠEm erson
Ġsupp ressed
Ġtun es
Ġimag ine
Ġexpress ions
b anks
t land
ĠV ale
Ġ201 7
Ġcomm issions
ll an
Ġpass ive
Ġappro ve
ody n
ĠPhil harm
Ġarg u
ĠHam m
ĠPaul ine
ĠOl ga
ĠSil va
ĠCharl ton
ĠRom antic
Ġdiam onds
Ġsurvey ed
ĠNic ar
Ġid ol
Ġpige on
Ġsubpl ot
B i
h anna
i ative
p a
u ity
ĠA FC
ir acy
ĠG olf
Ġcl iffs
oph on
Ġprec ision
Ġinstit uted
ĠVol can
ba um
book s
Ġinnov ations
Ġscholar ly
ĠKit ty
ĠLud wig
g one
l ash
Ġg ast
Ġch icks
te f
ars ity
Ġadvant ages
Ġbenef ited
ĠLes ter
Ġlov ing
ĠBon aparte
Ġsuspic ious
ĠSid ney
Ġepit het
k ed
m ination
Ġt ang
ro le
ĠB uzz
ĠG ris
Ġimp ending
Ġins ists
Ġsuff rage
less ness
Ġeconom ically
ĠMac Farlane
Ġris en
ĠLo op
Ġaddress es
Ġflo at
ĠDub ai
i ator
or se
Ġf auna
Ġm aker
Ġd unge
ĠM T
um my
Ġsh out
rit e
Ġcont empt
Ġte leg
Ġear nings
Ġadd iction
Ġgu ides
Ġadv iser
Ġline age
Ġkill ings
Ġauthor ised
Ġhold er
uff s
Ġprob ability
Ġconqu er
ĠCob b
ĠUrug u
s m
Ġm a
ĠI z
Ġex acerb
Ġend uring
Ġam ended
Ġbr anded
Ġwar mer
Ġsm ell
Ġprov es
Ġmar riages
Ġke el
ĠGl oria
Ġbar riers
Ġaccess ed
Ġcompos ite
Ġadvert ised
Ġclean ing
Ġhal ftime
Ġsucceed ing
Ġfram ed
Ġpier cing
Ġmasc ot
f us
Ġb ells
ĠT ale
ĠK i
ĠâĢ ĳ
Ġab bre
Ġad verse
Ġinst ability
ĠBr as
Ġdown graded
ĠWe aver
Ġsuper b
Ġcommission ers
Ġsn akes
Ġsplit ting
ĠJud y
ĠLy d
Ġdecre ases
Ġabbre v
es y
ĠT in
ĠC rete
ĠB agh
ĠH ence
ĠN ir
ĠK ru
Ġdis reg
ĠBe aver
Ġ31 0
Ġtrain er
ĠFin ance
Ġeth ics
Ġprin ces
ĠInc re
Ġtra uma
Ġspend s
Ġflash back
stan bul
ĠSud an
shadow ed
l ian
Ġb achelor
Ġl one
Ġl overs
ur us
Ġpl aster
Ġcl ash
Ġshe ets
Ġcol oration
Ġattack ers
ĠÂ ·
ĠAcc olades
ĠSm ash
Ġmount ing
Ġamb ient
Ġanaly ses
Ġ39 0
Ġextr av
ĠJane iro
Ġgest ure
ĠAven gers
ĠS isters
ĠP ound
Ġcom et
ew orth
Ġk its
Ġqu ote
ten stein
ĠBr ain
II I
Ġnatural ist
Ġnecess ity
Ġ181 8
ĠClass ification
ĠPers ia
Ġble eding
Ġdeleg ate
ĠOpen ing
Ġproport ions
ĠMaced onia
Ġpatern al
1 2
N G
Ġto ile
ĠT ara
ĠC oke
ad en
ĠB ian
ĠN est
ĠHe ather
ons on
Ġjust ify
Ġstruct ured
Ġcert ificate
Ġobserv es
Ġinnoc ence
ĠAthen ian
Ġmarg ins
Ġincons istent
ĠMcCle llan
c ons
c asters
k n
k ov
p oints
v ol
w ord
in ating
it ations
ĠS iber
ĠI M
Ġst anza
Ġex empt
Ġex ports
ip oli
Ġout ages
ĠCl an
Ġsl ate
Ġmot ivation
Ġwood ed
Ġcollect ors
ĠJer icho
Ġcompris e
ĠAri el
Ġspons orship
ĠEC W
ĠSquad rons
Ġcontrad ict
Ġpsychiat ric
Ġvolunt ary
ĠPatric ia
ĠBie ber
fle et
Ġargu ably
V N
Ġc ables
ar an
Ġn ons
ĠP eck
ĠD olph
Ġnot ices
ling er
Ġold s
Ġanaly zed
Ġconstit ute
ĠChronic les
Ġexplo itation
ĠZh ang
Ġoutn umbered
Ġt il
he art
nd ers
ĠM s
Ġch asing
Ġdes erted
ĠMay er
Ġins ult
ĠPh on
ĠEx it
Ġdiscover ies
ĠPart isans
ĠSam antha
ĠCr imson
Ġacqu aint
Ġplant ations
Ġpit ches
ĠHel m
ĠSpe aking
Ġquiet ly
Ġspont aneous
ĠGalile o
b eth
Ġt apes
Ġf ission
Ġp ension
Ġre nder
ĠS uk
ĠM ode
Ġg ut
ĠW ins
and ro
oun ge
oun cing
ish a
ĠAn ime
Ġsever ity
ĠQ F
Ġorgan ism
Ġcapt ained
ĠDr agons
Ġap ology
Ġpil grim
ĠMass a
ĠChe v
ĠGall ipoli
ĠRA R
Ġpossess es
Ġswitch ing
Ġnurs ing
d ad
i ad
m ire
p ro
Ġc ort
ĠT osh
ĠTh reat
Ġsc utt
Ġag ing
form ed
Ġme g
Ġfl ame
Ġass umes
ĠRe gina
Ġsupport ive
ĠTr ondheim
ĠPr ayer
ĠEd en
Ġarr ange
ĠThere after
ĠSw im
Ġsol ic
ĠDen is
Ġment ally
ĠRBI s
ĠTrav is
Ġt ut
Ġs aga
Ġg rie
Ġpl ural
Ġsp ine
Ġres ent
low n
Ġne ur
Ġdisc s
Ġsw amp
Ġfootball er
ĠKh mer
ĠUnf ortunately
ĠJut land
at hed
ing le
Ġl umber
ĠC anton
Ġat he
Ġv ault
our g
Ġinc lined
Ġsing led
Ġpar achute
omen cl
ĠSch ne
ĠSch war
ĠStr ateg
Ġabsor ption
ĠLib ya
Ġpel oton
ĠShep ard
ĠClif ford
Ġ u
ĠB res
ĠR CA
ĠF ay
Ġr anch
Ġfl av
Ġass aulted
ĠRe e
ĠBr ill
ĠBl ind
aun t
Ġguard ed
oz o
ĠGand hi
Ġt ense
Ġm otto
ĠT ren
il er
ĠH ang
ĠN K
ĠE z
Ġapp end
ĠAt ari
ll er
ĠEar p
Ġmer ge
ĠMil itia
Ġbi as
ĠDam on
Ġmut iny
Ġtransition ed
Ġcommemor ative
ĠProm otion
Ġorn ith
hous er
ĠSyn opsis
ĠA FL
ĠH air
Ġch anc
Ġsub stances
Ġtrans f
ĠRec onstruction
Ġexplo ited
Ġembr aced
Ġpneum onia
Ġdrif ted
n ell
Ġp aced
ĠI D
ĠH iggins
ĠD ahl
ĠK ron
Ġsp elling
Ġcont ention
Ġaut onomous
Ġsk ating
Ġnomin ate
Ġthreat en
ĠRock s
ĠSl oven
Ġtax i
Ġ44 0
ĠHart ford
Ġcommemor ated
ĠEle ph
Ġagree ing
ĠDuch y
ĠSold ier
pend icular
b els
f oot
Ġn an
ĠB ury
ĠR it
Ġint ric
Ġship ment
rap er
ĠFor rest
Ġprop he
Ġhard core
che wan
Ġdism ay
ĠRel igious
Ġsed iment
Ġcod en
Ġspr ings
ĠPhys ics
s ing
Ġs oprano
om atic
ĠN E
op ath
Ġinc ub
omb ie
Ġevery where
ĠGame Cube
Ġge ometry
ĠBru ins
Ġastron omy
Ã± o
ĠSteven age
Ġpassion ate
Ġfrog s
Ġpresc ribed
ĠVenezuel a
Ġunav ailable
Ġdw elling
l ov
s er
Ġd od
ĠS M
ĠA G
Ġg rief
ĠL ec
ĠG amb
ond a
ĠUS C
Ġins istence
Ġpar ap
Ġcomb inations
isc opal
ĠCor por
ĠMic he
Ġtrail ing
Ġwire less
Ġcad ets
Ġconce aled
ĠRÃ© union
ĠParad ise
Ġp ending
ĠD ear
ill and
ak on
Ġsh ores
ĠK umar
Ġher d
Ġco ordination
Ġinsp ir
ĠBut ton
ĠStud y
Ġadop ting
Ġamb iguous
Ġple aded
Ġ64 0
ĠLiber als
ĠWater loo
Ġow l
Ġpenet rate
Ġperf ection
5 0
l iest
Ġl odge
ĠI stanbul
ir atory
und ers
Ġfour teenth
ĠGr up
hor st
ĠBar ney
iol a
Ġche aper
Ġcollabor ator
ĠMid night
Ġexplos ions
ĠPolit ics
ĠHig her
Ġinfra red
ĠA B
ĠC ell
ĠD irty
ĠO ry
art ments
Ġcomp elled
ach y
Ġsome how
Ġproject ion
Ġprocess ion
road s
Ġpun ch
Ġastron omer
Ġreson ance
Ġmotorcy cle
ĠJed i
Ġspokesp erson
S h
Ġb ubble
Ġn i
Ġas cent
ĠR C
th ia
ĠJ ude
ĠY a
ĠRe ad
Ġno on
Ġinst inct
Ġsystem atic
sh aw
Ġrail s
ĠCongress man
ĠMur der
Ġdra ught
Ġancest ral
Ġcorpor ations
Ġphysic ist
Ġpled ged
m aker
ar ine
ar ium
ĠS as
ĠM FR
Ġhe x
ĠW izard
Ġsp rin
Ġsup rem
Ġfl aws
Ġdem os
Ġexper imented
Ġhon oured
Ġcrowd ed
Ġprefer ring
ĠLow ell
ĠAtlant is
Ġglac ial
Ġfilmm aker
ĠRif les
Ġdecomp ression
ĠCitiz ens
ĠKend rick
ĠGiov anni
Ġs inc
Ġf ountain
Ġin ad
ĠH urricanes
ĠN G
Ġex ter
ĠV H
Ġcan als
Ġsur plus
Ġmon astic
Ġcre m
ĠHer mann
Ġrev ive
Ġcop ied
sc he
Ġtreat ies
che z
Ġmem oir
Ġimpl ications
Ġprohib ition
Ġcoordin ate
Ġoutl aw
ĠHav illand
Ġneighb ors
w old
Ġm ason
ĠI on
ĠL ic
Ġup wards
ĠY ah
Ġany body
Ġadm iration
ĠDr ag
Ġ29 5
Ġz ool
tr ak
ĠGram mar
Ġexception ally
Ġsimpl icity
Ġelectron ics
ĠNorthumb ria
as ian
Ġre lying
ow itz
ĠD oyle
ĠE ri
Ġcl ashed
ĠSh Åį
Ġprov ing
Ġsym phony
ĠVik ings
Ġreorgan ized
ĠSuz uki
Ġretal iation
3 8
I P
f ried
ig ibility
ot le
ĠW ise
ĠN os
pp elin
ĠCon tr
Ġdep leted
ĠHar riet
Ġminor ities
kin en
ĠLin naeus
Ġhier archy
Ġplag ued
ĠElement ary
g au
h olic
u o
Ä ĳ
Ġb iblical
Ġp od
ĠA AA
ĠB olt
est a
Ġout c
Ġass aults
Ġhold ers
Ġscreen writer
urt les
Ġchief s
ĠImp ro
ĠNich ols
bre aking
Ġembr ace
Ġpenn ed
Ġdisin tegr
on al
ĠS ina
ĠB iz
ĠD ion
ĠF iji
ĠG aul
ĠO val
ĠV ie
ĠHe br
Ġad orn
Ġrec k
Ġass im
Ġ182 7
Ġunivers ally
Ġcontrast ed
ĠHistor ically
Ġur ine
Ġjuven iles
Ġridic ulous
Ġpedest rian
ĠVeter ans
R D
Ġd ose
ĠM und
Ġas ym
ĠJ ard
ĠE tty
Ġsp herical
ĠAr chie
Ġprev ailing
Ġvol tage
ĠSch mid
Ġcontest ant
Ġ177 7
Ġsynt hetic
ĠOd in
ĠBudd ha
Ġcheck ed
Ġmarry ing
run ner
Ġindirect ly
or ate
is se
ar ious
ĠA very
ĠB achelor
Ġdis gr
Ġinter red
ĠZ ion
sh ot
ĠBar oque
ĠCo ff
Ġfavor ably
ĠJac qu
Ġunf air
ĠConfeder ation
Ġoverse e
Ġcommit ments
Ġdetail ing
Ġcooper ative
Ġsear ches
ĠCoch rane
ĠVenet ian
ĠSaskat chewan
g em
ĠM ud
ĠL ands
ĠN iss
ĠK appa
Ġar ter
Ġcar riages
Ã© d
ĠX L
ae a
ĠPaul o
ĠOper ational
Ġinstit ute
ĠRow ling
ĠMP s
ĠSpart ans
ĠSacrament o
re cht
es i
Ġd op
ĠA man
Ġg aps
Ġhe red
um ing
ace ans
ĠSh rews
Ġpres ided
ĠBl ame
ĠWilliam son
gr ass
Ġsoundtrack s
Ġemphas ize
ĠAsh ton
Ġlic ence
Ġstrip es
ĠAnim ated
Ġdrink s
ĠTerm inal
Ġprivile ges
Ġpseud onym
Ġcott age
ĠShrews bury
e i
ĠC ities
ĠB oul
ĠG ir
if iable
Ġex h
ĠV id
pl ate
erm aid
Ġcharacter ization
ĠMc B
Ġfr anc
ĠBrown lee
Ġexam ining
ĠGar land
ĠConfeder acy
Ġuns ure
ĠMerc ia
Ġhat red
ĠRecord ed
cha ikovsky
Ġsubstit uted
ĠHitch cock
r ar
ĠT ac
ĠR ules
ain es
Ġchar ming
Ġno ir
Ġwar n
Ġprop oses
Ġequ ilibrium
ĠMcC orm
Ġexhib itions
ĠJer ome
Ġillust rate
Ġtheore m
Ġstair case
Ġflatt ened
z an
Ġp awn
ĠA uck
ĠF avor
ĠL uk
ap est
ru ff
Ġoff ence
Ġfl otilla
Ġair plane
ĠAnd ri
Ġpar odies
ĠPar ade
ĠAir bus
Ġfle ets
ĠPo ole
Ġpup il
ĠConc ern
Ġsanct uary
ĠSchne ider
Ġw eren
Ġst ro
ch urch
oc hem
Ġam mon
ann ah
ting u
Ġsuccess ors
Ġbuild s
ĠNorth western
rodu ced
ĠIntern al
ij a
Ġlog ical
ĠExp o
Ġaddress ing
ĠAz ores
Ġcoordin ator
ĠNear ly
Ġsubst rate
Ġcoff in
ĠInv inc
ĠKle in
Ġrepuls ed
ĠSabb ath
Ġin ert
ĠS G
ĠC ott
ĠL ap
Ġtr icks
ĠCh rys
ound ing
Ġev angel
Ġopen ings
Ġpain ful
Ġtransfer ring
Ġ182 6
Ġdyn amics
Ġrac ist
Ġoutl ined
ĠInsp ector
ĠInform er
ĠCarne gie
ĠMys ore
E nders
j ust
w ith
ĠS eward
ĠI ch
ul ing
ĠG amer
Ġatt aining
Ġreg ulated
Ġdisc retion
Ġgener ators
Ġcoun cill
ĠEast Enders
Ġcy cles
ett o
ĠSch arn
Ġtransport ing
ĠInter est
Ġ181 7
Ġexpress way
ĠHay nes
Ġconsum ing
Ġbes ides
Ġwheel chair
Ġrif les
ĠThan houser
ĠChron o
Ġelectrom agnetic
l ar
Ġw agons
ĠT iber
ĠW are
Ġdep ended
ĠAm in
Ã¡ l
Ġill usion
Ġinteract ive
ĠColl ier
Ġhang ar
Ġsurpass ing
Ġremind ed
Ġabrupt ly
ĠByr ne
ĠDres den
x es
Ġo ught
ĠS porting
ĠC L
all i
ĠCh ick
Ġver bal
Ġair lines
sh am
Ġbar red
back er
ĠTrans ylvania
Ġ49 0
ĠOd ys
Ġsimultane ous
ĠT rit
Ġall oy
Ġbl ade
ĠBrit ann
Ġext raction
ĠWe hr
ĠAng les
ĠHaw ks
acher s
ĠDun n
Ġcontest ants
Ġenter prise
Ġ66 0
Ġstraight forward
ĠBad en
ĠPur ple
ĠHo oper
Ġoutf its
Ġshield s
Ġincred ibly
Ġmicroph one
c hel
f rey
Ġt s
Ġw ield
ĠG an
ĠG oss
os o
Ġr ab
ĠE lection
od ont
ĠK od
ĠK ry
aw ks
ĠMar riage
hy ll
ĠGer ry
Ġext ensions
ĠMc I
Ġer ect
ĠRob son
lo e
ĠAnn iversary
Ġcontrast ing
ĠPublic ations
ĠIndust ries
ĠDomin ion
ĠCook e
ĠHans en
Ġrecruit ment
ĠOcc up
ĠRaid ers
Ġa fore
re ted
um mer
Ġv ivid
ĠSt anding
Ġatt ach
ific ant
erv ille
ĠPres idency
Ġgall ons
Ġsynthes izer
ĠML S
Ġrhythm ic
ĠStat istics
Ġeleph ants
ĠGarc ÃŃa
Ġrelax ed
Ġswall ow
Ġdolph ins
ĠScharn horst
b les
i ard
Ġp ic
Ġp igs
un n
ot he
em po
Ġal lev
um bo
Ġsp un
az y
ĠTr an
ĠEu rog
Ġcy cling
off s
Ġpract ically
ĠStar C
Ġemb ark
Ġ180 3
Ġ180 8
ĠLiber ation
Ġrhy thms
ĠBra un
ĠEth iop
Ġoblig ations
ĠEurog amer
Ġb ays
ĠA gg
ut ory
ĠW er
ĠG ert
Ġpro be
Ġv ag
ĠLe vin
ĠSp ector
ĠCon way
Ġclass ics
Ġmid way
ĠSm oking
Ġsuff ers
Ġenjoy ing
ĠKr atos
Ġelev ator
Ġfashion ed
Ġrailroad s
Ġdepos it
ĠAud io
Ġsatisf y
ĠCN N
Ġfundra ising
Ġsab ot
i ya
Ġto pping
il ocy
Ġv ass
ĠK ess
Ġout ward
ick er
Ġme als
Ġind ul
Ġgener ous
Ġhand ic
Ġreal izing
Ġsw orn
Ġgl ory
Ġengine ered
AF TA
Ġimm ense
Ġ182 3
Ġ181 1
Ġ42 0
Ġtransl ations
utt a
ĠLaure nce
Ġadvoc ates
ĠHur on
ĠNav igation
ĠStra its
Ġantib odies
ĠArc ade
ĠLore n
stad t
Ġtrump et
ĠPhilharm onic
g ue
Ġc avity
an ity
ĠS Ã£o
ĠM ats
Ġst unning
ĠR ole
ĠSt re
ok ane
Ġover flow
Ġexpl orer
Ġtw ins
Ġpat rolling
Ġcoast s
int o
ĠMil ne
Ġcru ising
Ġcat cher
Ġsort ies
ĠProv incial
Ġdescend ant
Ġhang ed
Ġfeud al
Ġneighbour hood
ĠDiv ine
Ġconven ient
ĠYok o
ĠOC LC
Ġlav ish
o ise
w en
al is
ĠT H
ĠT rap
ĠM ob
per t
ek ing
Ġcap ped
Ġdestroy s
ĠBen z
Ġlic ensing
ĠRain fall
Å¡ iÄĩ
Ġreserv ations
Ġhapp iness
ĠMong ols
È Ļ
ĠM ersey
ĠH ost
ĠP ry
ct ica
Ġex tingu
ia o
ĠV C
ĠV it
Ġcomp are
lud ing
ick ed
Ġmar ijuana
Ġreal igned
ĠCal der
Ġrev is
ĠMil k
Ġcounter ed
Ġ179 1
Ġfunction ing
Ġadj oining
Ġfranch ises
Ġblow ing
ĠUSS R
Ġcraf ted
ĠReserv oir
ĠAuck land
z omys
it imate
Ġf res
Ġh ail
st ick
am en
ĠH enson
Ġal phabet
per ors
Ġrec yc
Ġdis g
Ġdec eption
Ġmill ennium
ĠAust rians
Ġprev ents
ĠPat rol
Ġche f
ĠMid land
Ġrevol ves
Ġwors ened
Ġnost alg
ĠAdvis ory
ĠPione er
Ġmour ning
Ġc af
ĠP av
ĠR iv
ĠD ante
ĠL otus
og ene
Ġab duct
Ġsc an
ount y
ĠJackson ville
ĠSher idan
ĠNich olson
Ġscen arios
ĠDiam onds
ĠChes hire
Ġmonaster ies
ĠOfficial s
ĠJen kins
ĠScandin avian
ĠResc ue
z t
ĠT imb
ĠM aiden
ĠW ulf
ĠF ram
ĠO ric
ine as
ok u
Ġcan opy
Ġinv alid
ĠGer ard
uss y
ĠBo om
Ġsol ved
Ġpri zes
ĠWhite head
het ics
iser ies
ĠGo ogle
Ġspecific ations
ĠBre nd
Ġdivers ion
Ġwilling ness
Ġslee ve
psil on
Ġw rist
Ġh ilar
ac ies
ĠThe ory
ĠR Ã¤
th ard
Ġad he
Ġsent iments
ĠNor ris
ĠMac beth
Ġdeal er
Ġge ology
ĠRecord ings
Ġearthqu akes
Ġvig il
child ren
ĠMyst ery
Ġanat omy
Ġcompuls ory
Ġf aint
ĠH S
ĠP iano
ĠD ust
ĠW C
att on
Ġcons on
ĠSh ot
ĠInd ex
ret to
ĠWe ap
ĠGall agher
Ġlands lides
ĠDark ness
Ġven om
Ġactress es
Ġinaug urated
Ġsimpl er
Ġoverturn ed
f al
i u
l itz
Ġm akers
Ġh p
Ġe uro
ĠM ab
Ġg ri
Ġcl o
Ġj aws
ĠDe velop
Ġins ane
Ġbest s
sh aven
ĠEm il
Ġpain ters
ĠCam den
Ġsyn onym
amb a
ĠBu cc
Ġ178 3
Ġspons ors
ĠHur ley
Ġprovision al
ĠCelt ics
Ġreass igned
Ġannex ed
ĠHyder abad
Ġinappropri ate
F S
or por
is ible
ĠW ere
ul se
ĠK aw
are th
Ġrem od
omet er
ĠNe al
Ġpred ation
Ġbreak fast
ĠEv idence
Ġforest ed
ĠNic ol
ĠNS B
Ġoptim istic
Ġconclus ions
ĠC rescent
us an
ĠR oot
ĠE ra
Ġnot ified
Ġconf luence
Ġport al
Ġsoc ially
Ġcrew men
Ġrecogn izes
Ġpack s
Ġconvers ations
ĠBal zac
ĠÎ ±
ĠCred it
Ġforth coming
Ġfratern ity
ĠRÃ¤ ikk
p m
r acts
er ff
ĠS aga
ent er
ĠM au
ĠB ag
ĠUn k
ĠSp okane
Ġsur g
Ġ30 1
Ġdel ivers
ĠSuper ior
Ġ43 0
ĠAut umn
Ġalco holic
ĠVers ion
ĠToy ota
Ġimmun ity
ĠByrd s
cul osis
m acht
Ġc ris
ĠS is
ay ana
Ġhe d
ĠW on
Ġoff set
Ġco hes
Ġgl ider
ĠPart isan
Ġrecogn ise
ĠHol t
Ġhall uc
Ġunl ock
Ġfil ters
Ġelabor ated
ĠSlav ic
Ġstup id
ĠWehr macht
er oy
Ġs ake
Ġh ob
ĠM ansion
ĠP iper
Ġpre quel
ĠSe jm
Ġsub gen
Ġdist orted
Ġfort ification
Ġ181 3
ĠRoy als
Ġtact ic
Ã¶n en
Ġimped ance
Ġpractition ers
ĠRÃ¤ikk Ã¶nen
h ail
r ance
w ulf
Ġs andy
Ġf raction
Ġp avilion
ĠI F
ĠN P
if ully
ĠU lyss
ra e
Ġj ournals
Ġdis ruption
ĠAn to
Ġpol ished
Ġsl ipped
Ġdel icate
Ġinflu enza
ĠIm port
Ġsyn agogue
writ ing
ĠBul let
Ġinstall ations
Ġsoul s
Ġabsor b
ĠBark ley
Ġsemif inals
ĠUlyss es
Ġd ocks
ĠA V
am ination
ĠW it
Ġch aired
Ġdis emb
ĠLe a
Ġinf inite
ĠBl ade
Ġsmall pox
row th
Ġmark er
Ġfre ighter
Ġbas eman
Ġprocess ed
Ġthreat ens
ĠMill wall
Ġshut tle
Ġhighlight ing
ĠEle ven
Ġresur rect
ĠKes ha
Ġcogn itive
Ġsuscept ible
ĠUkrain ian
Ġe go
ĠP ony
ĠG ale
ĠG DP
ank ing
ĠRe ports
Ġno ct
Ġmin t
Ġconf ession
ĠWe iss
Ġpat rons
itor ium
Ġpot tery
Ġdemonst rates
Ġsens itivity
ĠFront ier
gro ve
Ġmand ate
ĠShel by
Ġpref ers
ĠNicar agua
ĠSchwar z
z b
Ġb ru
ig i
ĠD ictionary
ign y
ĠHe is
ĠCl ap
Ġinf ants
Ġhel m
oll s
Ġoccup ies
ĠHaw kins
ĠMD OT
edd y
ns ic
Ġcard inal
Ġalt itudes
Ġske ptical
ĠLaur ie
ĠHollow ay
an ish
ĠT chaikovsky
ĠS uther
Ġst airs
ĠP T
ĠE scape
ical s
ĠAl g
ĠAl pine
Ġyear ly
Ġsever ed
Ġed ible
oss a
Ġsl ogan
ges chwader
Ġtax ation
ĠCorn ish
Ġpul p
uts ch
Ġsky sc
Ġsimpl ified
ĠHaz el
hell o
c ard
y ah
Ã Ł
Ġp irates
ĠT ick
ĠR apt
em atsu
ĠIn to
ip es
ĠU ematsu
Ġsp at
Ġev id
Ġbr ack
Ġtop s
Ġge ography
Ã¨ ne
Ġacknow ledge
ĠCru iser
Ġnucle i
ĠZe ppelin
Ġrepris e
ĠPrev iously
B L
Ġt ones
is ors
Ġb ored
ĠT rench
Ġre e
ĠS ister
ĠM iff
ĠD under
ul iar
ĠN ights
Ġch ick
Ġund ivided
ĠCol t
ĠAp ost
Ġsl ated
Ġste amed
Ġwid ening
ĠAct ing
ĠRob ot
Ġimm igrant
Ġraid ers
Ġlif esp
Ġsurre al
Ġinaug uration
Ġninet y
ĠMang alore
Ġreinst ated
D er
b ut
g ang
Ġw agon
Ġf iber
ĠS ki
ond o
ĠAs c
Ġent reprene
Ġinflu x
Ġten ants
Ġborn e
Ġhost ility
Ġviol ations
ĠDo om
Ġprincip ally
Ġple ase
ĠVan Der
Ġnegot iating
Ġpack aging
Ġappl ies
ĠRadio head
ĠWilhelm shaven
ĠMarket ing
Ġfert ile
ĠPeng uins
ĠCyp rus
ĠCzechosl ovakia
ĠVanDer W
e od
g ain
v re
z hn
Ġm asts
el ves
ĠC osm
ur rection
em ann
ĠF S
ĠK uala
Ġsub way
Ġbook ed
Ġer oded
int age
ĠRou ge
ĠCont est
Ġcho oses
Ġsun light
Ġmillimet re
Ġstyl istic
ĠRif le
Ġunders ide
ĠS idd
ĠP asha
ĠN ice
op ers
ill ard
ab out
ĠUn able
aj o
ĠSc apa
Ġresp iratory
Ġdiv ert
head ed
Ġmot ives
ĠSpan iel
Ġdistrib ute
Ġdemonst rating
ĠEll iot
Ġtorpedo ed
Ġmart in
ES CO
Ġscar ce
ĠYellow stone
Ġbackst age
Ġlung s
Ġreiss ue
Ġdismant led
ĠTorch wood
z ko
at ops
ĠT et
ĠH abit
ĠR ule
ĠN ile
ect ors
Ġdis ability
ĠMar vin
ener y
ern e
ĠAm anda
Ġcr ashes
Ġgl ad
Ġemploy ers
ĠGold s
Ġprem ium
ĠRob bie
Ġinvestig ators
ĠRo ch
Ġsymbol ism
ĠRick y
Ġreprodu ce
ĠManu fact
ĠDod d
Ġendors ement
Ġpenet rated
ĠLem on
ĠStef an
ĠRus so
Ġaristocr acy
Ġdisgu ised
Ġguerr illa
role um
Ġinad vert
ĠMiff lin
ĠVanDerW erff
h ound
Ġt a
ĠB B
ĠP R
Ġwhere in
Ġinv ites
aj an
Ġprev ailed
ĠAb s
Ġer otic
urg ical
Ġmot ors
ĠHam mers
Ġemp ower
ĠPle asant
Ġrepris ed
Ġintend ing
Ġtouc hes
ĠN adal
if erous
Ġsh afts
Ġar id
Ġdes erved
end ers
Ġfe ast
Ġshow er
Ġbr ide
Ġaff irmed
Ġsw ords
ĠArch ives
ĠWall ach
ĠEp iscopal
Ġdial ects
Ġselect ive
ĠNic olas
ĠJacob s
Ġdraf ts
ĠGates head
Ġsymmet ry
Ġmonkey s
ĠHerc ules
Ġwis dom
Ġt ails
on te
Ġw ax
Ġp irate
ĠT i
ĠS overeign
ĠM uk
ol id
ĠW i
ĠG aud
ĠV in
ib i
Ġacc olades
ĠCar lo
Ġprot otypes
ĠHer od
ĠEx cell
ĠVal ve
Ġsil ly
ĠCast ell
Ġenjoy s
Ġproceed ing
Ġuns igned
Ã¸ r
ĠTit le
Ġpale ont
Ġgentle man
ĠCoul thard
ĠVolunte er
Ġdisorgan ized
ĠMiche le
ĠSuther land
c ely
Ġf used
Ġv apor
ell us
ĠSc ale
Ġmod ule
Ġmil itar
ĠCor al
Ġnational ism
ĠQu ad
ump ing
Ġ180 2
Ġseg regation
Ġextr acted
Ġstret ches
Ġdens ely
Ġsynthes izers
ĠNob ody
Ġsalv age
Ġabd omen
Ġtrunc ated
ĠBagh dad
zhn ev
le utnant
ĠH ors
ĠL ep
ab l
Ġconf using
Ġcommun ism
Ġste alth
ĠUp anish
ĠFlor a
ste en
ĠUN ESCO
Ġselect ions
ĠWhe at
Ġneutral ity
Ġsel dom
ĠMarse ille
e o
ĠB onn
et us
ĠG ian
Ġsup erm
other apy
ĠMin isters
ĠFrank f
Ġrat ified
ĠAlbert o
Ġkick ing
ĠUr s
Ġnumer ical
ĠVamp ire
e pt
Ġt att
Ġa ide
ĠT ao
ĠS ou
ĠW ad
ĠG ong
Ġcom r
ĠSt o
Ġdet ach
ĠAm ph
ĠCal ed
vent ional
Ġhom eland
ĠRes ources
Ġeth n
Ġeth ical
Ġundert aking
ĠOb l
Ġtrust ed
ĠPur ana
ĠWhe ther
ĠYanke e
Ġneighbour s
Ġrever ted
Ġlandsc apes
Ġfa Ã§
M alley
k as
Ġc her
Ġf ol
Ġb ug
ĠB omber
ĠH are
Ġst al
rom b
um en
ment ioned
Ġtr ams
Ġcan vas
Ġpe ac
ris ons
Ġtake over
ĠCor inth
Ġhuman itarian
ĠBel ow
ĠMo e
ĠEv angel
Ġcas ino
Ġrob bery
ĠDown town
Ġsurviv or
Ġtoll s
ĠFal con
ĠProgram me
ĠTerrit orial
ĠRams ay
ĠCG I
Ġfut ur
ĠJak arta
Ġba iley
H P
Ġo sc
ĠThe m
ĠI ro
ĠH et
ge ons
ass is
ach lan
Ġacc using
ĠShe ll
Ġfac ade
itt i
ĠRos berg
gu y
ĠMov ies
Ġwithdraw ing
Ã¨ res
Ġintercept ions
Ġflank ed
Ġchronic le
ĠSteel ers
Ġtoxic ity
ĠIsab el
ĠNir vana
H D
m issions
im us
ter ing
Ġv om
Ġrel ies
Ġtrans cend
Ġsyn chron
ĠWood y
light en
ĠKh alid
Ġextr ater
ĠKat rina
ĠAh med
Ġinvent ory
Ġrepublic an
ĠSyl vester
opot am
ĠVatic an
ĠBung ie
ĠStarC raft
R B
an ed
Ġd ur
ĠS ava
Ġl ia
Ġn iece
ĠD rug
ĠG ue
ab lo
Ġcl ashes
act ivity
ress es
ĠRe ign
Ġwar b
ĠMe h
Ġprop ose
Ġtimes lot
ĠMy th
Ġ177 8
ĠBul ld
ĠDal mat
Ġresear cher
ĠHav ana
haus en
Ġincarn ation
Ġinexper ienced
g ins
Ġt empt
Ġa ce
ĠS ard
ad in
Ġg a
ĠH ed
ĠW ire
ĠL ille
um o
Ġpl ague
ĠSp ock
ĠSh ut
Ġdecl ares
Ġmer ging
ĠMer it
Ġ180 7
Ġple asant
Ġsupp ression
Ġyellow ish
Ġshut out
Ġshore line
Ġlob b
ĠMes a
idel ity
ĠKit chen
Ġcad et
Ġhem isphere
ĠAntar ctica
ĠFav re
in ement
Ġf ug
Ġm oll
ĠB low
ĠF ont
ĠL ara
Ġch ant
ĠU BS
ia e
Ġinc oming
Ġcomp artments
Ġdis ple
Ġcur t
ĠAm or
Ġdel uxe
Ġsol ving
aut hor
Ġdon ation
Ġ182 2
Ġ56 0
Ġcry pt
ĠDal ton
ĠSpit fire
ĠCert ifications
Ġcalib re
Ġpec uliar
ĠAnto ine
g uez
o ors
es a
ĠB AFTA
Ġst ipe
ĠE ust
Ġup ward
Ġrel ocation
ool s
Ġconc essions
Ġob it
Ġcur se
Ġprim ates
ĠBoy le
ĠMel issa
ĠSo ap
Ġjournal ism
ĠRod rÃŃ
Ġchore ographed
Ġannex ation
Ġalumin ium
ĠMater ial
ĠRodrÃŃ guez
Ġthe rop
ac l
ĠB W
ĠF ing
ĠG B
Ġsh ame
ĠK rie
Ġtr an
og enesis
Ġcan yon
pen se
Ġcr ush
ĠNo ah
Ġhold ings
Ġinsp iring
Ġconcept ual
Ġpit chers
Ġfavour ites
Ġsuperv ising
Ġiniti atives
ĠBak shi
ĠWinn ers
ĠBever ly
Ġquadrup le
ĠTuls a
k ie
Ġ q
ĠT ub
ĠT ram
ĠS ave
ĠB order
ĠP awn
Ġbe e
em outh
ul in
ĠG rap
Ġr ans
ĠE uc
ĠV ig
Ġresp ects
ĠEast wood
ĠVir gil
ĠCons id
ĠHistor ians
Ġmis under
ĠPatri ots
Ġlingu istic
ĠPlate au
Ġaster oid
ĠHiros h
Ġt ast
ĠB ash
ate ful
ĠV uk
Ġrel iance
Ġind ict
Ġent ities
Ġbl unt
Ġdr ained
Ġdest ined
Ġequ ator
ĠEx hibition
Ġ40 4
Ġphys icians
ĠSever n
hold er
Ġheart s
Ġburn s
Ġcompar atively
ubb ing
ĠLev i
ĠRodrig ues
Ġauthentic ity
Ġreiss ued
ĠMÃ¼ ller
Ġeleg ant
Ġchanc el
ĠBucc ane
p itz
Ġp inn
ĠS ora
ay ing
ĠN it
ĠK eller
ult ural
Ġinter val
Ġqu otes
ĠSh ap
Ġel igibility
ĠPe el
ĠHam lin
ĠFort une
ĠArm ament
ĠLis bon
ĠMans on
ĠTir pitz
Ġsummar ized
ĠThanks giving
Ġlandown ers
Ġnutri ents
r ack
Ġw olves
ĠT we
st r
ĠL uck
Ġcomp ly
Ġcl ich
Ġrec ounted
Ġcan e
Ġwar ns
ĠBr idges
ink er
ĠHar lem
Ġ25 4
ĠAnd r
Ġrock ets
Ġcut sc
Ġbrown ish
ĠLincoln shire
iter ated
ĠAbb ott
Ġspar se
ĠLuther an
cip ation
Ġconspic uous
ĠUnk nown
Ġa ston
Ġth y
ĠC ody
ĠThe ss
ow l
ag ree
ĠIn ver
ĠK ad
ĠK ne
ĠâĢ ³
ĠCh ance
Ġsc ler
Ġem igrated
ink a
Ġfore most
ĠÃ ł
Ġgrad ed
ĠDar ius
ĠEll ie
Ġbypass ed
Ġbrick s
Ġconfer ences
ĠExpedition ary
ĠBalk ans
ĠNiger ia
Ġamend ments
occup ied
ĠTimb aland
Ġosc ill
Ġf i
Ġf oster
le ep
ĠC annon
ĠM ask
ĠH C
ĠH ick
Ġwith stand
Ġr ift
ĠCom bs
ĠZ en
ĠQ ing
ĠWill am
Ġprot ector
ĠKe ats
Ġquar ry
ĠTim or
ĠLegend s
Ġfulf illed
Ġmonit ored
Ġc elestial
ĠM asc
ĠF ruit
ĠN ay
ĠN guy
Ġpl ac
Ġrem ar
Ġ00 7
Ġpe at
Ġinv ading
Ġtrans verse
ĠZ ah
ĠWill ow
ĠBar th
ĠPaul a
ĠInf lu
Ġtext ile
ĠKh al
Ġcustom ary
Ġsacrif ices
ĠSaw yer
mo il
Ġbutt ons
ĠRaf ael
Ġgenet ically
ĠRhy thm
Ġn em
ĠM B
im on
Ġcl over
ĠMar itime
Ġlocal ized
sp ace
sc reen
Ã¡ s
Ġsuper f
Ġacqu itted
ĠHor ace
Ġacad emics
Ġenl ist
Ġcoinc ide
Ġfemin ine
Ġd ental
ĠT AR
el ed
ĠP asc
Ġse ism
Ġ21 3
osp ace
lin ary
ĠStar gate
Ġaccording ly
Ġdiss ol
ĠOl af
ĠMass acre
Ġast rol
Ġerr one
Ġcommit ting
rov ision
Ġstere otyp
Ġbath room
ĠHob bs
ĠSoph ie
Ġarbit r
Ġepid emic
ĠNom ura
r one
Ġd amp
ĠI ps
ot ism
ĠY as
ĠAugust a
Ġbus iest
ĠAb original
Ġconflict ing
ĠChe roke
Ġapart ments
Ġsynthes ized
Ġilleg itimate
Ġworksh op
Ġnightcl ub
1 9
k iss
ĠF ighters
os c
ĠJ ub
att a
ne g
ĠBar low
Ġread ings
Ġfig ur
ĠMal aya
ĠNot es
Ġhol idays
worth y
ĠSpe er
Ġtight ly
ĠTraff ic
ĠPhilos ophy
Ġwhit ish
orpor ated
f orth
ar se
ĠC T
Ġhe al
Ġbe ak
ĠF arn
ĠL j
Ġr age
ĠU b
Ġact in
Ġdef ic
ram er
az ar
Ġob ey
Ġport able
Ġlim b
ĠNe o
Ġarch ives
Ġimag ined
ĠUl ster
ĠId a
Ġtort ured
Ġpredict able
Ġeval uated
Ġuncon stitution
ĠIceland ic
ĠC ris
Ġal pine
Ġdis agree
Ġser ge
ren s
ĠRe ef
Ġimp ose
ĠCl air
ĠBrown e
for cing
ĠLock heed
ĠFly ers
Ġdisgu ise
ĠDang erous
Ġt we
Ġm un
Ġch ol
Ġchar ters
ĠLe one
Ġbu oy
anc ies
Ġstr at
ĠHar m
ĠChrist ie
Ġrad ial
ĠSim s
stit utes
Ġobject ion
ĠBur t
Ġoffer ings
Ġpun ished
Ġselect ing
Ġassass inated
or os
Ġin mates
Ġfor wards
ĠP ius
ĠR w
ĠD yer
ĠW iggins
ĠL eth
Ġen am
Ġup right
Ġac et
Ġocc ult
Ġpar atro
ĠHer r
ĠBill ie
ĠBurn ham
Ġretail ers
Ġclar ified
ĠFu j
ĠVirt ual
g art
m ind
he asterly
en ium
Ġm ound
ĠS anche
Ġl amp
ot rop
ĠW an
ĠF ut
ul ators
ĠL ucky
Ġv oid
Ġad vers
ĠAl ison
ĠY ak
ĠSc rant
Ġfire arms
ither s
ĠKe en
ĠPri ory
ĠApp alach
Ġdistrib utor
Ġincorpor ation
ĠBre zhnev
Ġunf avor
ĠHa as
Ġarc s
ĠEle ments
Ġrenew al
ĠDram atic
ĠChile an
ĠTyr ann
Ġtyr ann
ĠParagu ay
Ġtuber culosis
ĠSanche z
in ia
nd ez
Ġp and
ĠC ain
ĠM ec
ĠM ate
Ġbe ams
Ġwh is
Ġr ides
ĠE ck
Ġpl aint
Ġsp ines
Ġte legraph
ĠBel ize
Ġbreak up
ĠGreen wich
ĠSat an
Ġcell ular
ĠRol and
Ġtim eline
Ġobst ruct
Ġencl osure
ĠSig ism
Ġp uff
ĠC i
ig ator
Ġr uth
oc he
ru z
ans on
Ġunder gone
Ġform idable
ode on
Ġmil estone
Ġgl oss
ĠMor ales
Ġhard est
ĠIr v
Ġquarter f
Ġpair ing
ĠHel ms
ĠSle ep
ĠNickel odeon
Ġm osa
Ġh ated
ol ini
ĠH ulk
pt ions
Ġar row
ĠCl ara
Ġ22 2
Ġmechan ic
ĠSant os
Ġgall eries
Ġapprec iate
ĠBlood y
Ġcondem n
ĠSchw artz
Ġscrut iny
b rough
t op
y g
Ġm igrated
Ġl ens
um per
og ram
ft en
Ġpromot ions
ĠInter continental
Ġexperiment ation
ĠConn or
ĠOffic ers
Ġprivile ge
bern atorial
Ġhered itary
ĠScrant on
Ġc eded
Ġin active
ĠT ik
ĠC od
ĠCh u
ĠV ari
rib ing
Ġdef ines
ĠWh atever
Ġimp air
Ġcirc us
Ġrepe ating
ĠRaj a
ĠInv asion
Ġrecept ions
ĠMI T
ĠBud apest
Ġincorrect ly
ĠBrend an
h oun
Ġf aults
et ics
ĠP SP
ĠL ights
ĠO de
Ġv ener
Ġpart ition
Ġdis like
ft on
ley s
Ġdown s
Ġdisc rimin
uc us
ĠPer kins
ĠAtl as
ĠSmith son
Ġdram at
Ġemphas ised
Ġ177 0
Ġmorph ological
ĠBav aria
ĠNeigh bour
Ġenroll ment
ĠDestroy er
Ġg ly
Ġfor c
ud i
ĠK are
Ġmon opoly
air y
Ġequ ations
Ġfun n
Ġregular s
Ġrespond s
Ġwild erness
ĠLux emb
ĠBriar cliff
he us
Ġp ear
Ġm old
st ed
ĠB yp
Ġv ine
op a
ĠK ai
Ġun identified
ĠV isc
rop s
ĠWill s
Ġcur ving
Ġinit iate
ĠMon itor
ĠHam asaki
ĠKe ating
ĠSam us
ĠIr win
ĠTom orrow
Ġcaptain cy
Ġprogress ively
Ġdisturb ing
ĠJag d
Ġconsec rated
Ġlac rosse
tef acts
Ġf riction
al m
ĠS ands
ĠC indy
Ġe ternal
Ġg land
ĠI ke
Ġ16 00
ĠBr an
Ġjust ices
aken ing
Ġ28 7
Ġsn out
ĠCommand o
Å¡ e
ĠCurrent ly
ĠKos ovo
ĠGetty sburg
Ġpamph let
Ġpopul ace
Ġours elves
Å Ľ
ĠB ourn
ĠL ump
ĠSt ad
Ġinter sp
ĠAn zac
Ġfinal ist
Ġconf essed
Ġgrad ient
Ġconfir ming
Ġforeign ers
ĠNin ja
ĠBre ed
ĠJud ith
ĠBarb ados
Ġvent ures
Ġterror ism
Ġrecip ients
ĠOpp osition
Ġpredict ions
Ġpor ch
Ġbetray ed
Ġcontamin ated
omencl ature
ĠHirosh ima
d aughter
p rint
Ġw ards
ĠS uez
ĠC av
ac ula
ĠM ey
Ġon stage
ĠK ok
ĠV T
Ġad s
Ġatt ested
Ġam assed
Ġnorth wards
ĠFl int
ĠMan ch
ĠMon aco
ĠSam ar
ĠGreen wood
ĠDis p
pe z
Ġcalc ulations
ĠAC LU
ĠTerr ace
Ġfeder ation
ĠMontene gro
ĠGuin ness
z ky
ec d
ĠH ogg
ĠF rem
ĠL ives
ĠG iles
ĠE aton
Ġplay wright
Ġsign atures
ĠAll ah
Ġide ological
ĠAg nes
Ġtax a
Ġdig ging
Ġabandon ing
ĠExp osition
Ġ178 8
Ġdefence man
ĠGun s
ĠXI V
opard y
ĠFant astic
Ġtaxon omic
Ġirr igation
ĠHebr ides
ĠWillam ette
Ġl ag
ix ed
ĠCom par
Ġdist racted
Ġorigin ating
gr ims
Ġcost ing
Ġden ial
Ġtur moil
ĠTem per
ĠCat al
ĠUr anus
ĠEvery body
ĠOil ers
Ġmistaken ly
Ġworksh ops
ĠKrak Ã³w
f ol
ĠM ugh
ĠW itness
ĠF rey
Ġch ocolate
iz a
ĠEn emy
ĠJo a
Ġconv ective
hys ical
com es
ĠPat erson
Ġamb ushed
ĠRom ance
CA R
Ġupd ates
ĠThr iller
Ġjudg ement
ĠAgricult ural
Ġsax ophone
Ġutter ly
Ġmusc ular
g ement
Ġc aud
Ġb unch
Ġp ants
ĠC oc
iv ores
ĠH imal
ĠW ies
ĠG Ã©
ĠO mar
Ġres ided
ult imate
ĠBl itz
Ġhist ories
Ġph ones
umb ers
ĠEgypt ians
Ġple a
Ġlog s
Ġmagn ificent
ĠRod ney
Ġharm ful
Ġsatell ites
Ġprocl amation
Ġearn est
ĠKer ala
ĠArchae ological
Ġdiscour aged
ĠKens ington
ĠGav in
Ġreconcil iation
Ġinfect ious
ĠInstr ument
a illes
u ve
re hend
Ġp itted
ĠS low
ĠS ellers
Ġst raw
ĠK af
Ġtr aps
ra il
ue ger
Ġout sp
Ġsec rets
ĠEn c
ĠInd o
ĠAnd roid
me ga
Ġbroad caster
Ġlik elihood
ĠPlay boy
Ġneg l
Ġnar c
ĠMer cer
Ġopt ional
ĠGre co
Ġgraph ical
Ġcart ridge
Ġweapon ry
Ġadvoc acy
Ġpione ered
ĠLeonard o
Ġsustain able
ĠNab lus
Ġdign ity
Ġinverte brates
h ole
en aries
Ġg em
ĠI L
ĠH oy
em ing
Ġal erted
ĠSt irling
Ġle thal
Ġcont ests
ĠSe lect
ĠWh ilst
ĠYork er
ĠEu rovision
ĠMon mouth
ĠAct ivision
Ġactiv ism
Ġpred iction
Ġap oc
ĠTw ins
Ġappl auded
Ġexcl usion
ĠWalk ing
Ġdang ers
ĠCas ual
Ġdiplom at
Ġrebell ious
ĠSi oux
Ġgraz ing
Ġextrav ag
Ġevid enced
O M
j ina
n esty
t ter
Ġb ags
ĠI v
ĠH os
ĠH omic
Ġas hes
Ġas leep
Ġhe ars
ĠG os
ill ary
ĠU sta
Ġsp elled
cl usive
ĠFl at
Ġfield ing
ĠPort o
Ġrepresent ations
ĠEv ents
Ġboy cott
ĠBec ky
Ġswe eping
ĠMid lands
ĠRoy ce
ĠSax ons
Ġbacter ial
Ġdict ator
ĠEc ology
Ġfare well
ĠCann es
Ġinsurg ents
Ġscutt led
w ic
or ian
Ġm ice
Ġn ud
ĠB ug
ĠI ber
ĠL M
her ty
Ġres up
iz oph
ĠJo hor
Ġcrit ique
ĠJu vent
Ġdevelopment al
Ġren umbered
Ġra ises
Ġpract icing
Ġamb ulance
Ġreject s
Ġencour agement
ĠDi oc
Ġaccident al
Ã¨ s
ioc ene
Ġfron ts
Ġdepr ived
ĠIps wich
z man
Ġ >
Ġp odium
Ġg rip
ĠH Ã¤
ĠD ancing
ĠF ountain
Ġal b
ĠSt ur
Ġfe ather
Ġrest ruct
Ġsum mers
Ġtur bo
Ġlif ting
ĠKir by
ĠFair banks
Ġpartn ered
ĠTel esc
ĠRoll s
Ġbackst ory
Ġcha otic
ĠCitiz en
Ġsatisfact ion
ĠSpl it
Ġalgor ithm
Ġlifesp an
Ġp our
Ġe agles
ĠL ys
ĠK ling
Ġsc outs
Ġsc enery
ĠFor um
Ġcour thouse
Ġmy c
ĠMil o
Ġbi ographical
Ġchief ly
Ġ53 0
Ġsens ation
Ġdyn am
ĠConn ie
Ġfashion able
Ġflash backs
ĠRoll ins
Ġvig orous
ĠGlou cestershire
ĠHM AS
ĠSter ling
Ġlith ium
Ġfutur istic
ĠHomic ide
or g
an ing
ĠS ieg
ĠL Ã³
Ġinc urred
ign ant
Ġim aging
Ġstory board
ĠEl m
ĠEx cept
ĠMon aster
Ġey ewall
ĠBur ma
ograph ics
ĠSar at
ĠSat ell
ĠTro uble
Ġmedic ation
Ġarchae ology
ĠArk ham
Ġdiff usion
Ġforecast s
Ġinterven ed
Ġmelod ram
ĠDrum mond
Ġphylogen etic
ĠBÃ© la
ĠHert ford
izoph ren
c ad
f man
Ġst ocks
ĠD ad
ĠL ot
Ġch ip
ily n
Ġbl ades
Ġbr ake
Ġfinal ists
Ġprop osing
Ġcor v
Ġless on
ĠComp ared
uff le
Ġconsider ations
Ġwing ed
Ġharm on
ĠProg ressive
ĠBeck et
ĠLiving stone
Ġvacc ine
ĠFlem ish
ĠLark in
ĠStrateg ic
Ġafore mentioned
as ers
ro up
ĠC ary
ĠB oss
ĠH ak
ĠW ave
est ead
Ġman power
ĠSc hed
let ons
ĠAb rams
angu ard
ĠMcC ool
Ġcontract or
Ġden oting
ĠSever e
Ġphil anthrop
Ġsand wich
Ġinstall ments
Ġresear ched
ĠExt ension
Ġdrown ing
Ġcosm ic
Ġironcl ads
Ġcinemat ographer
Ġinund ated
ĠGue vara
g t
le ading
am iliar
ĠB io
ĠD uk
ĠTh ai
Ġen ables
Ġsur m
Ġbr ave
Ġcap it
Ġgu ess
Ġhead line
ĠEl i
Ġconn ector
rif ying
aret te
ĠNat alie
ĠMik hail
Ġber th
1 5
Ġa kin
ĠC ove
ĠH im
ĠH ubble
Ġst icks
ĠD ies
ĠAr lington
ĠCl ause
Ġdiv iding
Ġscore less
Ġpur ported
isl av
Ġpen ultimate
Ġarrest s
ĠCarl ton
Ġbul b
Ġelev ations
ĠLaure nt
Ġexplan ations
Ġnas al
Ġluc rative
Ġprehist oric
ĠLÃ³ pez
f u
Ã ¯
Ġh ors
ĠG T
ĠK och
Ġrece ip
Ġdown ward
Ġhead lining
ĠGu ang
cer pt
Ġparticip ant
Ġang el
ĠSant ana
Ġmurder er
ĠFair fax
ĠGameS py
ĠVel vet
ĠCrus aders
Ġpump ing
ĠUtt ar
R E
l av
Ġb atch
ĠS ime
ig ated
ĠH ut
ag us
ĠE h
Ġv ague
Ġsp inal
Ġsp lend
Ġsc ram
ĠBl o
ĠEd itor
Ġgun ners
Ġ40 1
ĠBo is
ĠMon sters
Ġfree zing
Ġdisp ro
ĠArch ibald
Ġrespond ing
ĠJon as
Ġkick s
ĠMid west
Ġmart yr
ĠCob ain
Ġclin ic
ĠOri ent
Ġfluor ide
Ġhes it
Ġdissat isfied
ĠTren ton
ĠJard ine
M s
Ġto x
ĠR he
ĠW ain
ĠW ik
ĠL und
ĠCh loe
Ġper pendicular
Ġreg ulate
Ġest e
Ġgu bernatorial
ĠChrist gau
ĠAng lia
ĠAss y
Ġimpro per
umb ling
Ġlo ops
ĠCare ll
Ġdom ains
Ġmel anch
ĠDun stan
Ġguard ing
Ġsam pled
ĠSet tle
Ġexpert ise
izz ard
ĠInsp ired
ĠAur ora
Ġsou p
Ġcit adel
ĠCreat ive
ĠGÃ¶ ring
ĠCheroke e
b en
r iver
Ġthe ological
Ġp umps
ĠP oints
ĠF anny
od er
Ġle ts
ĠV ita
Ġar rows
Ġover shadowed
ĠSh u
Ġimp erson
Ġhum ili
ĠNe olithic
ĠAtt empt
ĠConstitution al
ĠDom estic
Ġanalog ous
Ġcinemat ography
ĠPÃ© rez
ĠFavor ite
Ġinadvert ently
ĠIro qu
Ġunconstitution al
c u
at ine
ĠC ash
ĠR ogue
ag uchi
od ic
ist ance
ĠK ou
Ġun inter
Ġint ake
ark y
Ġbr ands
ĠCar bon
Ġaut ism
ĠOr r
ĠEl aine
Ġbegin nings
ĠAct ors
ĠMart ÃŃn
ĠRock well
Ġdebut ing
Ġcontrast s
add ock
Ġroll s
Ġla ure
Ġcry ing
Ġjourney s
Ġtra um
Ġrecip es
ĠNAS CAR
Ġstere otypes
ĠStra uss
i ards
Ġ umb
Ġs ar
Ġw ires
Ġl ucky
ĠF aw
Ġthem atic
ck er
Ġimp lying
Ġgen ome
Ġrev isions
ĠÃ ĺ
ĠDo ct
Ġreason ably
ĠLand is
Ġign ore
Ġoverl apping
Ġuns at
ĠHo over
ĠExt reme
ĠTit us
Ġmask s
comm un
Ġlobb ied
ĠS utton
am ore
Ġn od
ad h
Ġst amps
ĠP ull
Ġr iffs
Ġr hin
pp o
ĠCh ili
ĠCl ive
Ġbel oved
Ġcount ing
ĠIs is
Ġref res
Ġdet r
ops y
omm un
inn y
Ġpriv acy
ĠField ing
Ġbeaut ifully
ĠEmer ald
Ġlib retto
Ġanarch ist
ĠAval anche
Ġappar atus
ĠFerm i
f ighters
Ġin k
ĠThe ft
Ġst ain
ĠP hyll
Ġr ust
ill an
oc ide
our se
ian c
ĠCh ain
ould er
Ġrec onc
Ġkn ocking
Ġrepl en
ĠThat cher
ĠSal on
Ã¶ l
ĠYoun ger
Ġtrail ers
Ġharm onies
ĠRoy ale
Ġpool s
Ġhook s
ĠTol edo
Ġsupern ova
Ġdelight ed
Ġcaut ious
ĠSarat oga
Ġreconc ile
n itz
ĠB und
ab h
pt y
Ġun used
Ġrel ics
Ġpe asant
Ġinv isible
Ġbel ts
Ġhand held
Ġcat ap
Ġcapital ism
Ġ37 5
ĠDou b
Ġload s
Ġpredomin ant
Ġpione ering
ĠSem in
Ġnurs ery
ĠEnt ry
Ġphilosopher s
ĠKÃ¶n ig
Ġhydraul ic
ĠC ancell
ĠP M
ĠP OW
ĠW anna
iz za
Ġinto xic
inal d
ĠLe ading
Ġinf amous
ĠComm anding
ĠGr ass
Ġbook let
Ġtit ular
Ġnow here
of sky
ari at
ĠSar aj
Ġsupply ing
Ġ178 1
Ġunf amiliar
Ġchor ale
Ġ59 0
ĠDal ey
anth an
Ġhoriz on
ĠTow ers
Ġprosecut or
ĠMarath on
Ġque ens
ĠPriest ley
Ġevol ve
ĠStephan ie
ĠSigism und
E A
Ġp iers
Ġre used
el ton
ĠB anner
ot hed
ĠP ure
ĠN ate
os em
og o
Ġam usement
Ġbr ush
Ġwell s
ĠCo aches
isc overed
tt es
ĠKn ock
Ġprec ious
Ġroyal ty
ĠSand ra
fr ame
ĠPun j
Ġt urtles
Ġp ile
ĠS hips
Ġth w
ĠM aid
ĠJ aguar
ment ation
Ġ20 8
ĠNew sp
Ġrel ent
ĠZ ap
Ġport ed
ĠAm ar
Ġobs essed
ĠDon key
Ġtravel ers
ĠTour ism
Ġwor ry
Ġ77 7
Ġcheck s
ĠArmen ians
Ġfisher ies
Ġconfer red
Ġgren ades
m ium
Ġb its
Ġg ir
ĠH ens
Ġat roc
00 0
ile e
Ġpart isan
ang s
Ġpres erving
ene g
ĠEl ias
Ġstat utory
ĠReg inald
ĠCro ats
Ġassist ants
Ġcert ifications
iot ic
ĠOw ens
ĠHu bert
ĠSmall ville
grad ation
Ġbarb ettes
Ġrept iles
Ġl un
ag han
Ġr aced
Ġar rog
Ġreg gae
Ġexp ose
Ġimp aired
Ġdep uties
ĠZ immer
lish ment
ĠFl air
ĠBo er
Ġdecl ines
iers hip
ĠRoyal ist
Ġmyth ological
ĠMcG overn
Ġexpect ation
Ġarchae ologists
Ġrestrict ion
Ġwet lands
ĠVers ailles
Ġfacil itated
ĠMi G
ĠWend y
Ġalumin um
Ġsanction ed
Ġpilgrim age
ĠOdys sey
H z
u en
Ġs acks
Ġp H
ĠI bra
ĠH ots
ĠF aul
ĠO ften
op per
ĠSt ing
se in
Ġro oted
ink el
sh op
Ġmid field
ĠGl am
Ġunc redited
ĠPenn y
Ġperm its
Ġ47 0
Ġencour ages
Ġ178 7
Ġimag in
ĠMcG ill
Ġgard e
Ġlegit imacy
ĠHob art
ĠOri ental
chw itz
Ġamalg am
l aw
Ġt ech
Ġf ooth
ic ism
il o
ĠA th
ĠD ul
ĠD rop
ĠF unk
ĠG A
ĠG ros
ĠIn ters
Ġor th
ĠV RS
Ġar tefacts
Ġcomm uter
ĠAn j
ek er
ĠShe pp
Ġmed itation
ĠEd ith
cl osed
Ġhum id
Ġfather s
Ġsocial ism
ĠDes mond
Ġanaly sts
Ġtable ts
ĠBor g
Ġstream ing
ĠGun n
Ġcommemor ating
Ġanalog y
Ġgenu inely
ĠKerr igan
abet es
Ġdegener ated
h is
Ġto ug
Ġm ourn
Ġh ards
ĠT ide
ĠS L
Ġg rit
ol ation
ĠP iet
ĠD ong
ĠD ifferent
Ġcon dom
ĠG add
ist o
Ġint ro
ke eping
ren ched
ets u
ĠYork e
ĠYork town
Ġref uel
sh a
yl us
isl aus
ĠStr as
ĠTer ra
Ġdom es
ĠTurn ing
enc ia
Ġsongwrit ers
Ġdisagre ements
Ġanx ious
Ġecosystem s
ĠRip ley
ĠLich tenstein
ĠDund ee
ĠBourn emouth
D IS
Ġc ake
Ġc yn
Ġf aded
ĠT ipp
ĠA J
ĠM ard
ĠD raw
ch an
ĠN ico
ĠE lev
Ġnew com
rib es
ug a
Ġfl ora
Ġlong itud
Ġoper ative
Ġcapt ures
Ġunsu itable
ĠBudd y
ĠFal un
ĠWolf gang
Ġrout inely
Ġgate house
Ġpray ers
Ġvit amin
Ġost ens
Ġhilar ious
Ġsurg ical
lighten ment
ĠUsta Å¡e
Ġh ides
Ġl onely
ĠM Äģ
ec he
ĠL ah
ill usion
ĠMar ilyn
Ġcol legiate
ĠSh o
Ġbro od
ĠNov ak
Ġ23 9
ĠHigh ways
ae an
oll ah
ĠMed ina
int osh
ĠBrown ing
ĠGold berg
ĠEp ic
Ġrecip roc
ĠPad res
ĠMaced onian
Ġsucc umb
Ġparan ormal
Ġintersp ersed
Ġa ro
in wall
Ġf ianc
ĠM aver
ĠR oses
ĠD oming
ĠG arn
ary a
Ġint est
iz on
Ġen erg
ĠTr ump
Ġperiod ically
af ord
ĠGener ally
ĠSam oa
ĠUnder wood
ĠTri angle
ĠDaniel le
Ġsort ie
Ġmyth s
ĠKat y
Ġmolec ule
ĠSep inwall
ĠÏ Ģ
Ġecl ips
ĠTact ical
ĠBax ter
h og
ĠA HL
ĠC ag
ur ring
Ġwh oles
Ġcom ets
Ġse af
Ġor thodox
Ġch ancellor
Ġte aser
Ġday time
ĠQ ur
oon er
Ġanim ations
Ġden ying
ĠConf uc
ĠRam sey
ĠPle ist
roph ies
ioc re
ĠEff ect
ĠScar borough
Ġurg ent
ĠPatri arch
Ġgam ma
ĠLans ing
Ġl ure
ĠM og
um ont
Ġsp ared
Ġun imp
so hn
og ist
Ġrec ons
ĠAl ps
Ġup ro
ug ging
Ġimp osing
Ġav ant
Ġrad i
ĠLiber t
Ġdefin ite
ĠSus que
Ġweekend s
Ġuncon ventional
Ġconce al
ĠFa ust
ĠCha os
g ame
z h
Ġst aple
ĠR T
ĠAl ma
Ġ00 00
Ġexp osing
Ġ17 00
ĠZ X
Ġlit ter
ĠFl ags
Ġ23 2
ĠVal uable
Ġnecess itated
Ġstrength s
Ġchronic ler
Ġexplo its
ĠMes opotam
Ġvulner ability
Ġpill ars
Ġconvey ed
ĠInvest ig
ĠLomb ard
ĠEleph ant
h ab
h ra
le tal
ur ia
ĠF ro
ĠV es
Ġj ets
az i
ĠPl us
Ġadm itting
Ġheart ed
Ġgrass es
Ġscout ing
Ġsoci ology
ĠThorn ton
Ġrelat ivity
ĠAus chwitz
ĠBW V
Ġs cept
as ions
ĠH aj
ĠH ours
Ġst rap
ĠR ij
ĠD ipl
ĠK ro
ĠV ogue
Ġchar tered
Ġep ile
ĠSh i
ĠCl ash
Ġclass ifications
Ġpublic ized
Ġant is
Ġaff inity
Ġunc ont
Ġdram as
Ġ95 0
Ġneut rons
ĠFried man
ĠChen nai
ĠCrus ade
ĠSpeed way
Ġparad ox
ĠLuxemb ourg
r ard
on el
ĠC andy
ĠP ens
ĠR agn
ĠW yn
og ues
Ġdes ires
ĠSc enic
Ġdep osition
ĠDe L
ĠCor onation
Ġfix tures
ĠMah ler
ĠBah Ã¡
ĠWhere as
ĠTerm in
Ġabn orm
ĠGentle men
r atives
w reck
Ġ Ð
Ġp ector
ĠT C
ĠS v
ĠB uk
ĠJ ov
ĠV ide
Ġdes irable
ĠCar men
gr up
Ġinsp ire
ĠRes ults
Ġremark ably
Ġmaster ed
Ġmut ations
ĠYe ah
Ġrenov ations
Ġweigh s
ĠWilf rid
ĠSmithson ian
ĠSaraj evo
n ick
ĠS ens
Ġl ips
ad ia
Ġfor fe
ĠH r
ĠP ere
em ate
od us
ĠâĢ ł
Ġsp ars
Ġcl ues
Ġout let
Ġsec ession
Ġgr ape
Ġcap ac
ĠShe tland
ald i
ĠSen eca
Ġdomin ation
ĠNin th
Ġliber ties
ĠRA N
ĠRivers ide
Ġcylind ers
ĠIbra him
ĠPleist ocene
Ġt ire
Ġw ishing
Ġb ald
Ġb unker
Ġd oses
Ġst ature
ĠJ od
oc us
Ġrec ession
Ġsup ersed
Ġreg ent
Ġpres idents
olog ne
ĠRec ogn
Ġfore head
Ġcompet ent
Ġval ve
ĠRobert o
co e
ĠTrans form
Ġaltern atives
ĠByzant ium
Ġdepend ence
Ġobl igation
Ġglac ier
ĠAthen ians
Ġseiz ures
ĠIrv ine
e er
[...]
