{"<s>":0,"<pad>":1,"</s>":2,"<unk>":3,"<mask>":4,"!":5,"\"":6,"#":7,"$":8,"%":9,"&":10,"'":11,"(":12,")":13,"*":14,"+":15,",":16,"-":17,".":18,"/":19,"0":20,"1":21,"2":22,"3":23,"4":24,"5":25,"6":26,"7":27,"8":28,"9":29,":":30,";":31,"<":32,"=":33,">":34,"?":35,"@":36,"A":37,"B":38,"C":39,"D":40,"E":41,"F":42,"G":43,"H":44,"I":45,"J":46,"K":47,"L":48,"M":49,"N":50,"O":51,"P":52,"Q":53,"R":54,"S":55,"T":56,"U":57,"V":58,"W":59,"X":60,"Y":61,"Z":62,"[":63,"\\":64,"]":65,"^":66,"_":67,"`":68,"a":69,"b":70,"c":71,"d":72,"e":73,"f":74,"g":75,"h":76,"i":77,"j":78,"k":79,"l":80,"m":81,"n":82,"o":83,"p":84,"q":85,"r":86,"s":87,"t":88,"u":89,"v":90,"w":91,"x":92,"y":93,"z":94,"{":95,"|":96,"}":97,"~":98,"¡":99,"¢":100,"£":101,"¤":102,"¥":103,"¦":104,"§":105,"¨":106,"©":107,"ª":108,"«":109,"¬":110,"®":111,"¯":112,"°":113,"±":114,"²":115,"³":116,"´":117,"µ":118,"¶":119,"·":120,"¸":121,"¹":122,"º":123,"»":124,"¼":125,"½":126,"¾":127,"¿":128,"À":129,"Á":130,"Â":131,"Ã":132,"Ä":133,"Å":134,"Æ":135,"Ç":136,"È":137,"É":138,"Ê":139,"Ë":140,"Ì":141,"Í":142,"Î":143,"Ï":144,"Ð":145,"Ñ":146,"Ò":147,"Ó":148,"Ô":149,"Õ":150,"Ö":151,"×":152,"Ø":153,"Ù":154,"Ú":155,"Û":156,"Ü":157,"Ý":158,"Þ":159,"ß":160,"à":161,"á":162,"â":163,"ã":164,"ä":165,"å":166,"æ":167,"ç":168,"è":169,"é":170,"ê":171,"ë":172,"ì":173,"í":174,"î":175,"ï":176,"ð":177,"ñ":178,"ò":179,"ó":180,"ô":181,"õ":182,"ö":183,"÷":184,"ø":185,"ù":186,"ú":187,"û":188,"ü":189,"ý":190,"þ":191,"ÿ":192,"Ā":193,"ā":194,"Ă":195,"ă":196,"Ą":197,"ą":198,"Ć":199,"ć":200,"Ĉ":201,"ĉ":202,"Ċ":203,"ċ":204,"Č":205,"č":206,"Ď":207,"ď":208,"Đ":209,"đ":210,"Ē":211,"ē":212,"Ĕ":213,"ĕ":214,"Ė":215,"ė":216,"Ę":217,"ę":218,"Ě":219,"ě":220,"Ĝ":221,"ĝ":222,"Ğ":223,"ğ":224,"Ġ":225,"ġ":226,"Ģ":227,"ģ":228,"Ĥ":229,"ĥ":230,"Ħ":231,"ħ":232,"Ĩ":233,"ĩ":234,"Ī":235,"ī":236,"Ĭ":237,"ĭ":238,"Į":239,"į":240,"İ":241,"ı":242,"Ĳ":243,"ĳ":244,"Ĵ":245,"ĵ":246,"Ķ":247,"ķ":248,"ĸ":249,"Ĺ":250,"ĺ":251,"Ļ":252,"ļ":253,"Ľ":254,"ľ":255,"Ŀ":256,"ŀ":257,"Ł":258,"ł":259,"Ń":260,"Ġt":261,"he":262,"Ġa":263,"in":264,"Ġthe":265,"er":266,"on":267,"Ġ,":268,"re":269,"Ġs":270,"ed":271,"Ġw":272,"Ġo":273,"nd":274,"at":275,"Ġ.":276,"or":277,"en":278,"Ġc":279,"it":280,"Ġf":281,"is":282,"es":283,"ar":284,"Ġb":285,"Ġof":286,"an":287,"Ġin":288,"al":289,"ing":290,"Ġp":291,"as":292,"Ġand":293,"Ġto":294,"ic":295,"ro":296,"Ġm":297,"Ġd":298,"Ġh":299,"ion":300,"le":301,"ou":302,"ĠT":303,"Ġre":304,"Ġ=":305,"ĠS":306,"il":307,"ĠA":308,"ent":309,"Ġ\"":310,"Ġ1":311,"Ġth":312,"st":313,"Ġl":314,"el":315,"ĠC":316,"Ġ@":317,"ĠĊ":318,"Ġe":319,"om":320,"am":321,"Ġn":322,"ad":323,"ac":324,"Ġwas":325,"un":326,"ĠM":327,"Ġon":328,"ec":329,"ĠB":330,"ĠThe":331,"ly":332,"Ġ'":333,"ur":334,"et":335,"id":336,"Ġg":337,"ol":338,"im":339,"ĠI":340,"-@":341,"Ġ@-@":342,"Ġfor":343,"ir":344,"ig":345,"iv":346,"ot":347,"ter":348,"ut":349,"ĠH":350,"Ġas":351,"us":352,"ow":353,"ith":354,"ay":355,"Ġ2":356,"Ġst":357,"ĠP":358,"Ġhe":359,"ver":360,"ation":361,"Ġwith":362,"Ġbe":363,"Ġthat":364,"ĠR":365,"ce":366,"ĠD":367,"em":368,"Ġwh":369,"ĠW":370,"Ġby":371,"ĠF":372,"ch":373,"Ġal":374,"th":375,"Ġ)":376,"Ġ(":377,"Ġis":378,"ul":379,"Ġcon":380,"ĠL":381,"Ġat":382,"ĠG":383,"ers":384,"ct":385,"ĠN":386,"ain":387,"Ġ19":388,"and":389,"Ġan":390,"os":391,"Ġit":392,"her":393,"rom":394,"ag":395,"av":396,"um":397,"ĠJ":398,"est":399,"00":400,"Ġhis":401,"Ġr":402,"ĠE":403,"unk":404,"Ġ<":405,"ri":406,"od":407,"Ġfrom":408,"ĠO":409,"ist":410,"Ġcom":411,"ap":412,"Ġpro":413,"Ġv":414,"op":415,"if":416,"ore":417,"ill":418,"ld":419,"up":420,"ere":421,"ew":422,"res":423,"igh":424,"ĠIn":425,"ies":426,"Ġde":427,"art":428,"ber":429,"ard":430,"ort":431,"Ġse":432,"Ġwere":433,"ich":434,"ate":435,"ak":436,"all":437,"ab":438,"ant":439,"oc":440,"ud":441,"Ġex":442,"ong":443,"qu":444,"Ġor":445,"Ġch":446,"gh":447,"ear":448,"ated":449,"Ġpl":450,"Ġsh":451,"ess":452,"ity":453,"ip":454,"ĠK":455,"ive":456,"ame":457,"ĠU":458,"Ġâ":459,"Ġhad":460,"ect":461,"ack":462,"our":463,"ĠâĢ":464,"ĠSt":465,"Ġsu":466,"red":467,"ast":468,"se":469,"Ġwhich":470,"Ġk":471,"ment":472,"Ġle":473,"ge":474,"und":475,"Ġare":476,"ov":477,"ian":478,"ial":479,"Ġnot":480,"Ġsp":481,"ell":482,"ost":483,"Ġy":484,"ight":485,"Ġtr":486,"ord":487,"ust":488,"ary":489,"ia":490,"ther":491,"rit":492,"pt":493,"ine":494,"Ġ3":495,"oun":496,"ical":497,"ave":498,"pp":499,"ĠCh":500,"Ġ200":501,"Ġun":502,"cc":503,"Ġinc":504,"fter":505,"ould":506,"Ġbut":507,"irst":508,"ish":509,"ous":510,"ions":511,"ĠV":512,"te":513,"Ġcomp":514,"so":515,"ff":516,"Ġ20":517,"ide":518,"Ġwhe":519,"Ġro":520,"ure":521,"Ġar":522,"Ġcont":523,"ra":524,"ub":525,"Ġ;":526,"Ġfirst":527,"ign":528,"Ġcl":529,"wo":530,"Ġher":531,"ie":532,"Ġits":533,"Ġtheir":534,"ue":535,"ĠâĢĵ":536,"og":537,"orm":538,"ass":539,"ork":540,"Ġint":541,"Ġres":542,"Ġ:":543,"ok":544,"ĠHe":545,"ater":546,"Ġalso":547,"Ġab":548,"Ġad":549,"ome":550,"ond":551,"out":552,"age":553,"ry":554,"mer":555,"ire":556,"hed":557,"Ġus":558,"du":559,"Ġ4":560,"ime":561,"low":562,"ru":563,"Ġper":564,"per":565,"ans":566,"Ġwho":567,"Ġone":568,"Ġhave":569,"Ġ5":570,"ĠTh":571,"Ġsc":572,"pl":573,"ally":574,"own":575,"ile":576,"ance":577,"Ġrec":578,"Ġ18":579,"ted":580,".@":581,"Ġ@.@":582,"Ġtwo":583,"ition":584,"ugh":585,"ree":586,"ence":587,"uring":588,"port":589,"Ġbeen":590,"Ġpart":591,"Ġbec":592,"ts":593,"Ġhas":594,"ice":595,"iz":596,"Ġag":597,"Ġapp":598,"ĠAl":599,"Ġ201":600,",@":601,"Ġ@,@":602,"ough":603,"Ġen":604,"Ġj":605,"Ġdis":606,"lud":607,"Ġover":608,"Ġthis":609,"Ġser":610,"ory":611,"Ġyear":612,"ely":613,"ations":614,"are":615,"ember":616,"ction":617,"ound":618,"ke":619,"Ġoff":620,"Ġafter":621,"Ġup":622,"ach":623,"Ġplay":624,"Ġdes":625,"land":626,"ĠIt":627,"ace":628,"over":629,"ark":630,"ric":631,"Ġthey":632,"Ġout":633,"Ġte":634,"ade":635,"Ġother":636,"act":637,"Ġman":638,"ib":639,"Ġim":640,"ult":641,"Ġinclud":642,"ress":643,"ced":644,"ail":645,"urn":646,"ĠY":647,"wn":648,"Ġwould":649,"ens":650,"ind":651,"Ġtime":652,"Ġinto":653,"man":654,"Ġpre":655,"ang":656,"one":657,"ĠOn":658,"ep":659,"ward":660,"ĠUn":661,"Ġhim":662,"Ġwe":663,"oin":664,"we":665,"ite":666,"ates":667,"Ġshe":668,"Ġ6":669,"les":670,"ren":671,"Ġev":672,"able":673,"Ġatt":674,"ased":675,"ilm":676,"ited":677,"amp":678,"end":679,"ever":680,"ied":681,"ase":682,"Ġcomm":683,"ors":684,"Ġinter":685,"rough":686,"ount":687,"oy":688,"form":689,"ons":690,"Ġall":691,"Ġmore":692,"Ġwork":693,"ood":694,"ces":695,"Ġ7":696,"ered":697,"old":698,"aw":699,"ings":700,"vel":701,"ĠAr":702,"ild":703,"Ġnew":704,"Ġsec":705,"ĠAn":706,"Ġbet":707,"ick":708,"ose":709,"Ġwhen":710,"Ġfilm":711,"inal":712,"ve":713,"Ġfe":714,"ents":715,"ious":716,"ake":717,"way":718,"aus":719,"fer":720,"att":721,"reat":722,"ft":723,"Ġcons":724,"iss":725,"round":726,"Ġ8":727,"ĠMar":728,"Ġrem":729,"gan":730,"rib":731,"rop":732,"ved":733,"ason":734,"Ġdec":735,"Ġduring":736,"Ġund":737,"orth":738,"ubl":739,"Ġagain":740,"hip":741,"Ġmost":742,"Ġgame":743,"Ġ9":744,"Ġpr":745,"ĠAs":746,"Ġthem":747,"Ġ199":748,"Ġonly":749,"oth":750,"ween":751,"Ġear":752,"ix":753,"ollow":754,"Ġthan":755,"ath":756,"Ġsup":757,"Ġne":758,"ational":759,"fore":760,"ĠSe":761,"ĠNew":762,"Ġabout":763,"Ġprodu":764,"ob":765,"Ġcent":766,"Ġkn":767,"tern":768,"Ġret":769,"Ġchar":770,"Ġsong":771,"Ġcan":772,"outh":773,"ug":774,"Ġbetween":775,"Ġlater":776,"ey":777,"Ġrele":778,"Ġunder":779,"Ġthree":780,"orn":781,"ict":782,"Ġcol":783,"Ġact":784,"hn":785,"ton":786,"iew":787,"Ġ00":788,"aid":789,"ron":790,"Ġthrough":791,"als":792,"Ġqu":793,"orld":794,"Ġnum":795,"ĠEn":796,"ook":797,"Ġso":798,"Ġacc":799,"Ġme":800,"Ġrel":801,"Ġwhile":802,"Ġend":803,"meric":804,"ank":805,"ĠAmeric":806,"lect":807,"Ġfl":808,"ters":809,"Ġpos":810,"ĠLe":811,"ral":812,"ock":813,"Ġsub":814,"Ġass":815,"Ġwhere":816,"ular":817,"ating":818,"Ġver":819,"Ġday":820,"Ġreg":821,"Ġsecond":822,"Ġbu":823,"ener":824,"Ġmade":825,"ĠCom":826,"ames":827,"ision":828,"ived":829,"ck":830,"Ġpe":831,"Ġrecord":832,"hes":833,"Ġdef":834,"bum":835,"Ġfour":836,"ĠRe":837,"son":838,"Ġgro":839,"Ġfollow":840,"Ġseason":841,"Ġ000":842,"Ġform":843,"Ġsome":844,"Ġep":845,"Ġsuch":846,"ished":847,"Ġam":848,"Ġmov":849,"ool":850,"Ġbefore":851,"ained":852,"Ġmus":853,"Ġthere":854,"Ġwrit":855,"ph":856,"ĠJo":857,"ĠSp":858,"Ġspec":859,"ics":860,"ike":861,"Ġ10":862,"Ġyears":863,"Ġteam":864,"iel":865,"Ġsy":866,"io":867,"hen":868,"ode":869,"ĠThis":870,"ĠAt":871,"Ġ/":872,"ident":873,"ual":874,"Ġlar":875,"Ġalbum":876,"Ġind":877,"owever":878,"ily":879,"Ġused":880,"Ġent":881,"Ġgr":882,"ros":883,"ning":884,"Ġcall":885,"Ġsur":886,"ific":887,"Ġhigh":888,"Ġac":889,"Ġpubl":890,"ury":891,"ĠSh":892,"Ġbeing":893,"Ġepis":894,"Ġthen":895,"velop":896,"Ġdo":897,"Ġloc":898,"led":899,"Ġexp":900,"ten":901,"ife":902,"Ġagainst":903,"Ġ17":904,"Ġinv":905,"aj":906,"other":907,"ris":908,"Ġpres":909,"Ġbl":910,"anc":911,"Ġnumber":912,"Ġshow":913,"ĠAfter":914,"Ġcharac":915,"Ġ0":916,"Ġsever":917,"Ġadd":918,"Ġset":919,"Ġco":920,"ince":921,"ane":922,"Ġbecame":923,"Ġrece":924,"ject":925,"ĠBrit":926,"ause":927,"Ġlead":928,"Ġperform":929,"Ġincluding":930,"Ġbr":931,"Ġsing":932,"Ġno":933,"ĠâĢĶ":934,"ars":935,"ather":936,"ek":937,"erm":938,"ĠUnited":939,"Ġfound":940,"Ġwell":941,"ines":942,"Ġrep":943,"Ġmon":944,"Ġpol":945,"air":946,"Ġback":947,"Ġboth":948,"Ġseries":949,"Ġ198":950,"Ġcap":951,"ĠSc":952,"ale":953,"Ġ15":954,"Ġ12":955,"ober":956,"Ġship":957,"ier":958,"ower":959,"ement":960,"ired":961,"ures":962,"ĠCon":963,"its":964,"Ġmain":965,"ĠWh":966,"ivers":967,"Ġ194":968,"ĠShe":969,"ert":970,"Ġmin":971,"ley":972,"pen":973,"overn":974,"Ġdid":975,"iet":976,"Ġgo":977,"der":978,"Ġcre":979,"elf":980,"Ġdevelop":981,"Ġimp":982,"ĠEng":983,"ram":984,"ities":985,"Ġlong":986,"Ġmet":987,"ik":988,"ann":989,"iver":990,"ised":991,"any":992,"ven":993,"olog":994,"ting":995,"ared":996,"ĠJohn":997,"Ġmill":998,"ird":999,"Ġem":1000,"Ġair":1001,"uch":1002,"ful":1003,"Ġmat":1004,"Ġepisode":1005,"tend":1006,"az":1007,"irect":1008,"ll":1009,"Ġsaid":1010,"Ġstud":1011,"Ġmany":1012,"Ġbro":1013,"ute":1014,"Ġdep":1015,"Ġcould":1016,"ative":1017,"Ġorig":1018,"Ġcar":1019,"Ġ16":1020,"Ġcontin":1021,"Ġwar":1022,"Ġseveral":1023,"ĠAmerican":1024,"though":1025,"Ġdif":1026,"Ġinst":1027,"Ġpop":1028,"ĠInd":1029,"ĠCl":1030,"ash":1031,"ouse":1032,"ield":1033,"Ġknown":1034,"Ġ197":1035,"emb":1036,"ise":1037,"ually":1038,"Ġ196":1039,"ty":1040,"ĠAust":1041,"Ġconc":1042,"til":1043,"ĠBr":1044,"Ġ11":1045,"iam":1046,"view":1047,"ins":1048,"ĠWar":1049,"erson":1050,"Ġob":1051,"ued":1052,"Ġreturn":1053,"Ġbegan":1054,"Ġany":1055,"Ġsm":1056,"Ġcomple":1057,"Ġdesign":1058,"Ġdesc":1059,"Ġsign":1060,"ern":1061,"ople":1062,"chool":1063,"ross":1064,"ange":1065,"my":1066,"Ġest":1067,"ĠFr":1068,"aking":1069,"ccess":1070,"Ġtrans":1071,"Ġprov":1072,"ĠDe":1073,"Ġfeat":1074,"oot":1075,"hy":1076,"Ġinf":1077,"Ġrun":1078,"Ġearly":1079,"Ġart":1080,"Ġmusic":1081,"Ġown":1082,"Ġdist":1083,"ah":1084,"Ġnear":1085,"Ġreleased":1086,"ided":1087,"Ġuntil":1088,"ĠBl":1089,"rap":1090,"Ġcalled":1091,"ized":1092,"ism":1093,"Ġeff":1094,"imes":1095,"ĠCol":1096,"ĠUS":1097,"Ġresp":1098,"Ġbel":1099,"Ġpass":1100,"une":1101,"ured":1102,"stem":1103,"Ġfin":1104,"ĠZ":1105,"ially":1106,"ĠMay":1107,"ists":1108,"Ġdown":1109,"ution":1110,"enn":1111,"Ġdisc":1112,"Ġcrit":1113,"ments":1114,"osed":1115,"Ġdirect":1116,"Ġgener":1117,"Ġalong":1118,"xt":1119,"Ġins":1120,"Ġmillion":1121,"Ġprev":1122,"ĠBritish":1123,"ĠGer":1124,"Ġgroup":1125,"Ġoffic":1126,"Ġfam":1127,"Ġ13":1128,"Ġthese":1129,"ajor":1130,"ium":1131,"ull":1132,"Ġmod":1133,"Ġmay":1134,"Ġ$":1135,"ax":1136,"Ġopen":1137,"cept":1138,"Ġmil":1139,"eb":1140,"Ġpoin":1141,"els":1142,"ains":1143,"ĠAd":1144,"Ġland":1145,"Ġsim":1146,"gest":1147,"Ġhist":1148,"Ġgovern":1149,"ĠAug":1150,"ger":1151,"ĠSept":1152,"ĠBe":1153,"Ġsuccess":1154,"Ġstr":1155,"ĠSeptember":1156,"ĠAugust":1157,"erv":1158,"ĠStates":1159,"ĠWorld":1160,"Ġoper":1161,"Ġcount":1162,"Ġattack":1163,"ible":1164,"uc":1165,"Ġgu":1166,"Ġsame":1167,"Ġuse":1168,"ĠAp":1169,"wards":1170,"Ġdescrib":1171,"Ġpeople":1172,"ets":1173,"Ġcharacter":1174,"aced":1175,"Ġbecause":1176,"ĠFor":1177,"amed":1178,"ink":1179,"ĠAll":1180,"aining":1181,"ĠIs":1182,"Ġlike":1183,"yp":1184,"Ġserv":1185,"Ġ14":1186,"ĠJu":1187,"Ġaround":1188,"Ġthough":1189,"Ġstart":1190,"aving":1191,"Ġ195":1192,"Ġed":1193,"Ġkm":1194,"Ġwin":1195,"Ġconst":1196,"Ġtook":1197,"Ġocc":1198,"ues":1199,"ĠAustral":1200,"ruct":1201,"Ġbatt":1202,"ĠPl":1203,"ĠOct":1204,"ĠGerman":1205,"ner":1206,"Ġann":1207,"Ġsupport":1208,"ped":1209,"ĠNov":1210,"Ġfollowing":1211,"Ġdr":1212,"Ġsix":1213,"ove":1214,"Ġnorth":1215,"ĠTr":1216,"Ġele":1217,"Ġ193":1218,"ĠHowever":1219,"Ġsystem":1220,"Ġappear":1221,"ĠQ":1222,"Ã©":1223,"Ġfinal":1224,"Ġreceived":1225,"Ġclass":1226,"uss":1227,"ĠCar":1228,"ĠOctober":1229,"Ġconsid":1230,"Ġprom":1231,"Ġhead":1232,"ives":1233,"ants":1234,"ĠDec":1235,"Ġ191":1236,"ility":1237,"Ġever":1238,"Ġstate":1239,"Ġbuild":1240,"ene":1241,"Ġeach":1242,"ically":1243,"Ġfive":1244,"ling":1245,"Ġadv":1246,"Ġext":1247,"anu":1248,"ĠPro":1249,"Ġcentury":1250,"ĠYork":1251,"Ġaut":1252,"Ġarea":1253,"Ġvar":1254,"ret":1255,"Ġwill":1256,"ĠThey":1257,"Ġsmall":1258,"ately":1259,"Ġbo":1260,"rol":1261,"Ġpartic":1262,"Ġlife":1263,"gin":1264,"ĠNorth":1265,"iving":1266,"Ġreport":1267,"get":1268,"Ġ]":1269,"Ġ[":1270,"ored":1271,"tle":1272,"ĠJune":1273,"oss":1274,"ĠBy":1275,"ording":1276,"ril":1277,"Ġcity":1278,"ĠMe":1279,"Ġmajor":1280,"Ġweek":1281,"ĠKing":1282,"Ġpublic":1283,"ians":1284,"Ġmar":1285,"ĠJuly":1286,"Ġ%":1287,"ission":1288,"Ġconf":1289,"Ġband":1290,"ection":1291,"Ġref":1292,"ĠNovember":1293,"med":1294,"urch":1295,"ĠHar":1296,"Ġrest":1297,"ĠComm":1298,"Ġworld":1299,"Ġsince":1300,"ĠWill":1301,"inc":1302,"Ġmed":1303,"Ġsingle":1304,"ina":1305,"raft":1306,"ĠApril":1307,"esp":1308,"por":1309,"lish":1310,"Ġdet":1311,"ĠMarch":1312,"Ġjust":1313,"ried":1314,"Ġlast":1315,"ĠPr":1316,"ected":1317,"omet":1318,"hest":1319,"ural":1320,"ional":1321,"Ġturn":1322,"ĠEd":1323,"ively":1324,"Ġallow":1325,"aim":1326,"ĠMc":1327,"Ġhel":1328,"ilt":1329,"ĠCan":1330,"Ġ30":1331,"ient":1332,"ĠGr":1333,"Ġarr":1334,"Ġpo":1335,"Ġleft":1336,"ague":1337,"Ġlarge":1338,"Ġline":1339,"Ġdiffer":1340,"idge":1341,"Ġcare":1342,"ĠSouth":1343,"ĠGe":1344,"cl":1345,"Ġsouth":1346,"ĠDuring":1347,"ales":1348,"ified":1349,"Ġbook":1350,"Ġvers":1351,"Ġschool":1352,"empt":1353,"ĠDecember":1354,"Ġthird":1355,"rist":1356,"avy":1357,"Ġsl":1358,"ble":1359,"Ġincre":1360,"ats":1361,"ĠOr":1362,"Ġmonth":1363,"Ġdue":1364,"Ġappro":1365,"ined":1366,"Ġplayed":1367,"..":1368,"Ġmuch":1369,"Ġevent":1370,"Ġ25":1371,"Ġif":1372,"Ġanother":1373,"rote":1374,"ĠJanu":1375,"ĠJanuary":1376,"Ġincluded":1377,"Ġ192":1378,"Ġwhat":1379,"row":1380,"Ġbased":1381,"Ġplace":1382,"eng":1383,"Ġshort":1384,"aged":1385,"ĠII":1386,"by":1387,"Ġgovernment":1388,"Ġexpl":1389,"ĠPh":1390,"ograp":1391,"Ġperson":1392,"Ġwrote":1393,"ĠWhen":1394,"Ġtrack":1395,"ony":1396,"ball":1397,"Ġcamp":1398,"Ġold":1399,"Ġtit":1400,"Ġname":1401,"apan":1402,"Ġdeath":1403,"Ġbre":1404,"ently":1405,"alf":1406,"Ġport":1407,"Ġph":1408,"ages":1409,"ĠEu":1410,"Ġelect":1411,"Ġ...":1412,"ĠJapan":1413,"Ġwon":1414,"ience":1415,"ple":1416,"Ġchild":1417,"ne":1418,"Ġlit":1419,"Ġprot":1420,"Ġkill":1421,"Ġeng":1422,"Ġstory":1423,"Ġprog":1424,"ideo":1425,"Ġpower":1426,"oad":1427,"Ġreview":1428,"ody":1429,"Ġvis":1430,"Ġhome":1431,"ital":1432,"Ġled":1433,"ĠBro":1434,"Ġdescribed":1435,"Ġprevious":1436,"Ġrequ":1437,"Ġcour":1438,"Ġfamily":1439,"Ġgun":1440,"ĠTe":1441,"oman":1442,"Ġway":1443,"ott":1444,"Ġnamed":1445,"Ġright":1446,"Ġnow":1447,"urther":1448,"Ġdem":1449,"Ġeven":1450,"iven":1451,"Ġmake":1452,"iod":1453,"ĠMus":1454,"Ġmen":1455,"embers":1456,"ilar":1457,"Ġleg":1458,"ged":1459,"iversity":1460,"Ġattempt":1461,"ister":1462,"reen":1463,"Ġbest":1464,"ention":1465,"itions":1466,"omin":1467,"ĠÂ":1468,"Ġrepl":1469,"ivision":1470,"Ġopp":1471,"Ġ100":1472,"Ġgames":1473,"cy":1474,"rench":1475,"aff":1476,"ached":1477,"Ġterm":1478,"ĠGu":1479,"Ġcommand":1480,"Ġtop":1481,"ior":1482,"Ġhand":1483,"Ġposs":1484,"ival":1485,"Ġbelie":1486,"Ġvery":1487,"Ġdam":1488,"Ġthose":1489,"ĠHis":1490,"ĠAnd":1491,"ness":1492,"ĠFeb":1493,"ont":1494,"ĠEurop":1495,"mp":1496,"ruary":1497,"ĠFebruary":1498,"Ġiss":1499,"Ġstill":1500,"Ġorgan":1501,"Ġnext":1502,"Ġspecies":1503,"ĠFl":1504,"Ġeffect":1505,"Ġview":1506,"riend":1507,"ances":1508,"self":1509,"ĠChrist":1510,"Ġpar":1511,"Ġcapt":1512,"ĠThere":1513,"ps":1514,"ĠNational":1515,"aken":1516,"Ġoriginal":1517,"oci":1518,"ature":1519,"Ġspe":1520,"ences":1521,"Ġwater":1522,"Ġaddition":1523,"Ġjoin":1524,"ox":1525,"ched":1526,"ĠEurope":1527,"Ġlist":1528,"sh":1529,"ĠWe":1530,"ery":1531,"Ġwithin":1532,"Ġperiod":1533,"Ġmembers":1534,"lu":1535,"Ġmark":1536,"Ġheld":1537,"Ġbuilt":1538,"ĠFrench":1539,"Ġdeb":1540,"Ġexper":1541,"Ġrelease":1542,"Ġ2010":1543,"Ġalthough":1544,"Ġlate":1545,"Ġformer":1546,"hor":1547,"Ġgreat":1548,"Ġmatch":1549,"ĠBar":1550,"rew":1551,"alk":1552,"Ġsold":1553,"lev":1554,"Ġdest":1555,"augh":1556,"uted":1557,"Ġcur":1558,"ney":1559,"tended":1560,"Ġvideo":1561,"line":1562,"Ġcaus":1563,"Ġstorm":1564,"ented":1565,"ĠWest":1566,"ards":1567,"Ġcover":1568,"ring":1569,"Ġinit":1570,"ĠPar":1571,"Ġrole":1572,"Ġ21":1573,"ropical":1574,"ĠWilliam":1575,"Ġcame":1576,"Ġestab":1577,"Ġav":1578,"Ġtri":1579,"Ġdays":1580,"Ġresult":1581,"ĠAm":1582,"af":1583,"Ġmid":1584,"Ġcontrol":1585,"ption":1586,"Ġstand":1587,"Ġreal":1588,"Ġpolit":1589,"ulation":1590,"ides":1591,"Ġhowever":1592,"ech":1593,"ler":1594,"ĠHer":1595,"itary":1596,"au":1597,"oon":1598,"hel":1599,"Ġ2008":1600,"Ġcr":1601,"Ġmy":1602,"Ġ2009":1603,"Ġprop":1604,"Ġfew":1605,"Ġtown":1606,"ĠMin":1607,"ĠX":1608,"aster":1609,"Ġwind":1610,"ĠGeor":1611,"ense":1612,"Ġyou":1613,"Ġside":1614,"Ġtw":1615,"Ġ24":1616,"Ġcontinued":1617,"Ġoften":1618,"akes":1619,"atic":1620,"na":1621,"Ġequ":1622,"Ġlocal":1623,"Ġsk":1624,"Ġ2011":1625,"ĠEar":1626,"Ġpost":1627,"Ġamong":1628,"ĠMan":1629,"Ġsay":1630,"Ġsimilar":1631,"ham":1632,"ruction":1633,"tal":1634,"ĠAir":1635,"omb":1636,"ĠChar":1637,"ĠMich":1638,"Ġclaim":1639,"ead":1640,"Ġhum":1641,"elt":1642,"estern":1643,"gy":1644,"Ġ&":1645,"ĠEngland":1646,"omen":1647,"side":1648,"ator":1649,"reet":1650,"ĠNo":1651,"Ġdifferent":1652,"br":1653,"Ġsug":1654,"read":1655,"ract":1656,"let":1657,"Ġbeh":1658,"Ġdel":1659,"Ġfurther":1660,"Ġtyp":1661,"ying":1662,"ese":1663,"Ġsent":1664,"ĠRec":1665,"Ġlevel":1666,"ves":1667,"Ġconsidered":1668,"Ġtake":1669,"ĠDav":1670,"Ġlaw":1671,"ology":1672,"Ġfre":1673,"Ġ2007":1674,"Ġ22":1675,"ops":1676,"Ġcareer":1677,"eter":1678,"ĠOne":1679,"par":1680,"ots":1681,"Ġproduction":1682,"esc":1683,"Ġhalf":1684,"urs":1685,"uck":1686,"ĠPark":1687,"Ġhaving":1688,"ices":1689,"ĠCity":1690,"ampions":1691,"ms":1692,"ĠEnglish":1693,"ĠAcc":1694,"app":1695,"ĠEl":1696,"ung":1697,"Ġmoved":1698,"Ġeast":1699,"Ġroad":1700,"Ġmag":1701,"Ġant":1702,"ĠCo":1703,"yl":1704,"Ġwithout":1705,"Ġevery":1706,"Ġwest":1707,"ĠAlthough":1708,"me":1709,"ering":1710,"rodu":1711,"Ġappe":1712,"Ġplayer":1713,"Ġ2012":1714,"Ġposition":1715,"Ġbecome":1716,"Ġplan":1717,"ĠCent":1718,"Ġhistory":1719,"Ġversion":1720,"Ġconv":1721,"Ġcor":1722,"ondon":1723,"ĠAng":1724,"ront":1725,"bo":1726,"ĠCount":1727,"Ġcast":1728,"Ġinflu":1729,"ĠLondon":1730,"Ġel":1731,"Ġhouse":1732,"vers":1733,"ches":1734,"Ġsound":1735,"ford":1736,"Ġcommun":1737,"ones":1738,"yle":1739,"Ġfore":1740,"Ġ23":1741,"ĠCal":1742,"Ġsuggest":1743,"Ġclub":1744,"ize":1745,"Ġstrong":1746,"Ġinvol":1747,"ĠBatt":1748,"Ġwritten":1749,"irc":1750,"atter":1751,"Ġ190":1752,"ĠWith":1753,"Ġless":1754,"Ġbas":1755,"aul":1756,"Ġstat":1757,"Ġannoun":1758,"utes":1759,"Ġfoot":1760,"ĠRiver":1761,"Ġorder":1762,"ape":1763,"Ġrefer":1764,"iety":1765,"rest":1766,"ĠCanad":1767,"Ġprof":1768,"craft":1769,"Ġpoint":1770,"Ġgiven":1771,"sequ":1772,"Ġaff":1773,"Ġtem":1774,"Ġlow":1775,"Ġtrad":1776,"Ġhig":1777,"Ġwant":1778,"ĠUniversity":1779,"Ġgave":1780,"ĠGener":1781,"Ġrad":1782,"iqu":1783,"Ġke":1784,"rent":1785,"Ġfar":1786,"Ġimport":1787,"Ġnever":1788,"ĠWhile":1789,"Ġchang":1790,"Ġdefe":1791,"ailed":1792,"ald":1793,"Ġreturned":1794,"Ġpat":1795,"Ġsoc":1796,"ories":1797,"Ġrepres":1798,"Ġtotal":1799,"Ġvict":1800,"Ġtro":1801,"Ġfact":1802,"Ġgood":1803,"ĠHigh":1804,"ĠPol":1805,"Ġcompany":1806,"Ġwent":1807,"Ġcountry":1808,"aly":1809,"Ġcomb":1810,"Ġfire":1811,"Ġfriend":1812,"cess":1813,"Ġpublished":1814,"roy":1815,"Ġhour":1816,"ison":1817,"sp":1818,"Ġproduced":1819,"ges":1820,"levision":1821,"Ġfind":1822,"Ġreported":1823,"aun":1824,"Ġorigin":1825,"isc":1826,"Ġyoun":1827,"Ġ2006":1828,"ably":1829,"Ġlost":1830,"Ġstated":1831,"aign":1832,"Ġcommon":1833,"Ġprogram":1834,"ille":1835,"ĠEx":1836,"Ġparticular":1837,"Ġlight":1838,"ai":1839,"Ġord":1840,"Ġadm":1841,"ĠSm":1842,"ington":1843,"con":1844,"Ġinclude":1845,"ĠAccording":1846,"echn":1847,"urric":1848,"Ġcompet":1849,"Ġrecorded":1850,"used":1851,"Ġbuilding":1852,"Ġpress":1853,"gr":1854,"hing":1855,"err":1856,"ief":1857,"Ġneed":1858,"Ġproject":1859,"Ġforces":1860,"Ġbus":1861,"ĠSy":1862,"Ġnort":1863,"Ġships":1864,"Ġshould":1865,"Ġusing":1866,"Ġeight":1867,"Ġinterest":1868,"ĠAb":1869,"Ġperformance":1870,"aren":1871,"Ġservice":1872,"Ġpopular":1873,"Ġ27":1874,"ĠThese":1875,"Ġide":1876,"ploy":1877,"Ġ50":1878,"Ġtimes":1879,"iment":1880,"raw":1881,"Ġmaking":1882,"Ġ28":1883,"Ġaircraft":1884,"Ġten":1885,"Ġhimself":1886,"Ġ2013":1887,"Ġauthor":1888,"oyal":1889,"ned":1890,"Ġfather":1891,"Ġmilitary":1892,"tain":1893,"iness":1894,"ĠAustralia":1895,"ĠSw":1896,"osp":1897,"Ġbattle":1898,"Ġanim":1899,"ampionship":1900,"lear":1901,"ĠSec":1902,"ĠJack":1903,"Ġsit":1904,"Ġlim":1905,"Ġsongs":1906,"Ġsomet":1907,"ĠAss":1908,"atch":1909,"Ġfr":1910,"Ġread":1911,"outher":1912,"ĠNe":1913,"ae":1914,"Ġcritic":1915,"ĠPres":1916,"ensive":1917,"Ġdevelopment":1918,"play":1919,"ĠAf":1920,"ither":1921,"ords":1922,"Ġhow":1923,"ĠGeneral":1924,"alth":1925,"Ġsw":1926,"itive":1927,"quad":1928,"olution":1929,"ĠState":1930,"Ġ40":1931,"ĠSte":1932,"eder":1933,"outhern":1934,"ases":1935,"ĠJames":1936,"Ġgl":1937,"Ġ189":1938,"Ġcross":1939,"Ġ26":1940,"Ġground":1941,"ĠDr":1942,"Ġft":1943,"cer":1944,"Ġstar":1945,"Ġremained":1946,"ĠCor":1947,"astern":1948,"acy":1949,"Ġcharacters":1950,"ĠArmy":1951,"Ġnational":1952,"Ġget":1953,"Ġste":1954,"Ġmonths":1955,"Ġsuff":1956,"Ġpresent":1957,"Ġdied":1958,"rick":1959,"oll":1960,"Ġgen":1961,"Ġdeveloped":1962,"ries":1963,"Ġtitle":1964,"ublic":1965,"rie":1966,"work":1967,"Ġsum":1968,"Ġfun":1969,"ĠComp":1970,"Ġchart":1971,"dom":1972,"Ġcampaign":1973,"urricane":1974,"Ġforce":1975,"Ġchildren":1976,"ĠLeague":1977,"fic":1978,"ument":1979,"ream":1980,"Ġintrodu":1981,"ration":1982,"bs":1983,"Ġpromot":1984,"Ġtour":1985,"ency":1986,"itted":1987,"eth":1988,"ĠBo":1989,"Ġsignific":1990,"Ġacross":1991,"isted":1992,"lands":1993,"Ġson":1994,"Ġaway":1995,"ĠGl":1996,"ression":1997,"Ġrelations":1998,"ael":1999,"Ġred":2000,"hern":2001,"Ġobs":2002,"Ġofficial":2003,"Ġfield":2004,"Ġhistor":2005,"ĠDivision":2006,"Ġfav":2007,"Ġpra":2008,"Ġfelt":2009,"aur":2010,"ĠAmerica":2011,"lege":2012,"Ġnoted":2013,"Ġfac":2014,"Ġnight":2015,"most":2016,"Ġannounced":2017,"Ġreached":2018,"ĠRuss":2019,"Ġintern":2020,"ĠSim":2021,"Ġcreated":2022,"ĠCounty":2023,"Ġareas":2024,"Ġdestroy":2025,"Ġtelevision":2026,"ĠJapanese":2027,"Ġ2005":2028,"ask":2029,"Ġstation":2030,"ĠRoad":2031,"ĠRep":2032,"Ġcoun":2033,"alt":2034,"Ġsuccessful":2035,"ressed":2036,"ole":2037,"Ġrock":2038,"imately":2039,"Ġask":2040,"ĠSup":2041,"Ġarm":2042,"ĠStreet":2043,"vent":2044,"Ġvarious":2045,"yn":2046,"ĠâĢĻ":2047,"Ġval":2048,"Ġpolitical":2049,"Ġseen":2050,"reg":2051,"Ġfollowed":2052,"Ġaver":2053,"Ġtoo":2054,"ĠMad":2055,"Ġbar":2056,"Ġrank":2057,"Ġtrav":2058,"ĠMon":2059,"Ġperformed":2060,"iting":2061,"ising":2062,"ĠRober":2063,"Ġcult":2064,"Ġserved":2065,"ĠEast":2066,"Ġ2014":2067,"Ġplayers":2068,"cast":2069,"ĠGeorge":2070,"iber":2071,"ĠReg":2072,"Ġ29":2073,"Ġfull":2074,"Ġcond":2075,"Ġdecl":2076,"Ġrev":2077,"Ġbegin":2078,"Ġprim":2079,"ope":2080,"duct":2081,"Ġblack":2082,"ality":2083,"ination":2084,"elling":2085,"Ġfle":2086,"Ġput":2087,"Ġearl":2088,"Ġcirc":2089,"field":2090,"Ġcost":2091,"idence":2092,"Ġsee":2093,"Ġsol":2094,"Ġprocess":2095,"omp":2096,"hem":2097,"Ġstyle":2098,"ĠHen":2099,"abor":2100,"Ġlook":2101,"Ġtest":2102,"ization":2103,"Ġdiv":2104,"Ġseven":2105,"Ġenc":2106,"reek":2107,"ĠTo":2108,"Ġkilled":2109,"Ġaud":2110,"ays":2111,"Ġhelp":2112,"ĠPhil":2113,"rict":2114,"lished":2115,"Ġlet":2116,"Ġthroughout":2117,"Ġvol":2118,"Ġtaken":2119,"ĠSer":2120,"Ġtropical":2121,"Ġable":2122,"ĠBill":2123,"Ġfight":2124,"Ġdiscover":2125,"Ġnon":2126,"Ġagre":2127,"Ġlittle":2128,"ertain":2129,"Ġwid":2130,"ecut":2131,"Ġbecom":2132,"Ġcy":2133,"Ġsignificant":2134,"Ġage":2135,"Ġfem":2136,"ĠEm":2137,"ett":2138,"Ġmeet":2139,"Ġhit":2140,"Ġident":2141,"Ġspecial":2142,"Ġtechn":2143,"ways":2144,"Ġwriting":2145,"Ġer":2146,"oice":2147,"Ġstruct":2148,"Ġthought":2149,"Ġestablished":2150,"irl":2151,"Ġbroad":2152,"Ġcop":2153,"enced":2154,"Ġfront":2155,"Ġbody":2156,"Ġmm":2157,"Ġappeared":2158,"Ġdoes":2159,"ĠDavid":2160,"ĠAct":2161,"Ġentire":2162,"ĠAustralian":2163,"ĠPart":2164,"Ġcoll":2165,"epend":2166,"Ġpoints":2167,"Ġcoast":2168,"Ġ!":2169,"Ġmiles":2170,"cil":2171,"ĠPer":2172,"Ġaward":2173,"aval":2174,"Ġimpro":2175,"Ġroute":2176,"Ġmember":2177,"ĠRich":2178,"ought":2179,"ground":2180,"Ġwomen":2181,"Ġactiv":2182,"Ġrange":2183,"odes":2184,"ĠMor":2185,"Ġcaused":2186,"Ġstarted":2187,"Ġdecided":2188,"ript":2189,"urg":2190,"ivil":2191,"ĠYou":2192,"Ġfeatures":2193,"lected":2194,"ĠAfric":2195,"Ġgeneral":2196,"ĠMed":2197,"Ġpain":2198,"Ġeventually":2199,"day":2200,"less":2201,"aves":2202,"hys":2203,"iers":2204,"iron":2205,"conom":2206,"ĠRoyal":2207,"Ġrace":2208,"ators":2209,"iec":2210,"Ġvot":2211,"ming":2212,"ster":2213,"ana":2214,"Ġgrow":2215,"ĠPe":2216,"Ġmanag":2217,"Ġarch":2218,"Ġfeet":2219,"idd":2220,"ogn":2221,"Ġtoget":2222,"Ġtogether":2223,"Ġadded":2224,"rison":2225,"Ġhold":2226,"ĠHouse":2227,"ĠHist":2228,"Ġcut":2229,"ius":2230,"Ġonce":2231,"Ġwhite":2232,"Ġ188":2233,"here":2234,"ivid":2235,"ĠMy":2236,"Ġformed":2237,"ample":2238,"Ġtre":2239,"Ġlocated":2240,"lin":2241,"itar":2242,"Ġnov":2243,"Ġstri":2244,"Ġarg":2245,"ĠSch":2246,"Ġmodern":2247,"Ġconn":2248,"Ġinstead":2249,"rought":2250,"bert":2251,"Ġround":2252,"ĠQu":2253,"emy":2254,"umb":2255,"men":2256,"Ġesc":2257,"orts":2258,"ĠBlack":2259,"aces":2260,"Ġball":2261,"Ġimportant":2262,"hic":2263,"Ġmix":2264,"omm":2265,"ĠIntern":2266,"ades":2267,"Ġcrew":2268,"Ġpri":2269,"Ġsaw":2270,"Ġaction":2271,"urb":2272,"Ġcompleted":2273,"Ġ31":2274,"cing":2275,"Ġredu":2276,"head":2277,"Ġplaying":2278,"ects":2279,"ĠIndian":2280,"ĠOther":2281,"oney":2282,"ray":2283,"Ġ2004":2284,"off":2285,"ament":2286,"cent":2287,"Ġinsp":2288,"Ġpopulation":2289,"Ġmater":2290,"Ġinvest":2291,"ee":2292,"Ġbase":2293,"Ġsurv":2294,"ĠMichael":2295,"Ġmot":2296,"ells":2297,"Ġrather":2298,"Ġvoc":2299,"Ġoccur":2300,"Ġopened":2301,"Ġstage":2302,"Ġbehind":2303,"Ġothers":2304,"Ġ186":2305,"ush":2306,"Ġfall":2307,"Ġguns":2308,"Ġbrother":2309,"ceed":2310,"asing":2311,"Ġren":2312,"Ġcomment":2313,"Ġlik":2314,"igned":2315,"Ġborn":2316,"ements":2317,"Ġfif":2318,"Ġsite":2319,"Ġ2015":2320,"Ġlive":2321,"Ġworks":2322,"aps":2323,"Ġloss":2324,"stit":2325,"ĠFrance":2326,"Ġworked":2327,"Ġbomb":2328,"ficult":2329,"Ġheavy":2330,"Ġmiss":2331,"int":2332,"Ġra":2333,"Ġpred":2334,"Ġsubsequ":2335,"ĠSchool":2336,"Ġlack":2337,"Ġparty":2338,"medi":2339,"Ġproble":2340,"Ġdifficult":2341,"Ġclose":2342,"lection":2343,"wood":2344,"Ġconstruction":2345,"ĠWash":2346,"Ġknow":2347,"ĠSome":2348,"Ġrelationship":2349,"Ġweeks":2350,"Ġhost":2351,"Ġoriginally":2352,"gg":2353,"Ġsepar":2354,"Ġassoci":2355,"ĠHam":2356,"Ġupon":2357,"Ġpract":2358,"ĠHenry":2359,"Ġleading":2360,"Ġappoin":2361,"nder":2362,"Ġalmost":2363,"ĠNor":2364,"Ġvill":2365,"Ġyoung":2366,"ĠRobert":2367,"Ġpeak":2368,"Ġdamage":2369,"Ġinj":2370,"ara":2371,"istic":2372,"Ġscored":2373,"ĠSan":2374,"Ġfourth":2375,"ĠPort":2376,"Ġinform":2377,"Ġreve":2378,"Ġ2000":2379,"osition":2380,"Ġprovided":2381,"arch":2382,"ĠBest":2383,"Ġmer":2384,"ĠAle":2385,"uk":2386,"ĠMusic":2387,"Ġcase":2388,"Ġgoal":2389,"Ġclos":2390,"Ġengine":2391,"anch":2392,"Ġreb":2393,"Ġcreat":2394,"ata":2395,"Ġaccept":2396,"ĠBattle":2397,"Ġscene":2398,"lic":2399,"Ġmi":2400,"Ġhuman":2401,"board":2402,"ĠVir":2403,"Ġdev":2404,"ĠStar":2405,"Ġbrought":2406,"ĠDesp":2407,"oring":2408,"ellow":2409,"Ġfree":2410,"Ġindivid":2411,"Ġ500":2412,"angu":2413,"Ġ187":2414,"Ġfeatured":2415,"Ġmother":2416,"ĠPresident":2417,"ĠRed":2418,"ĠPaul":2419,"Ġleast":2420,"Ġallowed":2421,"Ġworking":2422,"Ġking":2423,"Ġresul":2424,"Ġlaun":2425,"ĠCour":2426,"Ġaverage":2427,"Ġtowards":2428,"ological":2429,"Ġwanted":2430,"ĠRou":2431,"Ġtradition":2432,"Ġindust":2433,"Ġregion":2434,"Ġbusiness":2435,"ĠWashington":2436,"ened":2437,"Ġtroops":2438,"Ġplaced":2439,"azine":2440,"Ġquick":2441,"ule":2442,"Ġeither":2443,"Ġrespect":2444,"Ġoffice":2445,"Ġcritics":2446,"ĠQue":2447,"Ġavail":2448,"Ġve":2449,"antic":2450,"Ġreach":2451,"ĠCap":2452,"Ġexample":2453,"Ġmult":2454,"ĠPlay":2455,"Ġruns":2456,"Ġmaterial":2457,"ĠMil":2458,"Ġprofess":2459,"Ġhon":2460,"Ġeconom":2461,"Ġrecogn":2462,"aut":2463,"Ġwife":2464,"ĠHol":2465,"ula":2466,"iff":2467,"Ġestim":2468,"earch":2469,"Ġarmy":2470,"Ġneg":2471,"Ġfoc":2472,"oid":2473,"chie":2474,"ĠDespite":2475,"ential":2476,"Ġ2003":2477,"iol":2478,"ĠBel":2479,"Ġsex":2480,"ĠFollow":2481,"rey":2482,"arm":2483,"Ġsour":2484,"Ġgenerally":2485,"ength":2486,"Ġjoined":2487,"Ġce":2488,"Ġmass":2489,"ĠAg":2490,"Ġrail":2491,"quadron":2492,"ĠThom":2493,"Ġproper":2494,"Ġdou":2495,"ama":2496,"Ġcurrent":2497,"ĠAngel":2498,"ica":2499,"ĠHill":2500,"ino":2501,"Ġevents":2502,"Ġrepresent":2503,"Ġbelieved":2504,"to":2505,"ĠCup":2506,"ving":2507,"ourn":2508,"Ġparticip":2509,"Ġter":2510,"Ġbill":2511,"ĠFollowing":2512,"ĠHall":2513,"Ġfig":2514,"ĠGame":2515,"enes":2516,"sc":2517,"ĠFirst":2518,"ĠMary":2519,"uff":2520,"Ġvictory":2521,"Ġreplaced":2522,"Ġ35":2523,"ĠGreat":2524,"be":2525,"Ġdesigned":2526,"Ġmph":2527,"artment":2528,"Ġrul":2529,"Ġsoon":2530,"Ġnomin":2531,"itch":2532,"iction":2533,"Ġisland":2534,"ĠLou":2535,"itte":2536,"Ġfund":2537,"ze":2538,"Ġhours":2539,"ĠEuropean":2540,"Ġemploy":2541,"ĠTwo":2542,"xic":2543,"Ġpresident":2544,"erous":2545,"Ġinvolved":2546,"go":2547,"Ã¡":2548,"oms":2549,"Ġsurf":2550,"ĠKe":2551,"Ġfinished":2552,"ĠJe":2553,"Ġstru":2554,"aled":2555,"ification":2556,"ĠChampionship":2557,"merc":2558,"ĠGro":2559,"aper":2560,"asion":2561,"Ġbreak":2562,"west":2563,"inist":2564,"ky":2565,"Ġsaying":2566,"fall":2567,"uel":2568,"oor":2569,"Ġhor":2570,"Ġcourt":2571,"Ġthreat":2572,"Ġshot":2573,"Ġopening":2574,"Ġscore":2575,"ĠMart":2576,"ĠRoman":2577,"Ġregular":2578,"ago":2579,"emor":2580,"key":2581,"Ġdirector":2582,"Ġlength":2583,"ĠÃ":2584,"Ġdesp":2585,"Ġindic":2586,"Ġconduct":2587,"Ġlargest":2588,"ĠLa":2589,"Ġcontrib":2590,"ĠScott":2591,"Ġpossible":2592,"ecutive":2593,"Ġunc":2594,"Ġhighway":2595,"Ġminutes":2596,"ĠRoute":2597,"Ġsouthern":2598,"Ġill":2599,"ĠDan":2600,"Ġz":2601,"Ġdro":2602,"ville":2603,"BC":2604,"ĠMal":2605,"Ġexc":2606,"Ġhighest":2607,"Ġly":2608,"Ġremov":2609,"Ġearlier":2610,"ishing":2611,"ĠFrom":2612,"Ġinitially":2613,"ĠDon":2614,"Ġ2001":2615,"ander":2616,"of":2617,"Ġhom":2618,"Ġavailable":2619,"Ġparticularly":2620,"Ġpercent":2621,"antry":2622,"ĠAtl":2623,"now":2624,"anned":2625,"co":2626,"Ġtraining":2627,"ude":2628,"Ġsequ":2629,"leg":2630,"Ġhard":2631,"ĠRepublic":2632,"ĠSing":2633,"Ġforced":2634,"Ġexist":2635,"ĠCro":2636,"Ġmust":2637,"ĠMet":2638,"ply":2639,"inn":2640,"cher":2641,"Ġgrad":2642,"ĠWil":2643,"Ġcontr":2644,"arn":2645,"ĠCharles":2646,"ĠKingdom":2647,"ĠNavy":2648,"ights":2649,"ĠVal":2650,"ĠÂ°":2651,"Ġpark":2652,"hib":2653,"iding":2654,"Ġended":2655,"Ġrespons":2656,"Ġquar":2657,"ĠMac":2658,"ography":2659,"asy":2660,"Ġturned":2661,"ateg":2662,"Ġsocial":2663,"ĠThomas":2664,"ĠInternational":2665,"oul":2666,"ipp":2667,"Ġwall":2668,"ĠOff":2669,"uture":2670,"Ġstudio":2671,"rian":2672,"iforn":2673,"Ġchange":2674,"Ġlangu":2675,"Ġpraised":2676,"ĠVirgin":2677,"ems":2678,"Ġpassed":2679,"ĠDep":2680,"Ġhy":2681,"ĠMcC":2682,"ĠWhite":2683,"Ġincreased":2684,"Ġpiec":2685,"Ġobject":2686,"Ġpriv":2687,"ĠBut":2688,"Ġhurricane":2689,"bor":2690,"ĠMag":2691,"Ġeduc":2692,"Ġregard":2693,"Ġnorthern":2694,"atural":2695,"ĠBrown":2696,"heast":2697,"Ġ2002":2698,"ĠRes":2699,"Ġkeep":2700,"Ġcentral":2701,"ĠChurch":2702,"iation":2703,"Ġphys":2704,"Ġnovel":2705,"ĠBer":2706,"ĠCanada":2707,"Ġrelig":2708,"Ġappearance":2709,"ĠCaliforn":2710,"Ġunits":2711,"Ġspeed":2712,"sel":2713,"itor":2714,"Ġsuper":2715,"ership":2716,"Ġpast":2717,"ĠPal":2718,"Ġchurch":2719,"Ġstop":2720,"Ġimmedi":2721,"ended":2722,"anks":2723,"ocr":2724,"ĠSmith":2725,"ĠRock":2726,"Ġsym":2727,"Ġordered":2728,"Ġmeas":2729,"ĠCam":2730,"aughter":2731,"Ġdisp":2732,"Ġtreat":2733,"ĠBay":2734,"uter":2735,"ĠSen":2736,"ios":2737,"Ġtaking":2738,"ference":2739,"ĠRichard":2740,"ittee":2741,"Ġindepend":2742,"Ġsigned":2743,"Ġlove":2744,"Ġmove":2745,"Ġquest":2746,"anding":2747,"ĠCalifornia":2748,"Ġachie":2749,"ĠAlex":2750,"ston":2751,"ilities":2752,"Ġbetter":2753,"ĠSam":2754,"etwork":2755,"rem":2756,"ĠUnion":2757,"val":2758,"aker":2759,"pped":2760,"Ġpers":2761,"ique":2762,"ĠSl":2763,"ĠGovern":2764,"ecess":2765,"den":2766,"arily":2767,"Ġwinds":2768,"ĠIr":2769,"ĠIsland":2770,"Ġcommerc":2771,"Ġenough":2772,"Ġpositive":2773,"agon":2774,"Ġinn":2775,"Ġwat":2776,"apt":2777,"Ġaccording":2778,"ĠCourt":2779,"Ġspent":2780,"ears":2781,"Ġhous":2782,"ĠGod":2783,"Ġgoing":2784,"rated":2785,"rup":2786,"ĠMo":2787,"Ġabove":2788,"Ġoutside":2789,"elled":2790,"Ġslow":2791,"Ġap":2792,"Ġfilms":2793,"nel":2794,"ump":2795,"Ġpot":2796,"Ġfeel":2797,"ume":2798,"Ġtold":2799,"ids":2800,"Ġfootball":2801,"ĠVict":2802,"ĠAward":2803,"ĠCong":2804,"Ġpreviously":2805,"Ġrecording":2806,"Ġclear":2807,"Ġstates":2808,"quare":2809,"Ġ1990":2810,"Ġmean":2811,"ĠMill":2812,"ĠAssoci":2813,"uation":2814,"Ġnine":2815,"ĠUp":2816,"Ġfailed":2817,"Ġsubject":2818,"Ġassist":2819,"Ġcome":2820,"usion":2821,"ĠCompany":2822,"Ġrequired":2823,"Ġpur":2824,"ĠJos":2825,"Ġelements":2826,"Ġprob":2827,"osing":2828,"reng":2829,"Ġ60":2830,"ĠGermany":2831,"ĠIndia":2832,"alion":2833,"com":2834,"ks":2835,"Ġey":2836,"Ġreviews":2837,"edy":2838,"Ġinterview":2839,"Ġcru":2840,"Ġlower":2841,"Ġparts":2842,"ĠCr":2843,"ĠStud":2844,"tr":2845,"Ġ45":2846,"Ġitself":2847,"atin":2848,"ĠArt":2849,"Ġthink":2850,"ĠPeter":2851,"ĠChristian":2852,"Ġpay":2853,"Ġdirected":2854,"ida":2855,"oph":2856,"ĠMark":2857,"Ġnar":2858,"Ġabs":2859,"Ġdespite":2860,"for":2861,"itz":2862,"Ġsil":2863,"Ġflow":2864,"Ġcred":2865,"Ġesp":2866,"Ġcontract":2867,"ĠGold":2868,"Ġ185":2869,"ands":2870,"ĠAc":2871,"ĠThat":2872,"Ġdebut":2873,"Ġphot":2874,"ĠMer":2875,"Ġ?":2876,"ĠÂ£":2877,"Ġrain":2878,"ibility":2879,"ĠTimes":2880,"ĠNY":2881,"erved":2882,"ready":2883,"Ġaccess":2884,"isl":2885,"Ġbeginning":2886,"Ġgroups":2887,"ĠTom":2888,"ĠCollege":2889,"het":2890,"oke":2891,"Ġviol":2892,"nes":2893,"Ġsection":2894,"Ġbeg":2895,"ĠUK":2896,"Ġwhose":2897,"onna":2898,"ĠSov":2899,"asons":2900,"Ġclaimed":2901,"hester":2902,"ows":2903,"Ġasked":2904,"ĠCast":2905,"ĠWestern":2906,"Ġinternational":2907,"Ġlines":2908,"Ġtransfer":2909,"bers":2910,"ĠPat":2911,"Ġrap":2912,"Ġcou":2913,"Ġstreng":2914,"Ġgive":2915,"Ġscreen":2916,"ĠSoviet":2917,"onse":2918,"airs":2919,"rief":2920,"Ġadditional":2921,"aint":2922,"Ġfuture":2923,"ability":2924,"Ġleague":2925,"Ġkey":2926,"Ġwhom":2927,"ĠMexic":2928,"ĠFrank":2929,"Ġpoor":2930,"ĠSpan":2931,"berg":2932,"ma":2933,"Ġgold":2934,"ĠFilm":2935,"ĠAwards":2936,"acted":2937,"Ġintroduced":2938,"Ġtravel":2939,"Ġbi":2940,"Ġche":2941,"Ġfort":2942,"Ġevidence":2943,"Ġop":2944,"lying":2945,"Ġprem":2946,"Ġsea":2947,"Ġidea":2948,"Ġquickly":2949,"Ġdon":2950,"ĠGrand":2951,"igan":2952,"ki":2953,"ĠDem":2954,"Ġalready":2955,"van":2956,"Ġcenter":2957,"Ġbridge":2958,"ĠDo":2959,"Ġfrequ":2960,"ĠForce":2961,"onst":2962,"Ġelection":2963,"Ġproduct":2964,"ĠSoc":2965,"ĠMost":2966,"Ġoccup":2967,"ĠBen":2968,"Ġexcept":2969,"Ġ1970":2970,"Ġdeal":2971,"usp":2972,"atory":2973,"ecially":2974,"Ġpil":2975,"ĠCoun":2976,"Ġusually":2977,"Ġarrived":2978,"Ġmusical":2979,"Ġ1980":2980,"Ġwestern":2981,"anded":2982,"Ġpen":2983,"eum":2984,"irth":2985,"Ġblock":2986,"mar":2987,"Ġradio":2988,"ĠBritain":2989,"Ġcal":2990,"Ġ32":2991,"liam":2992,"Ġcivil":2993,"aring":2994,"ergy":2995,"eal":2996,"ully":2997,"Ġfemale":2998,"Ġsometimes":2999,"ex":3000,"Ġstudy":3001,"ĠRob":3002,"Ġresponse":3003,"back":3004,"Ġcycl":3005,"Ġfood":3006,"Ġmoney":3007,"Ġdecision":3008,"Ġmagazine":3009,"Ġespecially":3010,"ĠDay":3011,"Ġissue":3012,"ship":3013,"ĠLater":3014,"Ġenv":3015,"ĠOver":3016,"liament":3017,"ĠPac":3018,"ĠHot":3019,"ĠVictor":3020,"Ġsurface":3021,"ites":3022,"Ġflood":3023,"Ġmight":3024,"Ġlab":3025,"Ġliter":3026,"Ġcarried":3027,"Ġshows":3028,"Ġguitar":3029,"ĠChic":3030,"Ġcommunity":3031,"Ġestimated":3032,"bour":3033,"Ġconstruct":3034,"unt":3035,"Ġremain":3036,"Ġremaining":3037,"Ġ1999":3038,"Ġeastern":3039,"Ġminor":3040,"Ġdefeated":3041,"Ġdeterm":3042,"eck":3043,"ĠVirginia":3044,"ĠEarly":3045,"Ġapprox":3046,"Ġlarger":3047,"inent":3048,"ession":3049,"Ġbecoming":3050,"aries":3051,"Ġcomplete":3052,"ĠMount":3053,"Ġpolice":3054,"Ġwood":3055,"Ġsuggested":3056,"porary":3057,"Ġmedia":3058,"Ġpressure":3059,"Ġentered":3060,"Ġshoot":3061,"ĠBur":3062,"ĠFranc":3063,"Ġteams":3064,"ĠIm":3065,"Ġcommercial":3066,"Ġlatter":3067,"Ġlyric":3068,"Ġmarket":3069,"ĠLos":3070,"Ġconsider":3071,"Ġstudents":3072,"Ġdoc":3073,"ĠJust":3074,"Ġsurround":3075,"ift":3076,"Ġinvestig":3077,"erve":3078,"ss":3079,"Ġbrief":3080,"asc":3081,"Ġconcern":3082,"Ġ36":3083,"Ġpersonal":3084,"ĠSecond":3085,"Ġ80":3086,"Ġlo":3087,"Ġcertain":3088,"Ġprison":3089,"ulf":3090,"Ġdiscuss":3091,"ĠIf":3092,"ĠTex":3093,"Ġacqu":3094,"ena":3095,"inct":3096,"ĠInf":3097,"Ġeffects":3098,"ĠJackson":3099,"Ġcomplet":3100,"Ġappointed":3101,"Ġbur":3102,"Ġsummer":3103,"Ġhop":3104,"Ġepisodes":3105,"ederal":3106,"Ġprior":3107,"alled":3108,"gen":3109,"acing":3110,"incip":3111,"ĠFle":3112,"change":3113,"Ġder":3114,"Ġsize":3115,"enth":3116,"Ġstaff":3117,"Ġemer":3118,"Ġchanges":3119,"ises":3120,"ĠFlor":3121,"ĠLouis":3122,"Ġcommission":3123,"Ġsat":3124,"ĠOly":3125,"Ġwinning":3126,"Ġlimited":3127,"Ġtar":3128,"Ġscenes":3129,"imate":3130,"Ġleaving":3131,"Ġdestroyed":3132,"Ġfleet":3133,"Ġriver":3134,"ĠOlymp":3135,"ulated":3136,"Ġdraw":3137,"ĠClub":3138,"NA":3139,"ĠSpanish":3140,"Ġself":3141,"Ġrights":3142,"Ġden":3143,"Ġprovide":3144,"Ġwriter":3145,"ournal":3146,"igade":3147,"Ġtype":3148,"idents":3149,"Ġpolic":3150,"Ġfail":3151,"ires":3152,"Ġdate":3153,"vey":3154,"han":3155,"Ġterrit":3156,"Ġproposed":3157,"ension":3158,"Ġinfluence":3159,"Ġtrib":3160,"Ġgirl":3161,"ĠParty":3162,"Ġ75":3163,"Ġoverall":3164,"Ġarrang":3165,"ests":3166,"Ġstructure":3167,"su":3168,"Ġtransport":3169,"Ġ1960":3170,"Ġ184":3171,"ties":3172,"Ġtax":3173,"iser":3174,"Ġequip":3175,"Ġcontro":3176,"Ġdivision":3177,"Ġkil":3178,"sy":3179,"Ġscript":3180,"ĠGreen":3181,"inese":3182,"Ġ300":3183,"ĠAssociation":3184,"Ġagreed":3185,"Ġroom":3186,"Ġintended":3187,"iral":3188,"yr":3189,"ores":3190,"ĠEdward":3191,"Ġrunning":3192,"Ġanti":3193,"Ġjud":3194,"ĠChicago":3195,"Ġdaughter":3196,"Ġbow":3197,"Ġbroadcast":3198,"Ġnearly":3199,"Ġpurch":3200,"Ġsupported":3201,"ending":3202,"Ġbig":3203,"Ġdeep":3204,"Ġresearch":3205,"ĠMany":3206,"ĠPri":3207,"Ġwide":3208,"Ġestablish":3209,"Ġhelped":3210,"ĠAdm":3211,"imum":3212,"atives":3213,"Ġmarried":3214,"Ġmovement":3215,"ĠChinese":3216,"Ġ1998":3217,"Ġawarded":3218,"tt":3219,"II":3220,"aded":3221,"ĠDu":3222,"ĠCouncil":3223,"Ġlay":3224,"Ġmultip":3225,"ĠSong":3226,"AF":3227,"ĠOper":3228,"Ġcreate":3229,"Ġfavor":3230,"Ġdisplay":3231,"Ġintens":3232,"atively":3233,"lo":3234,"Ġdi":3235,"Ġbird":3236,"Ġdark":3237,"ĠEnter":3238,"Ġsusp":3239,"que":3240,"rd":3241,"Ġdiss":3242,"Ġstars":3243,"pris":3244,"teen":3245,"ga":3246,"ĠEv":3247,"Ġlonger":3248,"iles":3249,"ĠCont":3250,"Ġlanguage":3251,"Ġhigher":3252,"sen":3253,"Ġplanned":3254,"Ġcompared":3255,"Ġcaptured":3256,"dle":3257,"Ġincreasing":3258,"Ġfans":3259,"Ġstay":3260,"ĠRo":3261,"Ġconclud":3262,"Ġcourse":3263,"ha":3264,"Ġchanged":3265,"selves":3266,"Ġexperience":3267,"ĠJohnson":3268,"Ġapproximately":3269,"ĠServ":3270,"Ġrelated":3271,"Ġdone":3272,"Ġfeature":3273,"Ġfifth":3274,"Ġliving":3275,"Ġcat":3276,"Ġthemselves":3277,"omer":3278,"ĠEmp":3279,"ounds":3280,"ronic":3281,"Ġproducer":3282,"ĠHistory":3283,"enty":3284,"tained":3285,"ĠKore":3286,"ĠItal":3287,"Ġtemper":3288,"Ġtracks":3289,"Ġmostly":3290,"Ġspace":3291,"ĠPacific":3292,"ĠLit":3293,"Ġwithd":3294,"isions":3295,"abit":3296,"burg":3297,"ĠBillboard":3298,"Ġthus":3299,"Ġ70":3300,"Ġ-":3301,"Ġ33":3302,"Ġwoman":3303,"Ġoperations":3304,"Ġremains":3305,"Ġdead":3306,"ĠBack":3307,"Ġparen":3308,"Ġquarter":3309,"Ġbring":3310,"Ġour":3311,"Ġnatural":3312,"Ġwhether":3313,"ĠSuper":3314,"ĠNot":3315,"olic":3316,"thing":3317,"umn":3318,"ĠBet":3319,"Ġimm":3320,"Ġweap":3321,"Ġprobably":3322,"ĠFinal":3323,"Ġsoldiers":3324,"Ġconcept":3325,"Ġdram":3326,"andon":3327,"ĠSal":3328,"ĠApp":3329,"Ġcopies":3330,"ĠScot":3331,"Ġult":3332,"imin":3333,"Ġbuildings":3334,"Ġleader":3335,"Ġsyn":3336,"Ġextended":3337,"Ġvoice":3338,"ĠSince":3339,"Ġ1997":3340,"Ġlyrics":3341,"Ġface":3342,"ĠInter":3343,"ĠAtlantic":3344,"Ġforward":3345,"Ġdepart":3346,"can":3347,"Ġboy":3348,"Ġcomplex":3349,"oint":3350,"Ġboard":3351,"ĠMont":3352,"Ġreact":3353,"Ġissued":3354,"Ġbattles":3355,"Ġchall":3356,"iant":3357,"riage":3358,"Ġreally":3359,"Ġcountries":3360,"Ġheav":3361,"vin":3362,"iring":3363,"Ġsuffered":3364,"ospital":3365,"ĠCongress":3366,"Ġcm":3367,"ĠLake":3368,"ĠLove":3369,"Ġgoals":3370,"Ġincludes":3371,"ĠFlorida":3372,"ĠSever":3373,"Ġimmediately":3374,"raz":3375,"ĠKn":3376,"Ġattend":3377,"ĠSun":3378,"ams":3379,"ĠBoth":3380,"ĠFort":3381,"Ġdeg":3382,"Ġbreed":3383,"Ġmixed":3384,"Ġmanager":3385,"Ġprivate":3386,"Ġcapital":3387,"che":3388,"Ġofficers":3389,"Ġlikely":3390,"ĠJim":3391,"ĠJew":3392,"Ġemb":3393,"hood":3394,"Ġ37":3395,"Ġcann":3396,"ĠBig":3397,"Ġdistrib":3398,"lebr":3399,"ĠQueen":3400,"ĠOld":3401,"Ġremoved":3402,"ĠTexas":3403,"Ġinitial":3404,"Ġincrease":3405,"Ġplant":3406,"Ġmach":3407,"ĠSea":3408,"venue":3409,"Ġhealth":3410,"Ġsubsequently":3411,"Ġleave":3412,"Ġplans":3413,"Ġalways":3414,"ibr":3415,"uz":3416,"Ġfocus":3417,"ĠTown":3418,"Ġservices":3419,"Ġnetwork":3420,"Ġstatus":3421,"Ġvia":3422,"Ġcoin":3423,"Ġmount":3424,"hold":3425,"ections":3426,"Ġcompan":3427,"Ġlocation":3428,"Ġvisit":3429,"ĠChina":3430,"ÃŃ":3431,"ĠDist":3432,"bury":3433,"ĠAnother":3434,"urt":3435,"ĠLaw":3436,"Ġproblems":3437,"ĠMr":3438,"order":3439,"ĠLord":3440,"rial":3441,"Ġoffered":3442,"Ġinstr":3443,"Ġflag":3444,"Ġterms":3445,"ĠEarth":3446,"Ġmodel":3447,"ĠHow":3448,"Ġnorm":3449,"uth":3450,"Ġapproach":3451,"ny":3452,"aily":3453,"Ġcolon":3454,"Ġsomething":3455,"Ġvillage":3456,"Ġadminist":3457,"Ġtons":3458,"Ġfell":3459,"Ġcarry":3460,"ounted":3461,"ging":3462,"stant":3463,"Ġmur":3464,"ĠCamp":3465,"Ġmajority":3466,"ironment":3467,"ria":3468,"Ġtow":3469,"Ġprofessional":3470,"ĠCanadian":3471,"Ġ183":3472,"ctor":3473,"orning":3474,"ili":3475,"ously":3476,"ĠTrans":3477,"ĠTor":3478,"ĠBoy":3479,"amer":3480,"ĠIts":3481,"ari":3482,"adium":3483,"Ġgot":3484,"Ġtor":3485,"ĠRail":3486,"ĠAfrica":3487,"Ġcause":3488,"ograph":3489,"Ġconsist":3490,"ills":3491,"uries":3492,"Ġdamaged":3493,"Ġinters":3494,"Ġmeeting":3495,"ĠWood":3496,"well":3497,"Ġappears":3498,"ĠTour":3499,"ĠStep":3500,"Ġjob":3501,"Ġconfir":3502,"Ġcounter":3503,"Ġminute":3504,"Ġadop":3505,"aches":3506,"etic":3507,"ĠPet":3508,"Ġranked":3509,"Ġran":3510,"Ġcomposed":3511,"Ġindividual":3512,"Ġrevealed":3513,"ĠCenter":3514,"ĠSquadron":3515,"ĠHighway":3516,"Ġmeth":3517,"Ġattacks":3518,"Ġflight":3519,"ĠRussian":3520,"itect":3521,"reater":3522,"cean":3523,"Ġsch":3524,"Ġplot":3525,"Ġdiscovered":3526,"Ġraised":3527,"ĠTur":3528,"ware":3529,"Ġrespectively":3530,"Ġfinanc":3531,"ys":3532,"umed":3533,"Ġmakes":3534,"ĠMur":3535,"ify":3536,"ĠCarol":3537,"ij":3538,"Ġnumerous":3539,"ĠCentral":3540,"ĠKent":3541,"Ġ1995":3542,"ĠSir":3543,"ĠMartin":3544,"Ġassociated":3545,"oes":3546,"ien":3547,"Ġtakes":3548,"ĠAngeles":3549,"Ġaltern":3550,"ĠIII":3551,"ĠOl":3552,"reak":3553,"Ġneeded":3554,"Ġinspired":3555,"aging":3556,"Ġdomin":3557,"mon":3558,"Ġlived":3559,"Ġ90":3560,"ĠAnt":3561,"Ġlaunched":3562,"Ġyet":3563,"Ġanc":3564,"Ġnature":3565,"ription":3566,"olk":3567,"Ġoccurred":3568,"ĠBow":3569,"Ġcontains":3570,"Ġvehic":3571,"Ġcoach":3572,"fact":3573,"Ġshown":3574,"Ġcand":3575,"Ġbene":3576,"Ġattempted":3577,"Ġpow":3578,"estival":3579,"ails":3580,"Ġattacked":3581,"Ġmoving":3582,"Ġconditions":3583,"uments":3584,"Ġupper":3585,"uals":3586,"ĠDV":3587,"ault":3588,"Ġamb":3589,"Ġsales":3590,"Ġdig":3591,"Ġaccomp":3592,"ective":3593,"ĠGroup":3594,"ĠYear":3595,"Ġcollect":3596,"Ġ2016":3597,"joy":3598,"ĠTV":3599,"down":3600,"Ġissues":3601,"ĠMiss":3602,"Ġ1996":3603,"ĠRh":3604,"aught":3605,"Ġbirth":3606,"Ġ34":3607,"Ġ1950":3608,"gely":3609,"itt":3610,"Ġwhole":3611,"Ġinformation":3612,"ĠGreek":3613,"Ġexam":3614,"ĠStr":3615,"Ġyards":3616,"Ã¶":3617,"de":3618,"Ġslight":3619,"ĠEmpire":3620,"ĠRad":3621,"arian":3622,"ĠMel":3623,"Ġreferred":3624,"Ġ38":3625,"urity":3626,"Ġbox":3627,"Ġcritical":3628,"lor":3629,"Ġmom":3630,"Ã¼":3631,"uing":3632,"Ġnumbers":3633,"Ġfinally":3634,"Ġincor":3635,"Ġsmaller":3636,"Ġelected":3637,"Ġselected":3638,"Ġresulted":3639,"Ġdefeat":3640,"reme":3641,"ĠRev":3642,"Ġscient":3643,"Ġgrant":3644,"Ġportray":3645,"ĠPenn":3646,"Ġactive":3647,"Ġqual":3648,"Ġsinger":3649,"win":3650,"Ġsen":3651,"Ġbad":3652,"vert":3653,"ĠDes":3654,"Ġprincip":3655,"ĠOut":3656,"Ġstandard":3657,"imb":3658,"ste":3659,"iest":3660,"Ġsecret":3661,"Ġcelebr":3662,"Ġmission":3663,"Ġindustry":3664,"uated":3665,"Ġsal":3666,"Ġ1994":3667,"ĠItalian":3668,"Ġlargely":3669,"Ġgrand":3670,"Ġoperation":3671,"ĠUnder":3672,"enant":3673,"Ġpit":3674,"itation":3675,"Ġassigned":3676,"Ġlink":3677,"ortun":3678,"Ġcer":3679,"Ġens":3680,"eph":3681,"Ġearned":3682,"Ġsaf":3683,"Ġanaly":3684,"Ġlegisl":3685,"ĠDel":3686,"Ġcommented":3687,"Ġthr":3688,"Ġang":3689,"Ġexpected":3690,"Ġmale":3691,"Ġprec":3692,"amb":3693,"ĠCorps":3694,"itude":3695,"Ġlisted":3696,"Ġaudience":3697,"Ġroy":3698,"ĠDVD":3699,"Ġcovered":3700,"Ġi":3701,"ken":3702,"Ġartic":3703,"izing":3704,"Ġunable":3705,"ĠCrit":3706,"Ġpurp":3707,"Ġsched":3708,"ĠTer":3709,"Ġtraditional":3710,"oe":3711,"Ġeducation":3712,"irection":3713,"Ġtrade":3714,"Ġartist":3715,"Ġfriends":3716,"Ġheart":3717,"Ġnewsp":3718,"Ġdouble":3719,"Ġclosed":3720,"Ġrefused":3721,"Ġsem":3722,"ĠViet":3723,"Ġunderst":3724,"ĠGar":3725,"Ġattention":3726,"Ġrecover":3727,"Ġprimary":3728,"Ġmethod":3729,"ounts":3730,"Ġrequest":3731,"Ġsister":3732,"use":3733,"Ġprevent":3734,"aine":3735,"Ġkind":3736,"Ġtalk":3737,"ĠMichigan":3738,"ogue":3739,"Ġreason":3740,"onic":3741,"ighter":3742,"Ġletter":3743,"Ġofficer":3744,"Ġbelow":3745,"anced":3746,"Ġcontem":3747,"ĠDis":3748,"Ġ1940":3749,"Ġenjoy":3750,"ĠWales":3751,"Ġability":3752,"Ġdepression":3753,"Ġmeant":3754,"Ġperformances":3755,"kin":3756,"Ġdeclared":3757,"Ġplat":3758,"hips":3759,"Ġwalk":3760,"ider":3761,"ples":3762,"oly":3763,"Ġgiving":3764,"ĠNort":3765,"undred":3766,"Ġword":3767,"Ġfighting":3768,"Ġblood":3769,"Ġcommander":3770,"Ġreligious":3771,"ĠMore":3772,"Ġ180":3773,"Ġcompl":3774,"Ġbooks":3775,"oud":3776,"ĠMass":3777,"Ġtheat":3778,"Ġmiddle":3779,"tered":3780,"isher":3781,"ĠCath":3782,"Ġsett":3783,"Ġrate":3784,"Ġmax":3785,"Ġhot":3786,"Ġrecords":3787,"Ġ49":3788,"iled":3789,"Ġmatches":3790,"Ġnames":3791,"ĠDemocr":3792,"Ġconstit":3793,"ĠAcad":3794,"Ġproduce":3795,"Ġquestion":3796,"aped":3797,"ĠBec":3798,"ĠTest":3799,"Ġcompetition":3800,"antasy":3801,"Ġserious":3802,"ĠCle":3803,"ĠCare":3804,"Ġcentre":3805,"ĠPre":3806,"Ġunit":3807,"ĠOx":3808,"ĠTeam":3809,"Ġvocals":3810,"Ġdisapp":3811,"ĠMinister":3812,"ĠSeveral":3813,"bridge":3814,"Ġtouch":3815,"Ġmention":3816,"odies":3817,"ĠZeal":3818,"utch":3819,"iences":3820,"Ġ1992":3821,"Ġaccount":3822,"ounded":3823,"ĠMajor":3824,"Ġabandon":3825,"ĠLong":3826,"Ġrapid":3827,"icted":3828,"Ġenergy":3829,"ady":3830,"Ġnecess":3831,"shire":3832,"ĠArch":3833,"rug":3834,"ector":3835,"road":3836,"ĠMidd":3837,"Ġkilomet":3838,"icient":3839,"quar":3840,"Ġdra":3841,"ervation":3842,"Ġconstructed":3843,"ims":3844,"Ġdut":3845,"ĠKenn":3846,"Ġtraff":3847,"ĠEr":3848,"ĠLu":3849,"ening":3850,"ĠCons":3851,"Ġvir":3852,"Ġtheme":3853,"ĠBu":3854,"ĠFore":3855,"Ġris":3856,"Ġmor":3857,"ona":3858,"echan":3859,"ĠWal":3860,"Ġroyal":3861,"Ġnearby":3862,"Ġ41":3863,"Ġhighly":3864,"Ġpick":3865,"ĠTime":3866,"ishop":3867,"ĠZealand":3868,"Ġseparate":3869,"Ġtrain":3870,"oses":3871,"Ġhar":3872,"Ġcontinue":3873,"Ġchief":3874,"ĠFox":3875,"Ġeffort":3876,"Ġpresented":3877,"ares":3878,"edic":3879,"Ġcombat":3880,"rier":3881,"Ġprep":3882,"Ġdrum":3883,"ĠMexico":3884,"Ġpositions":3885,"Ġreduced":3886,"Ġannual":3887,"ĠAfrican":3888,"Ġcontrovers":3889,"ĠFour":3890,"Ġdirectly":3891,"ansion":3892,"ĠChris":3893,"ieut":3894,"Ġ1930":3895,"Ġlevels":3896,"Ġmeans":3897,"ibly":3898,"Ġtur":3899,"Ġ400":3900,"Ġnotes":3901,"Ġattended":3902,"Ġcas":3903,"Ġneigh":3904,"Ġtried":3905,"Ġsevent":3906,"Ġpractice":3907,"Ġforest":3908,"ĠMatt":3909,"Ġcompos":3910,"Ġcle":3911,"emorial":3912,"ether":3913,"ĠHaw":3914,"Ġedition":3915,"ĠSum":3916,"ining":3917,"Ã³":3918,"Ġfast":3919,"Ġtwenty":3920,"Ġaccepted":3921,"Ġnuc":3922,"Ġ1993":3923,"ĠMadonna":3924,"vement":3925,"Ġstating":3926,"ette":3927,"ĠChart":3928,"Ġ1991":3929,"Ġmetal":3930,"ĠWall":3931,"Ġmovie":3932,"Ġarchitect":3933,"oper":3934,"Ġwatch":3935,"ĠSo":3936,"Ġtext":3937,"Ġrepe":3938,"Ġcandid":3939,"cel":3940,"rical":3941,"anes":3942,"ĠScotland":3943,"Ġconcert":3944,"Ġadvance":3945,"stitute":3946,"ĠBob":3947,"track":3948,"ĠJones":3949,"Ġpair":3950,"acher":3951,"osen":3952,"Ġ179":3953,"Ġdirection":3954,"ado":3955,"Ġrein":3956,"ĠTheir":3957,"ersey":3958,"Ġseem":3959,"Ġschools":3960,"Ġlegal":3961,"Ġ55":3962,"Ġdism":3963,"Ġreject":3964,"Ġrare":3965,"ping":3966,"lict":3967,"aver":3968,"Ġmarriage":3969,"Ġthick":3970,"wide":3971,"Ġ+":3972,"ĠDepartment":3973,"Ġoil":3974,"Ġhorse":3975,"illery":3976,"eway":3977,"Ġrecomm":3978,"Ġefforts":3979,"Ġmanaged":3980,"ĠManc":3981,"Ġasp":3982,"ĠDar":3983,"oo":3984,"Ġcollege":3985,"sis":3986,"Ġpurs":3987,"Ġresulting":3988,"icip":3989,"Ġending":3990,"Ġavoid":3991,"ĠCross":3992,"Ġwing":3993,"ieutenant":3994,"utions":3995,"Ġshowed":3996,"ĠSar":3997,"ĠThree":3998,"Ġdropped":3999,"Ġresponsible":4000,"ĠInfantry":4001,"ĠTre":4002,"ĠCreek":4003,"Ġinside":4004,"Ġnation":4005,"inem":4006,"Ġcases":4007,"Ġkept":4008,"Ġenvironment":4009,"band":4010,"ĠArab":4011,"light":4012,"irit":4013,"Ġ182":4014,"Ġcust":4015,"Ġculture":4016,"Ġmeaning":4017,"ĠFoot":4018,"ĠAnn":4019,"ĠBost":4020,"Ġcyclone":4021,"awn":4022,"ĠDou":4023,"house":4024,"Ġbegins":4025,"Ġincorpor":4026,"ĠHel":4027,"Ġvariety":4028,"illed":4029,"Ġmorning":4030,"Ġrat":4031,"ceeded":4032,"Ġ39":4033,"Ġhouses":4034,"Ġcerem":4035,"uit":4036,"Ġforms":4037,"isation":4038,"Ġdom":4039,"Ġchampionship":4040,"ĠService":4041,"Ġwords":4042,"ĠLeg":4043,"ĠPost":4044,"Ġarrest":4045,"peror":4046,"Ġyard":4047,"like":4048,"Ġge":4049,"ĠStone":4050,"ĠWilliams":4051,"Ġschol":4052,"ĠRecords":4053,"Ġmarked":4054,"Ġinches":4055,"ĠHung":4056,"Ġcontinues":4057,"ĠSecret":4058,"Ġ48":4059,"Ġscience":4060,"Ġ181":4061,"MS":4062,"Ġperm":4063,"Ġsymb":4064,"cend":4065,"Ġuses":4066,"ĠParliament":4067,"Ġeconomic":4068,"Ġbank":4069,"ecting":4070,"ĠGo":4071,"gypt":4072,"Ġsource":4073,"ĠBC":4074,"Ġspl":4075,"Ġ42":4076,"ĠNews":4077,"ĠGames":4078,"ka":4079,"Ġquality":4080,"iated":4081,"Ġdefend":4082,"writ":4083,"thel":4084,"olf":4085,"Ġlear":4086,"Ġhundred":4087,"ĠStan":4088,"Ġsettle":4089,"ulations":4090,"ĠMic":4091,"ĠArm":4092,"Ġconducted":4093,"Ġstarting":4094,"Ġimpact":4095,"ĠSur":4096,"Ġyour":4097,"Ġspecific":4098,"cle":4099,"Ġallowing":4100,"Ġstrugg":4101,"ĠEgypt":4102,"thur":4103,"ĠSociety":4104,"ĠFin":4105,"Ġ1942":4106,"Ġpresence":4107,"Ġple":4108,"ĠBook":4109,"Ġamount":4110,"bed":4111,"Ġbeat":4112,"Ġviewers":4113,"Ġdu":4114,"ait":4115,"Ġsides":4116,"Ġmetres":4117,"aph":4118,"Ġdance":4119,"wh":4120,"Ġrule":4121,"Ġchap":4122,"Ġexhib":4123,"Ġsuppl":4124,"Ġunivers":4125,"ĠPrince":4126,"ĠSouthern":4127,"ĠStephen":4128,"Ġdistinct":4129,"Ġmultiple":4130,"Ġtransferred":4131,"Ġraid":4132,"Ġpotential":4133,"ĠCommittee":4134,"Ġforeign":4135,"een":4136,"Ġcontrast":4137,"ĠOxford":4138,"ĠWin":4139,"Ġpeaked":4140,"ĠLatin":4141,"ĠOh":4142,"ols":4143,"irm":4144,"Ġenemy":4145,"ingu":4146,"ĠJer":4147,"Ġbecomes":4148,"Ġcaptain":4149,"Ġtraffic":4150,"itiz":4151,"arent":4152,"Ġowned":4153,"ĠTri":4154,"Ġthings":4155,"Ġfounded":4156,"Ġgreater":4157,"Ġmess":4158,"ĠLike":4159,"ĠGeorg":4160,"ĠAdmiral":4161,"Ġconcluded":4162,"Ġportion":4163,"Ġvocal":4164,"ĠSpec":4165,"gl":4166,"Ġ65":4167,"Ġscoring":4168,"Ġcastle":4169,"ĠJoseph":4170,"Ġrespond":4171,"Ġproperty":4172,"sych":4173,"Ġstories":4174,"Ġattempts":4175,"Ġencoun":4176,"ĠBoston":4177,"Ġopt":4178,"Ġrelatively":4179,"ĠManchester":4180,"ĠChief":4181,"ĠSat":4182,"Ġprimarily":4183,"iance":4184,"Ġdemonst":4185,"ĠHarrison":4186,"inet":4187,"Ġfederal":4188,"Ġfinancial":4189,"ĠBecause":4190,"ĠBefore":4191,"ĠHal":4192,"Ġactually":4193,"ĠJeff":4194,"Ġanimals":4195,"ĠBrad":4196,"ĠCaptain":4197,"ĠClass":4198,"ressive":4199,"Ġobserved":4200,"ĠHurricane":4201,"ĠSwed":4202,"Ġcollection":4203,"fect":4204,"ĠSol":4205,"ellig":4206,"Ġopportun":4207,"ĠVietn":4208,"Ġtitled":4209,"Ġtourn":4210,"Ġfeaturing":4211,"Ġ47":4212,"Ġlif":4213,"ĠKh":4214,"ĠForm":4215,"Ġwriters":4216,"ita":4217,"istics":4218,"Ġwrite":4219,"aud":4220,"Ġ1944":4221,"Ġjournal":4222,"Ġstrength":4223,"ĠSil":4224,"Ġweaken":4225,"Ġinch":4226,"ĠBridge":4227,"Ġwor":4228,"ours":4229,"ĠEver":4230,"Ġsituation":4231,"Ġdistance":4232,"Ġspot":4233,"Ġpaid":4234,"Ġpremi":4235,"Ġmechan":4236,"Ġparents":4237,"ĠTw":4238,"ĠCommission":4239,"Ġindependent":4240,"ĠBattalion":4241,"Ġfigure":4242,"umber":4243,"ĠOtt":4244,"Ġshare":4245,"Ġacting":4246,"Ġactor":4247,"Ġcompanies":4248,"right":4249,"Ġdivided":4250,"ĠDef":4251,"ĠFred":4252,"eds":4253,"Ġonto":4254,"ĠTim":4255,"ĠLittle":4256,"Äĩ":4257,"ani":4258,"ĠParis":4259,"Ġcollabor":4260,"ĠProdu":4261,"ĠDen":4262,"Ġmind":4263,"Ġslightly":4264,"Ġtarget":4265,"Ġpiece":4266,"ĠSeries":4267,"ĠLife":4268,"Ġfunction":4269,"Ġ52":4270,"Ġselling":4271,"Ġ46":4272,"Ġreform":4273,"perial":4274,"ĠColumb":4275,"Ġ64":4276,"Ġpowerful":4277,"ĠBat":4278,"ricket":4279,"Ġinnings":4280,"Ġrating":4281,"ĠCarl":4282,"Ġconcent":4283,"Ġtorped":4284,"ĠEntertain":4285,"Ġplays":4286,"thlet":4287,"Ġlot":4288,"Ġbroke":4289,"Ġtoday":4290,"Ġrough":4291,"ĠBBC":4292,"ils":4293,"Ġera":4294,"ĠVer":4295,"ĠYoun":4296,"chest":4297,"istry":4298,"Ġactions":4299,"Ġultimately":4300,"ĠCroat":4301,"Ġwaters":4302,"oration":4303,"Ġmel":4304,"Ġtrial":4305,"Ġcho":4306,"Ġsquare":4307,"Ġmaximum":4308,"ĠLuc":4309,"Ġdise":4310,"Ġ43":4311,"udd":4312,"uge":4313,"ĠHistor":4314,"ada":4315,"Ġtend":4316,"Ġpilot":4317,"Ġbound":4318,"annel":4319,"astic":4320,"Ġcompletely":4321,"ĠAcademy":4322,"ĠMax":4323,"Ġsought":4324,"rown":4325,"rel":4326,"acts":4327,"Ġinterp":4328,"Ġ1920":4329,"Ġ1945":4330,"Ġpolicy":4331,"lam":4332,"Ġscale":4333,"sw":4334,"anna":4335,"Ġsociety":4336,"ĠMod":4337,"Ġblue":4338,"ĠPan":4339,"force":4340,"Ġmainly":4341,"Ġ44":4342,"ĠMuseum":4343,"Ġbehav":4344,"ĠSaint":4345,"Ġlog":4346,"ĠLine":4347,"rupt":4348,"Ġdesignated":4349,"Ġ1941":4350,"Ġess":4351,"Ġhus":4352,"load":4353,"Ġofficials":4354,"Ġconver":4355,"Ġstruck":4356,"mas":4357,"mond":4358,"Ġactivity":4359,"Ġinfluenced":4360,"Ġcombined":4361,"ux":4362,"Ġtransl":4363,"Ġtask":4364,"Ġwear":4365,"cers":4366,"olved":4367,"Ġsearch":4368,"stein":4369,"ylvan":4370,"ĠEntertainment":4371,"ĠItaly":4372,"Ġ150":4373,"Ġvess":4374,"while":4375,"Ġthir":4376,"Ġthous":4377,"ĠPop":4378,"Ġcalling":4379,"Ġgar":4380,"ees":4381,"Ġalongside":4382,"ĠWay":4383,"Ġnortheast":4384,"Ġseconds":4385,"Ġbatter":4386,"under":4387,"ĠBrigade":4388,"Ġsout":4389,"ĠAmericans":4390,"Ġcorn":4391,"Ġsources":4392,"Ġwinter":4393,"orses":4394,"Ġbackground":4395,"itan":4396,"ĠLee":4397,"Ġwebs":4398,"alle":4399,"ĠIre":4400,"Ġtheory":4401,"Ġseg":4402,"Ġice":4403,"ĠHor":4404,"aga":4405,"Ġrecent":4406,"mark":4407,"Ġgained":4408,"Ġsuc":4409,"Ġnominated":4410,"rative":4411,"Ġelectric":4412,"Ġcrow":4413,"ĠGre":4414,"Ġplatform":4415,"Ġartists":4416,"ĠConf":4417,"Ġproblem":4418,"Ġmem":4419,"ĠVan":4420,"ĠRegiment":4421,"Ġencour":4422,"ĠTod":4423,"iano":4424,"Ġwidely":4425,"Ġnaval":4426,"ĠWind":4427,"Ġsystems":4428,"Ġpromoted":4429,"quarters":4430,"aven":4431,"ya":4432,"Ġconfirmed":4433,"ini":4434,"Ġnews":4435,"Ġreaching":4436,"ĠIreland":4437,"Ġresults":4438,"Ġproved":4439,"ĠAvenue":4440,"illa":4441,"HL":4442,"osaur":4443,"Ġpassing":4444,"ibrary":4445,"Ġalbums":4446,"rate":4447,"Ġexplained":4448,"Ġsubsequent":4449,"ĠFleet":4450,"Ġgreatest":4451,"adel":4452,"Ġconflict":4453,"ĠAdd":4454,"Ġinvasion":4455,"ota":4456,"Ġcontent":4457,"Ġwick":4458,"Ġ1989":4459,"Ġcoming":4460,"Ġpeace":4461,"Ġcharge":4462,"Ġsixth":4463,"Ġhero":4464,"Ġresist":4465,"nown":4466,"Ġnorthwest":4467,"Ġcounty":4468,"ube":4469,"Ġshortly":4470,"Ġweather":4471,"Ġ1943":4472,"ĠGood":4473,"Ġversions":4474,"Ġadj":4475,"oured":4476,"Ġserve":4477,"Ġcausing":4478,"Ġsays":4479,"Ġsust":4480,"ĠOrig":4481,"hew":4482,"pe":4483,"Ġexpressed":4484,"Ġpath":4485,"Ġreception":4486,"ĠEll":4487,"ĠVictoria":4488,"tation":4489,"Ġseek":4490,"Ġir":4491,"Ġburn":4492,"ĠRay":4493,"itness":4494,"iced":4495,"Ġresidents":4496,"ĠCatholic":4497,"Ġborder":4498,"Ġemot":4499,"ĠBus":4500,"ĠTropical":4501,"Ġsoundtrack":4502,"TV":4503,"Ġcities":4504,"Ġsn":4505,"ĠCharl":4506,"ĠValley":4507,"Ġseasons":4508,"aling":4509,"Ġappearances":4510,"Ġfavour":4511,"Ġsense":4512,"ategory":4513,"omy":4514,"ĠNorm":4515,"ĠTy":4516,"onn":4517,"ĠWork":4518,"Ġsexual":4519,"ĠAlb":4520,"Ġrequire":4521,"Ġ51":4522,"Ġchem":4523,"Ġhospital":4524,"ĠNin":4525,"town":4526,"Ġgreen":4527,"Ġidentified":4528,"Ġphysical":4529,"ĠSant":4530,"Ġolder":4531,"ĠLight":4532,"ips":4533,"ancy":4534,"ĠAut":4535,"ĠThough":4536,"Ġhands":4537,"ih":4538,"Ġtells":4539,"Ġtrue":4540,"Ġoffer":4541,"Ġdocument":4542,"ĠLive":4543,"Ġdedic":4544,"bit":4545,"Ġkg":4546,"ighth":4547,"Ġiron":4548,"ĠMiddle":4549,"Ġartillery":4550,"Ġrepresented":4551,"ĠCommun":4552,"bon":4553,"Ġweapons":4554,"ĠLiber":4555,"arden":4556,"Ġahead":4557,"ĠThrough":4558,"ĠFootball":4559,"unction":4560,"eption":4561,"ym":4562,"ĠDev":4563,"ĠShow":4564,"Ġgas":4565,"Ġnegot":4566,"ylvania":4567,"Ġheavily":4568,"ĠUpon":4569,"Ġeas":4570,"Ġpun":4571,"ero":4572,"za":4573,"Ġsupp":4574,"ĠFar":4575,"ĠLo":4576,"ĠDutch":4577,"abeth":4578,"Ġdefense":4579,"AS":4580,"itable":4581,"Ġstudent":4582,"Ġimage":4583,"Ġspread":4584,"Ġalone":4585,"Ġapparent":4586,"ĠWeek":4587,"Ġstudies":4588,"ĠDirect":4589,"Ġofficially":4590,"ĠJul":4591,"ĠMa":4592,"Ġhusband":4593,"Ġexecutive":4594,"Ġdistrict":4595,"ĠTay":4596,"ĠBey":4597,"ĠSub":4598,"ĠYoung":4599,"Ġfarm":4600,"essions":4601,"Ġinstit":4602,"ĠEliz":4603,"Ġdebuted":4604,"ĠDun":4605,"ĠAlbert":4606,"ĠTop":4607,"Ġprominent":4608,"Ġcapture":4609,"Ġconsisted":4610,"Ġinjury":4611,"Ġwild":4612,"Ġsend":4613,"Ġpack":4614,"Ġequipment":4615,"Ġorganization":4616,"Ġfired":4617,"Ġbit":4618,"Ġstone":4619,"Ġpattern":4620,"Ġargued":4621,"Ġaired":4622,"Ġresc":4623,"Ġfigures":4624,"Ġprepar":4625,"AA":4626,"Ġsurpris":4627,"Ġinstrument":4628,"Ġexped":4629,"Ġgrowth":4630,"ĠIll":4631,"Ġcouple":4632,"acity":4633,"Ġdoing":4634,"Ġreturning":4635,"ĠCivil":4636,"ĠHomer":4637,"ĠBond":4638,"ĠRy":4639,"Ġcontemporary":4640,"pool":4641,"Ġpict":4642,"ĠKr":4643,"ockey":4644,"ĠVol":4645,"Ġhun":4646,"ushed":4647,"ĠRog":4648,"Ġpoet":4649,"Ġring":4650,"Ġpal":4651,"Ġweight":4652,"urban":4653,"Ġcert":4654,"ĠMen":4655,"ĠAv":4656,"Ġdrug":4657,"Ġlaid":4658,"Ġleaders":4659,"Ġdoub":4660,"Ġaffected":4661,"ĠNorthern":4662,"Ġmatter":4663,"Ġpieces":4664,"ĠDi":4665,"Ġfloor":4666,"Ġhabit":4667,"Ġmagn":4668,"lines":4669,"bur":4670,"lers":4671,"ĠRam":4672,"Ġstep":4673,"Ġeth":4674,"Ġmaintained":4675,"Ġpropos":4676,"ĠFre":4677,"resp":4678,"Ġearth":4679,"Ġoccasion":4680,"appen":4681,"Ġvisited":4682,"Ġtun":4683,"Ġrang":4684,"ĠMat":4685,"Ġhere":4686,"Ġcomes":4687,"Ġcommunic":4688,"Ġshell":4689,"Ġspeech":4690,"ĠDaniel":4691,"Ġcriticized":4692,"Ġcrowd":4693,"ĠDam":4694,"Ġ600":4695,"ĠStorm":4696,"ports":4697,"Ġactivities":4698,"Ġtermin":4699,"Ġstra":4700,"ĠCarolina":4701,"ĠFer":4702,"ental":4703,"inson":4704,"Ġattract":4705,"Ġcitiz":4706,"acement":4707,"Ġexec":4708,"ifying":4709,"Ġtournament":4710,"Ġreign":4711,"Ġtoward":4712,"Ġox":4713,"Ġsingles":4714,"Ġemph":4715,"ĠGal":4716,"Ġhall":4717,"ĠSk":4718,"emic":4719,"Ġtrees":4720,"ĠJon":4721,"Ġreference":4722,"Ġformation":4723,"ocked":4724,"ĠScottish":4725,"Ġsenior":4726,"Ġ1987":4727,"Ġsetting":4728,"elve":4729,"Ġadapt":4730,"Ġsurre":4731,"Ġterritory":4732,"Ġworldwide":4733,"Ġmedical":4734,"ĠHard":4735,"ĠGovernment":4736,"Ġtrying":4737,"Åį":4738,"Ġunk":4739,"Ġ1988":4740,"Ġstations":4741,"Ġbud":4742,"rog":4743,"ĠMarsh":4744,"ĠBre":4745,"ĠSystem":4746,"Ġappl":4747,"ruit":4748,"Ġbirds":4749,"ĠFantasy":4750,"estic":4751,"Ġpan":4752,"Ġdelay":4753,"ĠWrit":4754,"ĠOperation":4755,"ĠHolly":4756,"ners":4757,"ĠBackground":4758,"Ġmachine":4759,"ĠGovernor":4760,"Ġfellow":4761,"Ġclaims":4762,"Ġdoll":4763,"Ġmurder":4764,"ĠOcean":4765,"ĠDistrict":4766,"embly":4767,"Ġhistorian":4768,"Ġguest":4769,"Ġbul":4770,"Ġrainfall":4771,"Ġrisk":4772,"Ġdog":4773,"ĠField":4774,"Ġfully":4775,"Ġaccident":4776,"ĠPenns":4777,"Ġcell":4778,"eld":4779,"ĠRom":4780,"Ġvalue":4781,"Ġload":4782,"ivity":4783,"Ġtherefore":4784,"Ġgod":4785,"ĠHome":4786,"uled":4787,"ĠDuke":4788,"Ġsplit":4789,"eed":4790,"Ġchosen":4791,"Ġtreatment":4792,"ĠColon":4793,"ĠGuard":4794,"Ġuniversity":4795,"Ġ53":4796,"gian":4797,"Ġtwice":4798,"omers":4799,"uct":4800,"amber":4801,"ĠTem":4802,"velopment":4803,"ĠStudios":4804,"Ġterr":4805,"Ġfrequently":4806,"Ġsupply":4807,"Ġcontest":4808,"uls":4809,"ĠPolish":4810,"Ġreports":4811,"ĠKar":4812,"stone":4813,"ĠGirl":4814,"orne":4815,"Ġleaves":4816,"rael":4817,"ĠShort":4818,"resh":4819,"Ġgovernor":4820,"Ġsens":4821,"Ġremark":4822,"ĠSenate":4823,"iÄĩ":4824,"Ġpaper":4825,"aved":4826,"stitution":4827,"ĠEastern":4828,"Ġlabel":4829,"Ġfaced":4830,"Ġagg":4831,"ampion":4832,"Ġdyn":4833,"ordin":4834,"ĠBeat":4835,"Ġwalls":4836,"Ġopin":4837,"Ġfollows":4838,"Ġhyd":4839,"iot":4840,"ror":4841,"eller":4842,"ĠLew":4843,"Ġbillion":4844,"anger":4845,"ĠRod":4846,"ledge":4847,"Ġoperated":4848,"ĠRos":4849,"ading":4850,"Ġgrew":4851,"Ġmanu":4852,"Ġsurrounding":4853,"ĠAndrew":4854,"Ġcontained":4855,"Ġ85":4856,"ĠMean":4857,"Ġdegree":4858,"onents":4859,"Ġherself":4860,"Ġcondition":4861,"ĠChristmas":4862,"Ġhorses":4863,"Ġplanet":4864,"Ġmanufact":4865,"ĠMD":4866,"Ġaccompan":4867,"Ġut":4868,"Ġwounded":4869,"ayer":4870,"Ġtypically":4871,"Ġescape":4872,"Ġswe":4873,"ĠAllied":4874,"ĠOs":4875,"Ġpasses":4876,"rect":4877,"orter":4878,"Ġcolor":4879,"Ġsimply":4880,"edd":4881,"isco":4882,"Ġmaster":4883,"Ġfuel":4884,"illy":4885,"ĠWilson":4886,"Ġsle":4887,"Ġbrown":4888,"ĠNight":4889,"Ġrailway":4890,"ĠCorn":4891,"ĠBart":4892,"Ġelement":4893,"Ġdraft":4894,"utation":4895,"gend":4896,"ĠTaylor":4897,"Ġlives":4898,"ety":4899,"Ġeditor":4900,"Ġorders":4901,"Ġ1986":4902,"Ġarms":4903,"ala":4904,"ĠJud":4905,"ĠElizabeth":4906,"Ġserving":4907,"Ġbal":4908,"antly":4909,"Ġnothing":4910,"ĠAlexander":4911,"Ġauthority":4912,"Ġchose":4913,"Ġopposed":4914,"Ġworkers":4915,"Ġvote":4916,"Ġconsecutive":4917,"Ġcannot":4918,"Ġcamer":4919,"isters":4920,"Ġmoment":4921,"ĠMike":4922,"Ġnewly":4923,"ĠEach":4924,"ĠJoe":4925,"ricult":4926,"izes":4927,"Ġnative":4928,"Ġunknown":4929,"ancing":4930,"Ġparticipated":4931,"ias":4932,"aming":4933,"ucky":4934,"Ġgrowing":4935,"pass":4936,"Ġwebsite":4937,"Ġcasual":4938,"agn":4939,"Ġ54":4940,"Ġemphas":4941,"uous":4942,"Ġentr":4943,"Ġphil":4944,"Ġattrib":4945,"Ġfan":4946,"Ġproducers":4947,"fully":4948,"Ġnewspaper":4949,"Ġrear":4950,"ographer":4951,"igg":4952,"Ġbass":4953,"Ġfair":4954,"ĠOf":4955,"Ġlosing":4956,"ĠCastle":4957,"Ġadvanced":4958,"Ġadopted":4959,"Ġfilming":4960,"Ġextra":4961,"ĠFestival":4962,"Ġheard":4963,"mit":4964,"ĠHum":4965,"Ġsevere":4966,"ĠPennsylvania":4967,"Ġoffensive":4968,"Ġfeed":4969,"ilies":4970,"Ġfiction":4971,"andy":4972,"azz":4973,"Ġopposition":4974,"enge":4975,"imens":4976,"ĠExp":4977,"Ġextend":4978,"Ġspirit":4979,"ĠJac":4980,"ĠDet":4981,"Ġcapacity":4982,"enger":4983,"ĠPers":4984,"Ġ95":4985,"ĠIslands":4986,"ĠWhat":4987,"Ġbasis":4988,"Ġsequence":4989,"Ġactors":4990,"Ġcouncil":4991,"Ġpsych":4992,"then":4993,"Ġguard":4994,"Ġends":4995,"pton":4996,"ĠReception":4997,"ĠSound":4998,"Ġ56":4999,"Ġweak":5000,"ĠChe":5001,"Ġsquadron":5002,"ype":5003,"Ġsilver":5004,"ĠGi":5005,"Ġadvant":5006,"Ġprin":5007,"Ġabandoned":5008,"rong":5009,"ĠIrish":5010,"ĠFurther":5011,"Ġ177":5012,"Ġcompar":5013,"orship":5014,"ev":5015,"tar":5016,"Ġrival":5017,"ĠWW":5018,"Ġrom":5019,"Ġprompt":5020,"Ġextr":5021,"ĠInst":5022,"rid":5023,"ĠBlue":5024,"ĠWat":5025,"Ġflying":5026,"Ġkick":5027,"ables":5028,"ĠTech":5029,"Ġhonor":5030,"isers":5031,"ĠHarry":5032,"more":5033,"ager":5034,"Ġelev":5035,"Ġcreating":5036,"Ġbey":5037,"ĠCard":5038,"ĠTra":5039,"ocated":5040,"ĠJersey":5041,"gu":5042,"Ġfilmed":5043,"ĠSpain":5044,"ĠRet":5045,"Ġlaunch":5046,"Ġcoal":5047,"Ġregarded":5048,"ĠPen":5049,"Ġhappen":5050,"Ġexpansion":5051,"Ġnormal":5052,"Ġast":5053,"Ġenter":5054,"Ġcriticism":5055,"Ġindividuals":5056,"Ġpoll":5057,"lement":5058,"Ġhomes":5059,"Ġagreement":5060,"ĠSS":5061,"Ġbeyond":5062,"Ġincident":5063,"hi":5064,"ĠLand":5065,"ĠGall":5066,"Ġfailure":5067,"Ġ178":5068,"ĠCoast":5069,"ĠSquare":5070,"ĠFam":5071,"Ġspect":5072,"Ġevac":5073,"Ġdeploy":5074,"Ġdismiss":5075,"Ġfamous":5076,"apers":5077,"Ġeye":5078,"add":5079,"onc":5080,"Ġspring":5081,"Ġchair":5082,"Ġsail":5083,"Ġsports":5084,"Ġmeasure":5085,"Ġ97":5086,"Ġchalleng":5087,"Ġ1939":5088,"Ġpossibly":5089,"Ġhistorical":5090,"Ġnegative":5091,"TC":5092,"Ġliber":5093,"uses":5094,"Ġinte":5095,"Ġboat":5096,"Ġbodies":5097,"ef":5098,"Ġachieved":5099,"gar":5100,"Ġstrike":5101,"min":5102,"Ġbelieve":5103,"ĠAre":5104,"Ġcontact":5105,"Ġmob":5106,"Ġ76":5107,"Ġprogress":5108,"Ġroles":5109,"Ġunf":5110,"ĠPublic":5111,"ĠUs":5112,"ĠProduction":5113,"ote":5114,"Ġkilling":5115,"Ġnarrow":5116,"Ġretired":5117,"anda":5118,"Ġideas":5119,"imet":5120,"ĠBab":5121,"ĠInstitute":5122,"ifications":5123,"ano":5124,"ĠLind":5125,"ienced":5126,"BA":5127,"ĠIsrael":5128,"Ġdrive":5129,"Ġdisease":5130,"rich":5131,"Ġur":5132,"ĠWild":5133,"Ġtorpedo":5134,"mosp":5135,"onent":5136,"ĠCD":5137,"Ġbenef":5138,"Ġrid":5139,"Ġbriefly":5140,"Ġvo":5141,"FA":5142,"Ġ1985":5143,"ĠRevolution":5144,"ĠDue":5145,"ĠArthur":5146,"ĠBroad":5147,"Ġeffective":5148,"Ġ1968":5149,"Ġimag":5150,"Ġarmed":5151,"Ġapplic":5152,"Ġtower":5153,"Ġbudget":5154,"Ġdiam":5155,"ĠElect":5156,"Ġreceive":5157,"Ġrepeated":5158,"Ġadministration":5159,"Ġgranted":5160,"Ġnecessary":5161,"Ġperman":5162,"Ġpersonnel":5163,"Ġtree":5164,"ĠMul":5165,"Ġroads":5166,"Ġrejected":5167,"ĠMeanwhile":5168,"edom":5169,"Ġtable":5170,"Ġtwelve":5171,"ĠCat":5172,"ĠRepublican":5173,"aith":5174,"Ġkilometres":5175,"ĠGerm":5176,"ĠEnd":5177,"Ġpet":5178,"Ġimproved":5179,"Ġleadership":5180,"ĠBul":5181,"Ġmis":5182,"ĠPerson":5183,"Ġgross":5184,"ĠDoctor":5185,"ĠAlbum":5186,"iny":5187,"Ġinterchange":5188,"avalry":5189,"ĠClark":5190,"Ġcolumn":5191,"Ġextensive":5192,"iner":5193,"Ġinh":5194,"Ġdata":5195,"ĠCub":5196,"ĠOhio":5197,"Ġyellow":5198,"imal":5199,"kins":5200,"ourney":5201,"Ġ66":5202,"Ġturns":5203,"Ġinfantry":5204,"Ġplants":5205,"Ġpurpose":5206,"Ġstraight":5207,"ĠSund":5208,"Ġmanagement":5209,"Ġlands":5210,"Ġexpress":5211,"iments":5212,"Ġlanding":5213,"Ġdefin":5214,"Ġparalle":5215,"ĠUl":5216,"Ġdescribes":5217,"ĠMid":5218,"Ġexpanded":5219,"Ġseat":5220,"ĠSecretary":5221,"ĠBoard":5222,"Ġsolo":5223,"Ġchoice":5224,"Ġfranch":5225,"Ġsuccessfully":5226,"ĠLy":5227,"Ġ61":5228,"Ġbroken":5229,"Ġmile":5230,"lusion":5231,"ĠLiver":5232,"Ġcrossing":5233,"ĠBraz":5234,"Ġlearn":5235,"adelph":5236,"Ġdidn":5237,"ĠHead":5238,"Ġ1984":5239,"Ġfought":5240,"Ġdeliver":5241,"ĠPhiladelph":5242,"Ġintellig":5243,"oln":5244,"Ġexplos":5245,"iday":5246,"ocks":5247,"Ġanimal":5248,"Ġorganized":5249,"Ġcaught":5250,"ĠHy":5251,"Ġexcl":5252,"uate":5253,"Ġvehicles":5254,"Ġcommissioned":5255,"Ġsuggests":5256,"ĠLes":5257,"Ġacquired":5258,"la":5259,"Ġ800":5260,"ĠFe":5261,"Ġplaces":5262,"Ġcommittee":5263,"Ġchor":5264,"haps":5265,"etball":5266,"Ġroof":5267,"Ġancient":5268,"Ġdrama":5269,"ĠEven":5270,"ĠGeorgia":5271,"set":5272,"Ġcreation":5273,"hol":5274,"ĠNever":5275,"ĠCambridge":5276,"Ġtypes":5277,"ĠAsh":5278,"stream":5279,"Ġglob":5280,"Ġgives":5281,"ĠPhiladelphia":5282,"Ġarticle":5283,"Ġcomedy":5284,"Ġseventh":5285,"ico":5286,"Ġunsu":5287,"Ġnuclear":5288,"Ġprefer":5289,"ĠBurn":5290,"ĠMir":5291,"ĠHit":5292,"iable":5293,"Ġwave":5294,"ĠBell":5295,"Ġsoft":5296,"Ġfat":5297,"iate":5298,"Ġrow":5299,"appy":5300,"ĠSher":5301,"ĠBru":5302,"Ġauthorities":5303,"Ġheadquarters":5304,"Ġ120":5305,"ĠConst":5306,"ĠMov":5307,"Ġcontain":5308,"attle":5309,"etts":5310,"ĠAlso":5311,"war":5312,"Ġcenturies":5313,"Ġcommonly":5314,"Ġdetermined":5315,"ĠRA":5316,"Ġislands":5317,"Ġgenus":5318,"Ġ1967":5319,"iations":5320,"Ġmentioned":5321,"ĠAddition":5322,"ĠRussia":5323,"ĠIS":5324,"Ġrecently":5325,"rif":5326,"Ġlooking":5327,"iana":5328,"Ġbott":5329,"Ġcontrolled":5330,"igr":5331,"Ġbeaut":5332,"restling":5333,"ĠSR":5334,"Ġstreet":5335,"umes":5336,"Ġroll":5337,"erc":5338,"akers":5339,"ĠProt":5340,"ĠCommon":5341,"Ġsets":5342,"Ġfamilies":5343,"ĠAmong":5344,"Ġhousehold":5345,"Ġsecurity":5346,"ĠLiverpool":5347,"ĠWars":5348,"Ġupgr":5349,"Ġfinds":5350,"Ġexperiment":5351,"Ġaim":5352,"ĠCy":5353,"Ġsuppor":5354,"ura":5355,"Ġdecre":5356,"ĠNintend":5357,"Ġadvert":5358,"Ġ57":5359,"Ġstanding":5360,"Ġdrop":5361,"ĠRel":5362,"ima":5363,"Ġacad":5364,"Ġillust":5365,"ĠNintendo":5366,"ĠLar":5367,"Ġsinging":5368,"oted":5369,"Ġwithdraw":5370,"ĠLinc":5371,"Ġbattalion":5372,"ĠColumbia":5373,"Ġreflect":5374,"Ġunique":5375,"ĠPrime":5376,"ĠEarl":5377,"itled":5378,"uting":5379,"ĠEp":5380,"fort":5381,"agement":5382,"Ã¨":5383,"Ġcontaining":5384,"ĠArg":5385,"Ġentirely":5386,"Ġheight":5387,"ĠGil":5388,"Ġcultural":5389,"Ġdeck":5390,"ĠJenn":5391,"Ġfish":5392,"Ġdial":5393,"Ġorchest":5394,"arts":5395,"Ġ62":5396,"Ġfinish":5397,"Ġtouchdown":5398,"Ġcontributed":5399,"ĠLincoln":5400,"Ġprotect":5401,"ĠSingap":5402,"ĠChap":5403,"Ġthemes":5404,"Ġprovides":5405,"ĠDevelopment":5406,"Ġyounger":5407,"ĠKorean":5408,"ĠAsia":5409,"ishes":5410,"Ġdefence":5411,"Ġflooding":5412,"ĠLieutenant":5413,"Ġunp":5414,"Ġ1983":5415,"ĠBrazil":5416,"acks":5417,"roll":5418,"Ġmist":5419,"Ġawards":5420,"Ġatmosp":5421,"Ġtitles":5422,"Ġstrik":5423,"Ġpurchased":5424,"oma":5425,"ĠRol":5426,"ĠJewish":5427,"amin":5428,"outs":5429,"Ġsac":5430,"Ġla":5431,"Ġarrival":5432,"ipl":5433,"Ġscheduled":5434,"Ġdefensive":5435,"Ġpowers":5436,"ĠChild":5437,"ĠFrancisco":5438,"Ġresemb":5439,"Ġhol":5440,"Ġaccompanied":5441,"ĠSingapore":5442,"Ġceremony":5443,"Ġquite":5444,"inity":5445,"Ġconvers":5446,"Ġ1964":5447,"respond":5448,"Ġexpedition":5449,"ĠHay":5450,"illing":5451,"Ġthing":5452,"Ġunus":5453,"ĠPeople":5454,"Ġworth":5455,"Ġ1969":5456,"Ġperfect":5457,"Ġlocations":5458,"Ġexisting":5459,"icial":5460,"Ġinteract":5461,"Ġperforming":5462,"Ġadvantage":5463,"water":5464,"ĠCarey":5465,"room":5466,"atures":5467,"Ġtry":5468,"ĠOffice":5469,"Ġdedicated":5470,"ĠSix":5471,"Ġcomputer":5472,"Ġphilos":5473,"ĠPot":5474,"Ġextrem":5475,"ĠDisney":5476,"Ġintensity":5477,"Ġoccupied":5478,"Station":5479,"Ġstore":5480,"Ġ1914":5481,"ĠâĪ":5482,"ulate":5483,"gn":5484,"laim":5485,"Ġ58":5486,"ava":5487,"Ġwhy":5488,"Ġsquad":5489,"ĠPlayStation":5490,"ĠDark":5491,"Ġ74":5492,"Ġ1918":5493,"ĠHMS":5494,"Ġfresh":5495,"ĠSu":5496,"Ġmounted":5497,"ĠTam":5498,"Ġbat":5499,"ĠLis":5500,"ĠOrder":5501,"Ġ1982":5502,"agan":5503,"ashion":5504,"ĠVen":5505,"ĠHun":5506,"Ġ1971":5507,"ĠAnderson":5508,"Ġcricket":5509,"Ġnob":5510,"Ġclosely":5511,"Ġmouth":5512,"ĠSteve":5513,"Ġfirm":5514,"Ġconsists":5515,"Ġcurrently":5516,"ĠLewis":5517,"Ġfix":5518,"ĠKey":5519,"Ġ1966":5520,"Ġsession":5521,"ĠUr":5522,"ĠHon":5523,"ĠMiller":5524,"Ġ1972":5525,"ĠConference":5526,"ĠBalt":5527,"Ġ1979":5528,"Ġindustrial":5529,"Ġsimple":5530,"wall":5531,"ĠByz":5532,"Ġtail":5533,"ĠTurn":5534,"Ġpiano":5535,"Ġ72":5536,"ĠOnce":5537,"Ġfacilities":5538,"racted":5539,"Ġelimin":5540,"Ġsupporting":5541,"yles":5542,"ĠOlympic":5543,"Ġdrawn":5544,"Ġlic":5545,"Ġcold":5546,"ĠBrook":5547,"ĠRadio":5548,"Ġbelong":5549,"Ġtrains":5550,"Ġprotection":5551,"Ġegg":5552,"Ġgraph":5553,"ĠDie":5554,"Ġrated":5555,"Ġboats":5556,"ĠBad":5557,"ilton":5558,"ĠGrant":5559,"ĠBrian":5560,"Ġrise":5561,"Ġtim":5562,"ĠKel":5563,"Ġdefined":5564,"ĠByzant":5565,"Ġselection":5566,"ao":5567,"Ġsteam":5568,"rons":5569,"Ġ1965":5570,"Ġregions":5571,"Ġsubmar":5572,"Ġprotected":5573,"ĠRailway":5574,"Ġcalls":5575,"ĠConn":5576,"uzz":5577,"ĠNHL":5578,"Ġ#":5579,"ĠEmperor":5580,"Ġstructures":5581,"Ġmotion":5582,"Ġcomic":5583,"mouth":5584,"Ġthrow":5585,"hens":5586,"Ġtrail":5587,"Ġaid":5588,"Ġcry":5589,"Ġfocused":5590,"Ġopportunity":5591,"Ġengaged":5592,"Ġreceiving":5593,"Ġlabor":5594,"Ġshark":5595,"Ġshooting":5596,"Ġanalysis":5597,"Ġ1975":5598,"ĠMah":5599,"Ġcorrespond":5600,"Ġcitizens":5601,"Ġhair":5602,"Ġlap":5603,"ola":5604,"iration":5605,"Ġpros":5606,"Ġnotable":5607,"Ġstrengthen":5608,"och":5609,"Ġsport":5610,"Ġobserv":5611,"ĠGulf":5612,"Ġadap":5613,"Ġmotor":5614,"ĠJr":5615,"usc":5616,"Ġexperienced":5617,"ĠShak":5618,"ĠGermans":5619,"ĠSerb":5620,"Ġconference":5621,"Ġproviding":5622,"Ġholding":5623,"ĠPress":5624,"ĠHollywood":5625,"ĠWalter":5626,"ĠMot":5627,"ĠOnly":5628,"Ġvisual":5629,"ults":5630,"Ġresident":5631,"Ġ1974":5632,"Ġmountain":5633,"ĠDavis":5634,"Ġdry":5635,"Ġhired":5636,"Ġ59":5637,"Ġsoutheast":5638,"Ġcharts":5639,"Ġeyes":5640,"Ġviewed":5641,"ĠSummer":5642,"unior":5643,"ifically":5644,"Ġrapidly":5645,"ĠBas":5646,"Ġrecognized":5647,"Ġbranch":5648,"Ġvolume":5649,"Ġmerch":5650,"Ġ1973":5651,"Ġtransform":5652,"opher":5653,"ĠDemocratic":5654,"ĠPu":5655,"Ġ99":5656,"ĠReview":5657,"ĠBarb":5658,"Ġscholars":5659,"vention":5660,"Ġsites":5661,"inger":5662,"zer":5663,"Ġcasualties":5664,"Ġgain":5665,"Ġrob":5666,"Ġshared":5667,"uan":5668,"Ġteach":5669,"Ġmut":5670,"ĠWater":5671,"ĠSpecial":5672,"ĠBetween":5673,"Ġconcer":5674,"Ġpublication":5675,"Ġvac":5676,"ĠJean":5677,"Ġparallel":5678,"inth":5679,"Ġprote":5680,"Ġtemperature":5681,"ĠInc":5682,"Ġdigital":5683,"Ġ1976":5684,"ĠBor":5685,"essed":5686,"ĠMu":5687,"ĠAtt":5688,"Ġeconomy":5689,"ĠSa":5690,"burgh":5691,"Ġmoder":5692,"Ġdeveloping":5693,"FL":5694,"ĠRome":5695,"Ġreaction":5696,"ĠGib":5697,"Ġedge":5698,"sey":5699,"standing":5700,"Ġsteel":5701,"Ġintersection":5702,"Ġcool":5703,"ĠPrinc":5704,"Ġcart":5705,"friend":5706,"olt":5707,"Ġsymbol":5708,"Ġapproved":5709,"Ġsecondary":5710,"ĠFall":5711,"Ġchance":5712,"oncÃ©":5713,"Ġ63":5714,"ĠLady":5715,"Ġvon":5716,"ĠBank":5717,"ĠKir":5718,"Ġwa":5719,"Ġlosses":5720,"ĠDown":5721,"Ġprepared":5722,"omew":5723,"Ġbelief":5724,"Ġsubstant":5725,"Ġletters":5726,"ĠDaily":5727,"Ġwitness":5728,"ĠMusl":5729,"Ġsignificantly":5730,"ĠGord":5731,"ĠWomen":5732,"ingly":5733,"ĠLab":5734,"Ġenl":5735,"Ġbands":5736,"iful":5737,"ĠVar":5738,"Ġ77":5739,"Ġharm":5740,"Ġ73":5741,"Ġsort":5742,"rence":5743,"Ġsave":5744,"ĠGreg":5745,"ns":5746,"iter":5747,"ĠPo":5748,"ĠTro":5749,"Ġdomestic":5750,"ĠUN":5751,"ĠProv":5752,"Ġmyth":5753,"Ġrac":5754,"Ġfranchise":5755,"Ġknew":5756,"iger":5757,"Ġven":5758,"Ġliterature":5759,"Ġgoes":5760,"ĠBeyoncÃ©":5761,"ĠNap":5762,"Ġunsuccess":5763,"Ġinstruct":5764,"Ġactress":5765,"Ġsouthwest":5766,"ĠSyd":5767,"ĠKa":5768,"Ġtechnology":5769,"Ġheads":5770,"Ġroughly":5771,"Ġ250":5772,"Ġsurvey":5773,"yer":5774,"Ġcard":5775,"Ġadvent":5776,"Ġdescend":5777,"Ġmic":5778,"igation":5779,"ographic":5780,"theless":5781,"Ġpainting":5782,"awa":5783,"Ġadult":5784,"Ġanything":5785,"ients":5786,"Ġcars":5787,"ĠCommand":5788,"Ġurban":5789,"Ġprojects":5790,"Ġsemi":5791,"ĠColonel":5792,"break":5793,"Ġassault":5794,"Ġlb":5795,"Ġexact":5796,"Ġbrothers":5797,"achus":5798,"Ġpitch":5799,"Ġgameplay":5800,"Ġresistance":5801,"eral":5802,"ĠNaz":5803,"unte":5804,"Ġhyp":5805,"Ġstoryline":5806,"ĠSupreme":5807,"Ġshape":5808,"ĠIndust":5809,"ĠPoint":5810,"Ġreasons":5811,"Ġrules":5812,"Ġemployed":5813,"vest":5814,"ĠKentucky":5815,"Ġcore":5816,"Ġdaily":5817,"Ġinjured":5818,"Ġtank":5819,"Ġ1946":5820,"Ġwatched":5821,"ĠNick":5822,"Ġshall":5823,"ĠStation":5824,"Ġ1981":5825,"asty":5826,"iminal":5827,"ĠMos":5828,"onder":5829,"Ġagent":5830,"Ġcab":5831,"Ġpopularity":5832,"box":5833,"Ġcomposition":5834,"ologist":5835,"ĠâĪĴ":5836,"Ġign":5837,"ropri":5838,"Ġsand":5839,"Ġperhaps":5840,"Ġadding":5841,"Ġenjoyed":5842,"ĠIV":5843,"Ġrenamed":5844,"Ġisol":5845,"Ġgetting":5846,"Ġopinion":5847,"ĠSpring":5848,"Ġdeclined":5849,"ĠIndepend":5850,"Ġfit":5851,"ĠNorway":5852,"amm":5853,"Ġcompris":5854,"Ġreputation":5855,"Ġ67":5856,"osa":5857,"Ġconnected":5858,"gers":5859,"Ġshaped":5860,"mann":5861,"Ġestate":5862,"Ġretire":5863,"ĠFair":5864,"Ġmuseum":5865,"Ġ1917":5866,"Ġdrew":5867,"Ġundert":5868,"ĠWhit":5869,"Ġregarding":5870,"worth":5871,"ĠTen":5872,"ĠOlympics":5873,"Ã¤":5874,"Ġlov":5875,"istan":5876,"Ġpoem":5877,"Ġstages":5878,"Ġconverted":5879,"inking":5880,"Ġviews":5881,"ĠBern":5882,"heim":5883,"Ġrend":5884,"ĠMassachus":5885,"Ġnor":5886,"ĠTheat":5887,"itors":5888,"ĠSand":5889,"ceived":5890,"avel":5891,"Ġagricult":5892,"Ġallows":5893,"ĠPhilipp":5894,"onym":5895,"ĠGolden":5896,"ador":5897,"Ġalternative":5898,"omic":5899,"Ġdistingu":5900,"ua":5901,"ĠRoss":5902,"Ġcalc":5903,"ĠMassachusetts":5904,"ĠBase":5905,"ĠMain":5906,"ulpt":5907,"Ġheaded":5908,"ĠOb":5909,"Ġnick":5910,"Ġjourney":5911,"bound":5912,"istol":5913,"Ġdepth":5914,"ĠAbb":5915,"ĠWalk":5916,"Ġmissing":5917,"Ġcited":5918,"Ġincreasingly":5919,"ĠPrem":5920,"Ġsun":5921,"Ġstadium":5922,"Ġapproached":5923,"osl":5924,"rets":5925,"Ġturning":5926,"Ġ68":5927,"ĠDream":5928,"ĠAirport":5929,"verse":5930,"Ġ96":5931,"Ġresponded":5932,"Ġplanning":5933,"Ġeasily":5934,"Ġknowledge":5935,"ĠMas":5936,"Ġexerc":5937,"Ġwealth":5938,"ĠSus":5939,"Ġoverl":5940,"Ġ1948":5941,"Ġ160":5942,"enc":5943,"Ġ82":5944,"Ġcells":5945,"ipe":5946,"Ġfashion":5947,"Ġescort":5948,"eper":5949,"ĠRon":5950,"Ġsucceeded":5951,"athan":5952,"Ġcollected":5953,"era":5954,"Ġequal":5955,"ĠAbout":5956,"psons":5957,"rett":5958,"Ġsafety":5959,"Ġexistence":5960,"ĠGra":5961,"Ġconstitution":5962,"ĠCur":5963,"Ġrebu":5964,"ules":5965,"oir":5966,"ĠLet":5967,"ĠPlan":5968,"ĠSimpsons":5969,"ignment":5970,"ilding":5971,"Ġauth":5972,"Ġintroduction":5973,"Ġmodels":5974,"Ġoccas":5975,"Ġlearned":5976,"Ġsustained":5977,"Ġtrip":5978,"ĠImp":5979,"ĠHart":5980,"Ġ700":5981,"Ġcolle":5982,"unicip":5983,"Ġoperating":5984,"Ġpromotion":5985,"Ġtall":5986,"ĠHan":5987,"ĠInit":5988,"Ġ1978":5989,"ba":5990,"Ġcarrying":5991,"ĠBall":5992,"Ġbaseball":5993,"Ġexchange":5994,"apes":5995,"ĠSongs":5996,"Ġshowing":5997,"ii":5998,"Ġrhy":5999,"Ġlimit":6000,"rin":6001,"ĠRun":6002,"Ġyouth":6003,"Ġburied":6004,"ĠVietnam":6005,"ĠImperial":6006,"wise":6007,"Ġ87":6008,"Ġhumans":6009,"Ġcredited":6010,"gal":6011,"mitted":6012,"uration":6013,"Ġflu":6014,"Ġdepend":6015,"come":6016,"Ġpul":6017,"Ġarranged":6018,"Ġimprove":6019,"ĠOttoman":6020,"ĠSel":6021,"zen":6022,"Ġseems":6023,"Ġweakened":6024,"Ġdesigns":6025,"Ġ1915":6026,"inary":6027,"ĠCape":6028,"ĠShortly":6029,"Ġimpl":6030,"Ġproducing":6031,"Ġproceed":6032,"iat":6033,"Ġathlet":6034,"Ġjoint":6035,"ĠPoland":6036,"Ġfreeway":6037,"Ġpaint":6038,"Ġhydro":6039,"ĠKen":6040,"Ġ1977":6041,"Ġearliest":6042,"ĠSydney":6043,"Ġlasted":6044,"Ġshel":6045,"Ġlandfall":6046,"ĠMaryland":6047,"Ġsettlement":6048,"Ġnote":6049,"Ġdescription":6050,"ĠMoore":6051,"Ġretained":6052,"Ġacres":6053,"leton":6054,"Ġ69":6055,"ĠWho":6056,"state":6057,"Ġ78":6058,"ĠLoc":6059,"Ġlaws":6060,"Ġappoint":6061,"Ġvan":6062,"ĠStew":6063,"Ġflat":6064,"ĠMTV":6065,"Ġgenre":6066,"ĠNaval":6067,"ĠHa":6068,"ĠPict":6069,"Ġbed":6070,"ĠBal":6071,"ivalent":6072,"Ġprograms":6073,"Ġassistant":6074,"eman":6075,"Ġreplace":6076,"Ġton":6077,"Ġplayoff":6078,"ĠRoy":6079,"Ġreserve":6080,"Ġinstall":6081,"Ġconsc":6082,"Ġstatement":6083,"Ġapplied":6084,"put":6085,"ivered":6086,"ources":6087,"issance":6088,"iling":6089,"ĠMcG":6090,"Ġviolence":6091,"Ġ1963":6092,"insula":6093,"Ġscientific":6094,"Ġentrance":6095,"Ġcoastal":6096,"Ġcatch":6097,"iform":6098,"Ġtrust":6099,"bell":6100,"ader":6101,"Ġerr":6102,"Ġvirt":6103,"Ġhits":6104,"otic":6105,"Ã¡n":6106,"Ġ91":6107,"Ġneut":6108,"ĠJes":6109,"ato":6110,"Ġaw":6111,"Ġconsequ":6112,"Ġtick":6113,"ĠCa":6114,"osis":6115,"Ġmaintain":6116,"othes":6117,"iege":6118,"reets":6119,"ĠArts":6120,"Ġexclus":6121,"Ġpatrol":6122,"Ġitems":6123,"Ġbattery":6124,"Ġcandidate":6125,"Ġindicated":6126,"ĠJay":6127,"tical":6128,"Ġtowns":6129,"Ġsculpt":6130,"Ġgradually":6131,"Ġdistribution":6132,"Ġ1916":6133,"Ġpolitics":6134,"Ġsynt":6135,"ĠBowl":6136,"Ġdelivered":6137,"math":6138,"Ġstopped":6139,"eler":6140,"Ġfilled":6141,"ĠAD":6142,"ĠEdu":6143,"Ġindependence":6144,"Ġsections":6145,"Ġdetails":6146,"engers":6147,"Ġ94":6148,"ĠMulder":6149,"Ġstream":6150,"ĠConfeder":6151,"Ġtact":6152,"apped":6153,"Ġcombination":6154,"onia":6155,"Ġselect":6156,"Ġsupplies":6157,"Ġways":6158,"oard":6159,"time":6160,"Ġcinem":6161,"eke":6162,"Ġparties":6163,"Ġengines":6164,"ĠPass":6165,"Ġemp":6166,"Ġprisoners":6167,"Ġcamera":6168,"ads":6169,"ĠBra":6170,"ĠGordon":6171,"Ġban":6172,"ĠFire":6173,"Ġglass":6174,"Ġappeal":6175,"ĠIG":6176,"ĠRem":6177,"Ġaware":6178,"ĠStadium":6179,"Ġ1919":6180,"Ġregister":6181,"ĠRhodes":6182,"Ġcampus":6183,"ushing":6184,"Ġ1962":6185,"Ġacts":6186,"Ġbask":6187,"hr":6188,"emies":6189,"Ġextremely":6190,"ira":6191,"rell":6192,"ora":6193,"Ġ98":6194,"Ġentitled":6195,"Ġsecure":6196,"izations":6197,"Ġalle":6198,"ĠAri":6199,"Ġfinding":6200,"ĠBos":6201,"lee":6202,"Ġdecade":6203,"Ġonline":6204,"Ġ81":6205,"Ġty":6206,"ĠWell":6207,"Ġwinner":6208,"poration":6209,"iversary":6210,"ĠTheatre":6211,"idden":6212,"eless":6213,"Ġevening":6214,"inois":6215,"Ġ71":6216,"Ġinvestigation":6217,"Ġ1938":6218,"Ġthreatened":6219,"Ġbought":6220,"Ġmessage":6221,"Ġadapted":6222,"Ġsurvived":6223,"Ġsomew":6224,"Ġuns":6225,"Ġknots":6226,"ĠStaff":6227,"va":6228,"Ġstudied":6229,"ella":6230,"Ġproposal":6231,"Ġtal":6232,"Ġwrites":6233,"ĠUnivers":6234,"Ġaddress":6235,"Ġarc":6236,"ender":6237,"Ġdeaths":6238,"ĠJustice":6239,"Ġconsum":6240,"ĠHere":6241,"Ġroutes":6242,"Ġruled":6243,"Ġregiment":6244,"Ġdownload":6245,"ashed":6246,"ĠInstead":6247,"Ġwars":6248,"ĠProf":6249,"Ġrelief":6250,"ĠConstant":6251,"Ġfear":6252,"Ġmales":6253,"Ġreduce":6254,"icks":6255,"Ġreligion":6256,"Ġvoted":6257,"ĠBir":6258,"ieval":6259,"Ġspecifically":6260,"ĠBand":6261,"Ġspons":6262,"Ġrevolution":6263,"ropol":6264,"Ġduty":6265,"Ġcrown":6266,"Ġphase":6267,"iro":6268,"ĠAC":6269,"phoon":6270,"Ġkingdom":6271,"Ã¸":6272,"Ġrecalled":6273,"Ġ89":6274,"Ġportrayed":6275,"ĠAge":6276,"Ġfict":6277,"ansas":6278,"ĠJan":6279,"ĠKim":6280,"Ġsoul":6281,"Ġimplement":6282,"Ġcontroversy":6283,"rec":6284,"ighters":6285,"iques":6286,"Ġcauses":6287,"Ġemerg":6288,"ĠMemorial":6289,"ctions":6290,"Ġeverything":6291,"Ġbreeding":6292,"ĠTony":6293,"Ġreferences":6294,"Ġstret":6295,"Ġ1956":6296,"ervative":6297,"Ġsell":6298,"Ġago":6299,"Ġcapable":6300,"ĠAnth":6301,"Ġconvin":6302,"Ġimportance":6303,"Ġbottom":6304,"Ġteacher":6305,"aka":6306,"Ġ175":6307,"Ġmeters":6308,"ĠSingles":6309,"ĠNic":6310,"Ġoffers":6311,"Ġentry":6312,"bourne":6313,"Ġble":6314,"Ġtanks":6315,"senal":6316,"ician":6317,"Ġsufficient":6318,"aints":6319,"Ġowner":6320,"Ġ130":6321,"Ġarrested":6322,"aked":6323,"Ġopera":6324,"ĠDirector":6325,"ĠCop":6326,"Ġadmitted":6327,"entially":6328,"ĠCirc":6329,"ĠAdams":6330,"Ġec":6331,"ĠBon":6332,"Ġinternal":6333,"Ġnomination":6334,"acter":6335,"Ġcorner":6336,"Ġ88":6337,"BN":6338,"Ġet":6339,"ĠNel":6340,"ĠVill":6341,"Ġcrossed":6342,"chers":6343,"Ġproducts":6344,"Ġ1936":6345,"Ġclimb":6346,"ĠAlan":6347,"ĠCritical":6348,"Ġequipped":6349,"Ġinstalled":6350,"ĠDougl":6351,"ĠKong":6352,"Ġconcerns":6353,"Ġoverse":6354,"anean":6355,"ĠHamilton":6356,"ĠIGN":6357,"ĠJord":6358,"Ġpreced":6359,"Ġinvited":6360,"ĠPower":6361,"ĠEngine":6362,"Ġconvoy":6363,"Ġinterested":6364,"Ġones":6365,"Ġstarts":6366,"ĠBeach":6367,"Ġprincipal":6368,"ĠJane":6369,"Ġcrime":6370,"wich":6371,"adow":6372,"Ġrecommended":6373,"lan":6374,"Ġconqu":6375,"ĠMaria":6376,"ĠSimon":6377,"Ġremainder":6378,"ĠMcK":6379,"Ġ79":6380,"ĠÎ":6381,"Ġmedal":6382,"Ġactual":6383,"ĠYour":6384,"Ġmort":6385,"ĠMoon":6386,"ĠUTC":6387,"Ġretreat":6388,"ĠKennedy":6389,"Ġshut":6390,"Ġtell":6391,"ructure":6392,"Ġautom":6393,"espread":6394,"Ġcharged":6395,"Ġacid":6396,"ĠFA":6397,"ĠPlot":6398,"ĠColl":6399,"Ġbor":6400,"Ġobjects":6401,"Ġprice":6402,"Ġfunds":6403,"Ġapart":6404,"BS":6405,"Ġcomposer":6406,"Ġ1961":6407,"Ġsolid":6408,"Ġdoor":6409,"ĠForest":6410,"hat":6411,"Ġconsisting":6412,"Ġfemales":6413,"aug":6414,"Ġpromote":6415,"Ġstock":6416,"Ġalt":6417,"Ġunl":6418,"ĠAdam":6419,"ĠVII":6420,"Ġfly":6421,"ĠGram":6422,"Ġpage":6423,"ĠAlf":6424,"Ġconsiderable":6425,"Ġvent":6426,"Ġdates":6427,"ilation":6428,"ĠVideo":6429,"Ġmilit":6430,"ĠNBA":6431,"ela":6432,"ĠIndones":6433,"Ġnest":6434,"Ġsnow":6435,"ĠFound":6436,"entions":6437,"ĠVe":6438,"Ġtypical":6439,"Ġ1953":6440,"met":6441,"ĠCart":6442,"ĠId":6443,"ĠDeath":6444,"ĠNether":6445,"Ġgrounds":6446,"ĠToday":6447,"ko":6448,"Ġextension":6449,"Ġduties":6450,"erted":6451,"Ġcorrect":6452,"Ġintegr":6453,"Ġgall":6454,"Ġsomeone":6455,"Ġevolution":6456,"ĠProg":6457,"ĠMilitary":6458,"Ġrural":6459,"ali":6460,"ĠEric":6461,"ĠIndiana":6462,"Ġpenal":6463,"ĠSunday":6464,"Ġeighth":6465,"ĠTransport":6466,"vements":6467,"ĠHoward":6468,"Ġhotel":6469,"Ġdecades":6470,"Ġimages":6471,"Ġ92":6472,"Ġblow":6473,"Ġdriving":6474,"Ġreading":6475,"rete":6476,"ĠProject":6477,"ĠScully":6478,"Ġidentity":6479,"Ġzone":6480,"ĠNorwe":6481,"ĠAst":6482,"Ġoccurs":6483,"ĠOk":6484,"Ġsole":6485,"after":6486,"osite":6487,"Ġmanner":6488,"Ġchallenge":6489,"Ġlane":6490,"Ġremix":6491,"Ġskin":6492,"Ġaspects":6493,"Ġpermanent":6494,"ĠHitler":6495,"Ġbrigade":6496,"ati":6497,"ĠOd":6498,"Ġ1947":6499,"bro":6500,"Ġham":6501,"Ġdated":6502,"upt":6503,"Ġspin":6504,"Ġ1958":6505,"Ġvolcan":6506,"ĠFive":6507,"Ġfrag":6508,"Ġnoting":6509,"ĠLeon":6510,"Ġsubs":6511,"ĠPortug":6512,"Ġrestaur":6513,"Ġsupporters":6514,"Ġslowly":6515,"ĠHou":6516,"Ġ84":6517,"Ġposted":6518,"Ġcolour":6519,"hetic":6520,"Ġclean":6521,"ĠWWE":6522,"Ġ1910":6523,"wick":6524,"Ġdescribing":6525,"ensus":6526,"Ġ1957":6527,"ĠResearch":6528,"ĠMarc":6529,"Ġinvolving":6530,"ĠCult":6531,"veland":6532,"Ġentering":6533,"osaurus":6534,"ivals":6535,"cknow":6536,"Ġspeak":6537,"ĠScience":6538,"Ġvessels":6539,"Ġenemies":6540,"Ġ1937":6541,"Ġequivalent":6542,"arp":6543,"Ġdress":6544,"ĠSav":6545,"Ġclasses":6546,"ĠAssembly":6547,"ĠRyan":6548,"aware":6549,"ĠPear":6550,"Ġdebate":6551,"Ġsettled":6552,"ĠRose":6553,"ĠGun":6554,"Ġdepartment":6555,"Ġobtained":6556,"Ġ93":6557,"ĠBry":6558,"Ġaccur":6559,"Ġaer":6560,"iley":6561,"ĠConstitution":6562,"Ġarmor":6563,"ĠMagazine":6564,"ĠTurk":6565,"Ġparliament":6566,"ĠGen":6567,"Ġbasic":6568,"risis":6569,"Ġpurchase":6570,"ĠRolling":6571,"Ġsongwrit":6572,"regon":6573,"ĠMountain":6574,"Ġ110":6575,"BI":6576,"agues":6577,"Ġoldest":6578,"ĠPit":6579,"ĠGill":6580,"ĠArgent":6581,"ĠBol":6582,"ĠCleveland":6583,"Ġfaith":6584,"Ġdeparture":6585,"Ġdin":6586,"Ġwidespread":6587,"Ġconcerned":6588,"Ġincome":6589,"Ġdecline":6590,"erto":6591,"Ġpup":6592,"bar":6593,"Ġattached":6594,"Ġformal":6595,"Ġconnection":6596,"ĠIllinois":6597,"ĠHug":6598,"iterr":6599,"ĠSpace":6600,"Ġrecognition":6601,"Ġfolk":6602,"ĠThroughout":6603,"Ġcertified":6604,"Ġaccused":6605,"ĠDouglas":6606,"heastern":6607,"ĠLenn":6608,"iller":6609,"Ġmemorial":6610,"Ġouter":6611,"Ġsequel":6612,"ĠWeekly":6613,"hus":6614,"Ġderived":6615,"cation":6616,"Ġmode":6617,"Ġdeleg":6618,"orney":6619,"ĠRele":6620,"ĠAndy":6621,"hered":6622,"Ġwearing":6623,"Ġdecor":6624,"Ġassumed":6625,"Ġ1959":6626,"ĠJordan":6627,"Ġdisturb":6628,"Ġswim":6629,"Ġtele":6630,"ĠOregon":6631,"ĠâĢĿ":6632,"Ġacclaim":6633,"ĠStanley":6634,"Ġacknow":6635,"Ġhip":6636,"Ġcommitted":6637,"western":6638,"Ġhosted":6639,"ĠArsenal":6640,"ĠPier":6641,"ommod":6642,"ĠThird":6643,"Ġreturns":6644,"AT":6645,"ĠNow":6646,"ĠStand":6647,"Ġwarm":6648,"Ġvalley":6649,"Ġsessions":6650,"ubb":6651,"Ġtorn":6652,"Ġpopulations":6653,"ekend":6654,"Ġfoss":6655,"ĠDisc":6656,"Ġdenied":6657,"ĠRecording":6658,"agonist":6659,"ĠFreder":6660,"ĠRoger":6661,"Ġfine":6662,"Ġsegment":6663,"ĠTreat":6664,"iterranean":6665,"ĠFeder":6666,"aki":6667,"Ġchampion":6668,"Ġtemple":6669,"ĠBeatles":6670,"Ġcharges":6671,"ĠMedia":6672,"Ġliterary":6673,"ĠFamily":6674,"ĠKevin":6675,"nic":6676,"icit":6677,"Ġthousands":6678,"ĠNorwegian":6679,"ĠPhilip":6680,"Ġterminus":6681,"ĠBruce":6682,"Ġtransition":6683,"Ġ1954":6684,"Ġ1955":6685,"ĠMediterranean":6686,"idges":6687,"Ġflo":6688,"Ġsupposed":6689,"Ġregional":6690,"Ġcong":6691,"iously":6692,"Ġ86":6693,"ĠBristol":6694,"Ġwickets":6695,"alog":6696,"ĠâĢľ":6697,"aret":6698,"ooth":6699,"ione":6700,"Ġcanc":6701,"Ġdemand":6702,"ĠTenn":6703,"reck":6704,"ĠKat":6705,"Ġshots":6706,"ĠISBN":6707,"Ġstrongly":6708,"aired":6709,"ÅĤ":6710,"ĠIra":6711,"ĠSky":6712,"ĠLow":6713,"Ġcirculation":6714,"Ġhang":6715,"Ġintelligence":6716,"hedral":6717,"Ġsailed":6718,"Ġpossibility":6719,"udden":6720,"Ġpassengers":6721,"Ġhope":6722,"achel":6723,"Ġgeneration":6724,"Ġanimated":6725,"heme":6726,"Ġcircum":6727,"Ġfreedom":6728,"Ġthirty":6729,"Ġfictional":6730,"Ġcommit":6731,"Ġdowntown":6732,"ĠFederal":6733,"Ġansw":6734,"ophy":6735,"fl":6736,"emed":6737,"Ġbehavior":6738,"ĠChannel":6739,"Ġminister":6740,"ĠMexican":6741,"ĠÃĹ":6742,"Ġhill":6743,"Ġrich":6744,"Ġreplacement":6745,"oz":6746,"ĠRain":6747,"Ġbegun":6748,"Ġcommanded":6749,"Ġassistance":6750,"eing":6751,"Ġmoves":6752,"Ġdestruction":6753,"Ġcloud":6754,"Ġpoly":6755,"Ġmissed":6756,"Ġmissions":6757,"Ġcriminal":6758,"Ġcosts":6759,"Ġexception":6760,"ras":6761,"Ġbrain":6762,"atinum":6763,"Ġfruit":6764,"Ġhighlight":6765,"Ġbringing":6766,"ĠBush":6767,"Ġtied":6768,"rations":6769,"Ġcrash":6770,"ĠWithin":6771,"Ġintention":6772,"ĠKorea":6773,"ker":6774,"ĠTar":6775,"Ġfeeling":6776,"ategy":6777,"Ġspeaking":6778,"mes":6779,"Ġprotest":6780,"ĠAdditionally":6781,"ĠLisa":6782,"Ġfinishing":6783,"Ġunusual":6784,"Ġalleged":6785,"Ġintercept":6786,"ĠMaster":6787,"ĠFame":6788,"Ġproperties":6789,"Ġincorporated":6790,"rophy":6791,"Ġdemol":6792,"Ġstayed":6793,"Ġopposite":6794,"Ġattributed":6795,"Ġvolunte":6796,"Ġrecovered":6797,"oh":6798,"Ġbreaking":6799,"Ġemerged":6800,"ĠDig":6801,"Ġserves":6802,"uro":6803,"Ġsons":6804,"Ġ1952":6805,"Ġatmosphere":6806,"elsh":6807,"onto":6808,"ĠRow":6809,"ige":6810,"ĠWeb":6811,"aire":6812,"organ":6813,"Ġshop":6814,"ĠMorris":6815,"Ġtheatre":6816,"Ġoccasionally":6817,"ĠColor":6818,"Ġdriven":6819,"Ġchorus":6820,"ĠNorman":6821,"ĠPhill":6822,"othing":6823,"ĠScient":6824,"ĠConc":6825,"Ġstrateg":6826,"ĠRobinson":6827,"borne":6828,"oral":6829,"Ġclassic":6830,"Ġready":6831,"iva":6832,"Ġeffectively":6833,"Ġregularly":6834,"Ġcavalry":6835,"Ġdipl":6836,"Ġdang":6837,"ĠPrior":6838,"Ġestablishment":6839,"Ġprey":6840,"Ġcourts":6841,"Ġspok":6842,"Ġmethods":6843,"riers":6844,"Ġsounds":6845,"olec":6846,"Ġvary":6847,"Å¡":6848,"Ġ1933":6849,"ĠSimilar":6850,"ĠTelevision":6851,"pective":6852,"ĠAround":6853,"ĠInt":6854,"ĠHawai":6855,"ĠFI":6856,"ĠUnlike":6857,"Ġmaterials":6858,"Ġcompletion":6859,"ĠDal":6860,"Ġ176":6861,"ĠConstruction":6862,"Ġshore":6863,"Ġsuperv":6864,"ĠMorgan":6865,"Ġdivers":6866,"Ġresponsibility":6867,"Ġdream":6868,"enses":6869,"Ġdissip":6870,"wan":6871,"Ġattracted":6872,"Ġwarning":6873,"Ġsurviving":6874,"Ġfields":6875,"Ġaccommod":6876,"Ġpersu":6877,"Ġprovince":6878,"Ġheat":6879,"ĠNelson":6880,"Ġentertain":6881,"ĠAz":6882,"Ġclassified":6883,"Ġglobal":6884,"Ġdifferences":6885,"ĠPremier":6886,"Ġdivisions":6887,"ĠFrancis":6888,"oslav":6889,"Ġtechnical":6890,"ĠSweden":6891,"Ġ83":6892,"Ġinterpret":6893,"ĠBah":6894,"ĠIron":6895,"Ġ1935":6896,"Ġtom":6897,"ompl":6898,"thm":6899,"sole":6900,"lets":6901,"ĠUSA":6902,"nold":6903,"ĠFinn":6904,"Ġcruiser":6905,"ĠPatrick":6906,"Ġpassage":6907,"Ġquant":6908,"isms":6909,"abled":6910,"Ġaboard":6911,"ĠFord":6912,"ĠLanc":6913,"Ġclubs":6914,"Ġstood":6915,"Ġratings":6916,"pet":6917,"Ġneither":6918,"Ġassociation":6919,"Ġeleven":6920,"Ġmusicians":6921,"Ġrooms":6922,"ĠNich":6923,"ĠBudd":6924,"ĠCas":6925,"aza":6926,"Ġreinforce":6927,"Ġnone":6928,"Ġ1951":6929,"ece":6930,"oyd":6931,"Ġ1949":6932,"ĠTemple":6933,"Ġdesire":6934,"abb":6935,"Ġcheck":6936,"ĠToronto":6937,"Ġseparated":6938,"ĠPur":6939,"Ġclimate":6940,"ĠOw":6941,"ja":6942,"ĠHo":6943,"ĠWelsh":6944,"Ġshif":6945,"Ġoutbreak":6946,"nings":6947,"uty":6948,"Ġclassification":6949,"nce":6950,"ĠNations":6951,"weight":6952,"Ġvehicle":6953,"Ġmedic":6954,"Ġancest":6955,"Ġseemed":6956,"ĠByzantine":6957,"inton":6958,"Ġreality":6959,"Ġpredecess":6960,"ĠTechn":6961,"umin":6962,"ĠAnne":6963,"ĠAnton":6964,"Ġvotes":6965,"Ġchemical":6966,"Ġpicture":6967,"Ġbattleships":6968,"Ġmemory":6969,"ĠCE":6970,"teenth":6971,"ĠAllen":6972,"Ġhoped":6973,"Ġmovements":6974,"Ġrequested":6975,"isf":6976,"ez":6977,"ĠProfess":6978,"char":6979,"Ġhistorians":6980,"Ġraise":6981,"ĠNetherlands":6982,"oli":6983,"ĠJournal":6984,"ĠMatthew":6985,"omot":6986,"ĠEvery":6987,"Ġrose":6988,"Ġdifficulty":6989,"Ġbasketball":6990,"ĠMit":6991,"pper":6992,"agle":6993,"ĠAk":6994,"ewhere":6995,"Ġcommunities":6996,"Ġrestored":6997,"Ġsam":6998,"Ġille":6999,"Ġexpect":7000,"Ġmo":7001,"Ġremember":7002,"Ġprogramme":7003,"ĠDog":7004,"Ġnav":7005,"Ġteen":7006,"ĠJews":7007,"ĠDean":7008,"Ġpremiere":7009,"Ġdelayed":7010,"burn":7011,"Ġpure":7012,"Ġrelative":7013,"Ġdiscovery":7014,"ĠNar":7015,"ĠDE":7016,"Ġkid":7017,"Ġinspiration":7018,"ĠOpen":7019,"Ġotherwise":7020,"Ġgreatly":7021,"Ġsqu":7022,"pping":7023,"Ġanniversary":7024,"Ġvide":7025,"Ġinjuries":7026,"ĠUSS":7027,"ĠHell":7028,"ĠAgain":7029,"Ġaccounts":7030,"Ġneighbor":7031,"Ġobl":7032,"ĠDesign":7033,"Ġfunding":7034,"Ġsurrounded":7035,"ĠJacob":7036,"Ġflank":7037,"Ġspoke":7038,"Ġpraise":7039,"ĠPow":7040,"Ġpenalty":7041,"Ġbatting":7042,"Ġneeds":7043,"Ġdepict":7044,"Ġfal":7045,"ĠIraq":7046,"Ġ1900":7047,"ĠPA":7048,"ĠWhe":7049,"Ġpartner":7050,"Ġmassive":7051,"ĠDer":7052,"Ġweapon":7053,"Ġclaiming":7054,"Ġdie":7055,"Ġdens":7056,"ĠThomp":7057,"anny":7058,"Ġcrop":7059,"ĠBa":7060,"Ġsuit":7061,"ĠCab":7062,"Ġtries":7063,"ĠSax":7064,"Ġforming":7065,"Ġstrategy":7066,"ami":7067,"ĠBishop":7068,"ĠMarine":7069,"Ġassemb":7070,"ĠEs":7071,"osh":7072,"Ġwrong":7073,"Ġastron":7074,"ĠDomin":7075,"Ġru":7076,"Ġlegend":7077,"Ġdocumentary":7078,"Ġaccompl":7079,"Ġcrosses":7080,"Ġfled":7081,"Ġworst":7082,"ĠRaj":7083,"ĠCroatian":7084,"CA":7085,"yard":7086,"ici":7087,"Ġstands":7088,"don":7089,"ĠThompson":7090,"RA":7091,"ĠMarg":7092,"Ġtemporary":7093,"Ġarchitecture":7094,"ban":7095,"Ġgirls":7096,"ĠSports":7097,"Ġdetermine":7098,"abil":7099,"Ġtra":7100,"ca":7101,"gets":7102,"Ġdismissed":7103,"Ġgal":7104,"irt":7105,"Ġinvolvement":7106,"ĠArmen":7107,"ĠRussell":7108,"uble":7109,"uther":7110,"Ġrecru":7111,"Ġbombard":7112,"Ġsale":7113,"Ġcategory":7114,"ester":7115,"Ġplane":7116,"formula":7117,"ĠLast":7118,"Ġremn":7119,"real":7120,"ĠGlob":7121,"ĠCentre":7122,"Ġinner":7123,"Ġadaptation":7124,"Ġensure":7125,"Ġconvinced":7126,"ĠDick":7127,"Ġweekend":7128,"ĠNFL":7129,"ĠOak":7130,"ĠIslam":7131,"ĠPuerto":7132,"Ġsight":7133,"Ġhear":7134,"Ġlat":7135,"Ġash":7136,"Ġresources":7137,"ĠHeart":7138,"inder":7139,"Ġsomewhat":7140,"ĠHoly":7141,"Ġinterests":7142,"going":7143,"Ġreserv":7144,"Ġrot":7145,"ĠCarter":7146,"ĠKelly":7147,"Ġha":7148,"Ġscheme":7149,"Ġmedieval":7150,"Ġimmediate":7151,"Ġdispl":7152,"Ġshr":7153,"Ġlibrary":7154,"Ġstreets":7155,"Ġpresidential":7156,"oster":7157,"Ġabsor":7158,"ĠHop":7159,"Ġcul":7160,"Ġconsp":7161,"ĠTrib":7162,"ĠRick":7163,"Ġfalling":7164,"Ġray":7165,"ĠAlong":7166,"Ġcarbon":7167,"ĠCooper":7168,"Ġcolonial":7169,"agre":7170,"Ġtechniques":7171,"ĠModern":7172,"Ġfighter":7173,"Ġninth":7174,"Ġthrone":7175,"ĠNiel":7176,"Ġstarred":7177,"onds":7178,"Ġscrap":7179,"Ġappropri":7180,"Ġclassical":7181,"Ġeggs":7182,"ĠBrother":7183,"Ġraces":7184,"ĠMars":7185,"Ġacademic":7186,"body":7187,"ĠHend":7188,"Ġadults":7189,"Ġbright":7190,"Ġhal":7191,"ĠNetwork":7192,"Ġcommemor":7193,"Ġpassenger":7194,"Ġow":7195,"Ġsurviv":7196,"ĠHungarian":7197,"Ġloyal":7198,"ĠWinter":7199,"ĠFront":7200,"Ġori":7201,"Ġphotograph":7202,"Ġmeets":7203,"itzer":7204,"Ġlake":7205,"Ġreviewer":7206,"ĠDor":7207,"ĠWright":7208,"Ġpremiered":7209,"Ġsubmarine":7210,"Ġ1913":7211,"ĠEle":7212,"Ġabsence":7213,"ĠThus":7214,"Ġseeing":7215,"Ġfitted":7216,"icide":7217,"ĠSn":7218,"ĠBatman":7219,"Ġelse":7220,"Ġrenew":7221,"Ġsuperior":7222,"edding":7223,"wealth":7224,"ĠSpe":7225,"Ġsed":7226,"Ġalien":7227,"Ġfavorite":7228,"Ġinterior":7229,"Ġengineer":7230,"ĠParker":7231,"ĠFree":7232,"ĠWy":7233,"osure":7234,"ĠNC":7235,"ronze":7236,"night":7237,"Ġic":7238,"Ġpartn":7239,"Ġairport":7240,"ĠLabor":7241,"Ġdeemed":7242,"Ġattacking":7243,"Ġappearing":7244,"ĠHarris":7245,"Ġvisible":7246,"ĠGard":7247,"Ġconclusion":7248,"ania":7249,"Ġ1926":7250,"Ġdating":7251,"Ġromantic":7252,"acent":7253,"ĠBang":7254,"ĠJam":7255,"Ġcharacteristics":7256,"Ġsynthes":7257,"Ġdub":7258,"ĠAI":7259,"Ġleads":7260,"Ġelections":7261,"Ġoperate":7262,"Ġfacility":7263,"Ġencouraged":7264,"ran":7265,"Ġ1927":7266,"Ġafterwards":7267,"Ġretirement":7268,"ĠDNA":7269,"ĠLibrary":7270,"Ġlanded":7271,"Ġcolony":7272,"Ġtemperatures":7273,"Ġconvection":7274,"Ġeveryone":7275,"ĠMurray":7276,"ĠPak":7277,"Ġ1921":7278,"ses":7279,"Ġsuffering":7280,"Ġmunicip":7281,"bec":7282,"Ġholds":7283,"Ġcredit":7284,"Ġlegislation":7285,"Ġ1934":7286,"Ġlies":7287,"Ġmodified":7288,"ĠEducation":7289,"Ġ06":7290,"Ġrum":7291,"Ġpainted":7292,"Ġdoct":7293,"ĠKnight":7294,"Ġcontroversial":7295,"using":7296,"ĠNob":7297,"Ġwings":7298,"Ġgone":7299,"asure":7300,"vens":7301,"lyn":7302,"Ġbelieves":7303,"ĠâĤ":7304,"ossible":7305,"utt":7306,"Ġdistributed":7307,"Ġattempting":7308,"ĠHouston":7309,"ixon":7310,"Ġcode":7311,"urches":7312,"ĠPolice":7313,"roit":7314,"ĠLate":7315,"ĠCommander":7316,"Ġstandards":7317,"Ġlooked":7318,"Ġrescue":7319,"ĠBerlin":7320,"ĠPalace":7321,"Ġauthors":7322,"ivan":7323,"ĠGri":7324,"Ġsecured":7325,"Ġdepicted":7326,"ĠSimp":7327,"Ġcancer":7328,"Ġmonarch":7329,"Ġdominated":7330,"ogen":7331,"Ġ1912":7332,"Ġbattleship":7333,"aser":7334,"ĠAdvent":7335,"Ġhabitat":7336,"Ġcontinuing":7337,"Ġanyone":7338,"Ġbuy":7339,"Ġpin":7340,"Ġlongest":7341,"Ġjudge":7342,"apse":7343,"arsh":7344,"scape":7345,"ĠSanta":7346,"eor":7347,"coming":7348,"Ġbiggest":7349,"ĠSwedish":7350,"ĠGh":7351,"Ġunsuccessful":7352,"ĠCommonwealth":7353,"Ġgraphics":7354,"Ġgrass":7355,"Ġchairman":7356,"ito":7357,"rig":7358,"oen":7359,"Ġtrained":7360,"Ġarchae":7361,"Ġunion":7362,"Ġpound":7363,"Ġ900":7364,"emet":7365,"chang":7366,"ĠUt":7367,"ĠStory":7368,"ugoslav":7369,"ĠRoberts":7370,"Ġsudden":7371,"ĠSimpson":7372,"Ġwins":7373,"ĠTok":7374,"Ġarrangement":7375,"ultane":7376,"Ġcarrier":7377,"anth":7378,"Ġ1932":7379,"ĠCry":7380,"Ġneck":7381,"ĠHospital":7382,"Ġrailroad":7383,"ĠIndians":7384,"encies":7385,"Ġnickn":7386,"Ġjump":7387,"Ġacknowled":7388,"Ġod":7389,"igration":7390,"Ġinformed":7391,"Ġmeasures":7392,"ĠRAAF":7393,"eenth":7394,"Ġsan":7395,"Ġfer":7396,"ĠGet":7397,"rait":7398,"Ġrepresenting":7399,"Ġmap":7400,"emetery":7401,"ache":7402,"inals":7403,"apping":7404,"ĠObs":7405,"Ġreleases":7406,"aska":7407,"atically":7408,"eline":7409,"Ġbelt":7410,"ĠCorporation":7411,"Ġachieve":7412,"oming":7413,"ĠWarner":7414,"ture":7415,"Ġgarrison":7416,"á»":7417,"Ġsees":7418,"Ġformerly":7419,"ĠCook":7420,"ĠYugoslav":7421,"ĠJason":7422,"Ġgrade":7423,"Ġgenerated":7424,"uster":7425,"Ġconvention":7426,"book":7427,"ĠNBC":7428,"ĠEy":7429,"Ġcloser":7430,"Ġdeployed":7431,"Ġstyles":7432,"Ġemergency":7433,"ĠAnthony":7434,"Ġbats":7435,"ternal":7436,"ĠSilver":7437,"tenance":7438,"ĠSocial":7439,"Ġalleg":7440,"Ġquestions":7441,"Ġmoderate":7442,"Ġgets":7443,"Ġtrials":7444,"Ġfestival":7445,"ĠMort":7446,"Ã³n":7447,"Ġsiege":7448,"Ġmolec":7449,"Ġinfluential":7450,"Ġhistoric":7451,"Ġcycle":7452,"Ġemotional":7453,"ĠEst":7454,"ĠCroatia":7455,"Ġveter":7456,"opes":7457,"ĠYan":7458,"ĠDetroit":7459,"fare":7460,"Ġowners":7461,"Ġnovels":7462,"hire":7463,"ĠLyn":7464,"Ġsuccessor":7465,"Ġinfluences":7466,"Ġnarrative":7467,"ĠMerc":7468,"mun":7469,"ĠGaga":7470,"ĠRAF":7471,"Ġ1929":7472,"po":7473,"olph":7474,"ĠBou":7475,"Ġjournalist":7476,"Ġthin":7477,"ĠBure":7478,"ĠTrack":7479,"Ġchildhood":7480,"vis":7481,"Ġ1911":7482,"Ġexperiences":7483,"otype":7484,"Ġstead":7485,"Ġexcess":7486,"Ġeat":7487,"Ġconstant":7488,"ĠAuthor":7489,"iography":7490,"ĠChamber":7491,"Ġdefended":7492,"Ġdiscussed":7493,"Ġlegs":7494,"Ġapparently":7495,"ĠGilbert":7496,"ĠPrincess":7497,"Ġalco":7498,"Ġ08":7499,"Ġpregn":7500,"ĠBelg":7501,"owa":7502,"Ġinstruments":7503,"Ġmathem":7504,"Ġassass":7505,"hess":7506,"Ġvictims":7507,"Ġtreated":7508,"aws":7509,"ĠSpears":7510,"Ġenvironmental":7511,"Ġveget":7512,"Ġgiant":7513,"Ġexecuted":7514,"Ġdetail":7515,"Ġcoins":7516,"ji":7517,"tic":7518,"Ġ1931":7519,"yo":7520,"ĠCru":7521,"ĠAsian":7522,"Ġdiplom":7523,"Ġster":7524,"Ġoffices":7525,"Ġ1922":7526,"fire":7527,"Ġ140":7528,"Ġfactors":7529,"ĠJesus":7530,"har":7531,"arked":7532,"Ġdepos":7533,"Ġmine":7534,"imore":7535,"Ġenters":7536,"Ġhunting":7537,"Ġwooden":7538,"Ġconcur":7539,"ĠMelbourne":7540,"ĠSomers":7541,"Ġbear":7542,"ĠNielsen":7543,"achment":7544,"noon":7545,"ĠEvans":7546,"ĠPope":7547,"Ġmaint":7548,"Ġhundreds":7549,"aft":7550,"usted":7551,"ĠHin":7552,"Ġresigned":7553,"Ġride":7554,"ĠVice":7555,"ĠClinton":7556,"ĠUlt":7557,"ĠXbox":7558,"Ġskills":7559,"ĠDesc":7560,"Ġchannel":7561,"Ġuniform":7562,"Ġreveals":7563,"Ġgay":7564,"aste":7565,"Ġocean":7566,"ĠNevertheless":7567,"Ġ09":7568,"Ġchapter":7569,"Ġpointed":7570,"ĠCategory":7571,"Ġbab":7572,"Ġridge":7573,"Ġspend":7574,"Ġwatching":7575,"ĠGuy":7576,"Ġprevented":7577,"stances":7578,"Ġclim":7579,"iliar":7580,"ĠStewart":7581,"Ġpreferred":7582,"ĠMuslim":7583,"Ġpushed":7584,"ĠPC":7585,"ĠAtlant":7586,"agu":7587,"Ġformat":7588,"ĠLi":7589,"Ġlocomot":7590,"Ġfootage":7591,"Ġlanguages":7592,"Ġdifference":7593,"Ġopponents":7594,"Ġhappened":7595,"Ġformally":7596,"Ġthereafter":7597,"Ġflew":7598,"Ġdrums":7599,"Ġreportedly":7600,"ĠHeavy":7601,"Ġfacing":7602,"Ġrelationships":7603,"ĠTower":7604,"Ġresign":7605,"Ġintense":7606,"Ġthousand":7607,"Ġhanded":7608,"ĠSamuel":7609,"ĠTurkish":7610,"Ġdevice":7611,"Ġnotably":7612,"ĠOrigin":7613,"Ġpull":7614,"ĠCarib":7615,"Ġanimation":7616,"ĠExpress":7617,"Ġfiring":7618,"icians":7619,"ogether":7620,"PA":7621,"rees":7622,"ĠWing":7623,"Ġchain":7624,"Ġinhabit":7625,"ĠLennon":7626,"Ġexisted":7627,"Ġvisitors":7628,"tty":7629,"Ġvision":7630,"text":7631,"ĠSarah":7632,"Ġgather":7633,"Ġsurrender":7634,"Ġemployees":7635,"ĠGreece":7636,"ĠBaltimore":7637,"ĠReal":7638,"ais":7639,"Ġaccompany":7640,"orous":7641,"ĠAustria":7642,"Ġbon":7643,"ĠAlbums":7644,"una":7645,"Ġdeparted":7646,"Ġlinked":7647,"Ã±":7648,"Ġhearing":7649,"Ġexposed":7650,"Ġboil":7651,"Ġparticipate":7652,"ĠQueens":7653,"Ġpoetry":7654,"20":7655,"ĠTal":7656,"Ġdialogue":7657,"ĠBenn":7658,"onies":7659,"ĠBird":7660,"Ġextent":7661,"ching":7662,"Ġdetailed":7663,"Ġannounce":7664,"bean":7665,"Ġ170":7666,"spec":7667,"Ġsubstantial":7668,"Ġlearning":7669,"ĠColorado":7670,"usic":7671,"Ġaudio":7672,"Ġinstance":7673,"ĠOrgan":7674,"Ġuniverse":7675,"Ġrebell":7676,"ĠLev":7677,"Ġcruisers":7678,"IA":7679,"Ġresidential":7680,"Ġbeach":7681,"ĠLane":7682,"Ġimpressed":7683,"ĠWriting":7684,"rum":7685,"ropolitan":7686,"Ġbes":7687,"resent":7688,"ĠEdd":7689,"Ġperiods":7690,"ĠInitially":7691,"ĠHans":7692,"ĠRey":7693,"ĠMarshall":7694,"endment":7695,"Ġhuge":7696,"prise":7697,"ĠFoundation":7698,"iens":7699,"orage":7700,"Ġpublisher":7701,"ĠMalays":7702,"uts":7703,"hatt":7704,"Ġtaught":7705,"ullivan":7706,"Ġeasy":7707,"raph":7708,"Ġplate":7709,"ĠDave":7710,"Ġafternoon":7711,"Ġenthus":7712,"Ġutil":7713,"Ġfil":7714,"stic":7715,"ĠStock":7716,"Ġterritories":7717,"ĠFrederick":7718,"Ġdriver":7719,"Ġstem":7720,"ĠChronic":7721,"Ġtesting":7722,"lie":7723,"Ġimprison":7724,"Ġreviewers":7725,"Ġvideos":7726,"ĠArk":7727,"Ġ05":7728,"boy":7729,"Ġhappy":7730,"ĠWrestling":7731,"phy":7732,"Ġ1928":7733,"ois":7734,"rant":7735,"ĠHaving":7736,"Ġtests":7737,"ĠAud":7738,"iami":7739,"Ġhat":7740,"Ġupd":7741,"Ġtempor":7742,"itter":7743,"ĠRaw":7744,"Ġunderstand":7745,"ĠBanks":7746,"Ġteeth":7747,"Ġisolated":7748,"Ġsky":7749,"DS":7750,"Ġske":7751,"unes":7752,"Ġstable":7753,"Ġnegotiations":7754,"mad":7755,"Ġx":7756,"ribed":7757,"Ġvessel":7758,"ĠSomerset":7759,"Ġfeud":7760,"Ġdiameter":7761,"Ġinher":7762,"Ġagents":7763,"Ġreprodu":7764,"Ġsympt":7765,"Ġvul":7766,"ĠErn":7767,"Ġpicked":7768,"ĠHorse":7769,"ĠBed":7770,"ĠHorn":7771,"Ġmart":7772,"ĠAnna":7773,"ĠMario":7774,"Ġencountered":7775,"Ġbridges":7776,"Ġ1925":7777,"Ġgoods":7778,"Ġdangerous":7779,"elle":7780,"Ġfactor":7781,"ĠMun":7782,"ĠRelease":7783,"Ġwithdrew":7784,"Ġsleep":7785,"ĠLim":7786,"Ġjunior":7787,"Ġteamm":7788,"Ġsimultane":7789,"ĠSym":7790,"Ġdiagn":7791,"Ġaged":7792,"Ġfounder":7793,"Ġconsol":7794,"raf":7795,"ĠCz":7796,"ĠJess":7797,"Ġnormally":7798,"Ġupgraded":7799,"Ġreun":7800,"ĠAnglo":7801,"ĠGiants":7802,"ĠKnow":7803,"Ġkeeping":7804,"ĠMiami":7805,"Ġspecimens":7806,"Ġbehavi":7807,"orial":7808,"ican":7809,"Ġ1890":7810,"Ġpounds":7811,"ĠSeattle":7812,"ogan":7813,"ds":7814,"Ġmedium":7815,"Ġwindow":7816,"Ġsatell":7817,"icop":7818,"roke":7819,"Ġlob":7820,"Ġfrequent":7821,"Ġsure":7822,"Ġpartly":7823,"Ġrelie":7824,"Ġ1924":7825,"Ġtie":7826,"Ġcollaps":7827,"etime":7828,"Ġlowest":7829,"Ġethnic":7830,"Ġcrisis":7831,"oto":7832,"ĠChampionships":7833,"Ġresear":7834,"Ġengineering":7835,"Ġtoll":7836,"Ġprohib":7837,"ĠPlayer":7838,"ĠSoon":7839,"Ġapprec":7840,"Ġtraveled":7841,"ĠOt":7842,"Ġwhereas":7843,"Ġorganizations":7844,"Ġproced":7845,"Ġdesigner":7846,"Ġrarely":7847,"Ġlose":7848,"Ġrefers":7849,"Ġdiet":7850,"sea":7851,"amese":7852,"Ġdoesn":7853,"Ġturrets":7854,"uv":7855,"Ġtone":7856,"Ġtechnique":7857,"ĠTreaty":7858,"ĠIowa":7859,"Ġoutf":7860,"Ġdeter":7861,"Ġmir":7862,"Ġspending":7863,"Ġfinale":7864,"Ġcriticised":7865,"ĠAlab":7866,"ĠTs":7867,"Ġvice":7868,"Ġadvice":7869,"ĠTrek":7870,"Ġpermission":7871,"Ġvic":7872,"Ġmaintenance":7873,"mission":7874,"usal":7875,"Ġinsc":7876,"otes":7877,"ĠRa":7878,"Ġplatinum":7879,"Ġdifficulties":7880,"Ġuncertain":7881,"ĠBuck":7882,"borough":7883,"Ġpartially":7884,"Ġunderw":7885,"Ġpolicies":7886,"ĠAlabama":7887,"Ġbypass":7888,"Ġrestric":7889,"zy":7890,"Ġagree":7891,"Ġverse":7892,"ĠHuman":7893,"Ġfur":7894,"Ġcomplic":7895,"Ġmainstream":7896,"ĠForces":7897,"Ġcompete":7898,"Ġindicate":7899,"Ġpersonality":7900,"Ġranking":7901,"iece":7902,"lock":7903,"Ġca":7904,"Ġrecordings":7905,"alo":7906,"iy":7907,"uscript":7908,"ĠCaribbean":7909,"olas":7910,"Ġcomments":7911,"ennis":7912,"Ġexcell":7913,"Ġproport":7914,"inction":7915,"igen":7916,"Ġremove":7917,"Ġax":7918,"Ġliqu":7919,"Ġfinals":7920,"Ġrefuge":7921,"helm":7922,"Ġanticip":7923,"ologists":7924,"ĠLawrence":7925,"ĠMississ":7926,"Ġconcerts":7927,"Ġchronic":7928,"Ġsafe":7929,"ĠNapole":7930,"igs":7931,"ygen":7932,"Ġseats":7933,"Ġwindows":7934,"ilst":7935,"Ġunn":7936,"gery":7937,"Ġ1923":7938,"ĠCharlie":7939,"ĠYanke":7940,"kes":7941,"ĠML":7942,"urance":7943,"oked":7944,"Ġrestrict":7945,"Ġextreme":7946,"Ġfalls":7947,"Ġrates":7948,"attered":7949,"Ġrecommend":7950,"Ġfighters":7951,"Ġstrip":7952,"Ġhonour":7953,"Ġpitched":7954,"Ġrepair":7955,"ĠMinnes":7956,"ĠThen":7957,"Ġcovers":7958,"aria":7959,"ĠExt":7960,"Ġrecur":7961,"Ġrepresentative":7962,"ĠCanal":7963,"Ġsymp":7964,"Ġdivor":7965,"ĠSenator":7966,"Ġjur":7967,"Ġmonument":7968,"ĠCrown":7969,"Ġmoral":7970,"Ġtenth":7971,"Ġmamm":7972,"Ġalter":7973,"xual":7974,"Ġtruth":7975,"Ġprompted":7976,"Ġphen":7977,"Ġforcing":7978,"Ġdescribe":7979,"Ġphr":7980,"Ġbrand":7981,"away":7982,"Ġhockey":7983,"ĠBros":7984,"ĠBuff":7985,"Ġtot":7986,"ĠSab":7987,"ĠMinistry":7988,"Ġdestroyers":7989,"chell":7990,"Ġminimum":7991,"ĠIan":7992,"Ġshear":7993,"Ġreconst":7994,"roc":7995,"ĠTownship":7996,"ĠGarden":7997,"Ġchurches":7998,"Ġneighborhood":7999,"Ġdiff":8000,"Ġfriendly":8001,"Ġhull":8002,"ĠCre":8003,"Ġovers":8004,"Ġboys":8005,"Ġexamples":8006,"ĠGrammy":8007,"Ġbases":8008,"ĠHungary":8009,"Ġdrawing":8010,"ĠNazi":8011,"power":8012,"Ġtravelled":8013,"iac":8014,"ĠHand":8015,"ĠCountry":8016,"Ġbombers":8017,"Ġpric":8018,"Ġtub":8019,"Ġdoctor":8020,"ĠMcD":8021,"Ġdynasty":8022,"ĠCall":8023,"Ġadjacent":8024,"Ġinaug":8025,"Ġapproval":8026,"Ġhousing":8027,"ĠHealth":8028,"Ġdisplayed":8029,"ĠBenj":8030,"isd":8031,"Ġ07":8032,"ĠAustralians":8033,"ĠReturn":8034,"anium":8035,"ĠBelgium":8036,"MA":8037,"Ġcredits":8038,"ĠDance":8039,"ĠFran":8040,"Ġcreator":8041,"icy":8042,"ĠHamp":8043,"ĠUSD":8044,"ĠChristopher":8045,"gro":8046,"Ġgrown":8047,"Ġjoining":8048,"Ġlisting":8049,"Ġcollapse":8050,"Ġtribute":8051,"ĠDiego":8052,"Ġpartnership":8053,"aya":8054,"ĠBlood":8055,"Ġprotagonist":8056,"ĠPolit":8057,"ĠMedal":8058,"ĠShakesp":8059,"rain":8060,"ĠEvent":8061,"Ġmoments":8062,"Ġacted":8063,"Ġchanging":8064,"gas":8065,"Ġ*":8066,"Ġdesignation":8067,"Ġcreative":8068,"Ġexplo":8069,"Ġcopy":8070,"Ġpowered":8071,"FC":8072,"alions":8073,"ugby":8074,"olis":8075,"Ġasks":8076,"ĠChildren":8077,"Ġfung":8078,"ĠMP":8079,"onnaissance":8080,"Ġrefere":8081,"Ġturb":8082,"Ġradar":8083,"Ġtrend":8084,"ĠCold":8085,"Ġstorms":8086,"Ġvillages":8087,"Ġinstrumental":8088,"jo":8089,"Ġappointment":8090,"Ġarts":8091,"Ġdollars":8092,"ĠMuch":8093,"Ġorb":8094,"Ġ1905":8095,"Ġtreaty":8096,"Ġadvis":8097,"Ġpossession":8098,"Ġscientists":8099,"Ġ1908":8100,"ls":8101,"velt":8102,"Ġcanal":8103,"ĠCR":8104,"ĠRoc":8105,"Ġrounds":8106,"ĠOp":8107,"Ġvictories":8108,"Ġsurvive":8109,"ĠGuardian":8110,"Ġeliminated":8111,"Ġpaintings":8112,"ĠMach":8113,"ĠNat":8114,"ĠRepresent":8115,"ĠLegacy":8116,"ĠBenjamin":8117,"Ġcovering":8118,"Ġmand":8119,"imeter":8120,"ounced":8121,"Ġ1909":8122,"Ġtruck":8123,"Ġminimal":8124,"ĠRoose":8125,"ĠCred":8126,"Ġorbit":8127,"Ġju":8128,"ĠMichel":8129,"Ġels":8130,"Ġtelling":8131,"Ġprecip":8132,"ĠVietnamese":8133,"Ġelsewhere":8134,"ĠHockey":8135,"ĠRecord":8136,"Ġnewspapers":8137,"Ġsurprise":8138,"Ġbenefit":8139,"mers":8140,"ĠHud":8141,"Ġinnov":8142,"col":8143,"Ġseeking":8144,"Ġarriving":8145,"Ġhelping":8146,"ĠHills":8147,"icts":8148,"Ġoccupation":8149,"Ġsuicide":8150,"Ġwheel":8151,"ĠMinnesota":8152,"Ġgrav":8153,"Ġpurposes":8154,"Ġrhythm":8155,"ivated":8156,"Ġvalues":8157,"ĠLaure":8158,"Ġdispute":8159,"uda":8160,"otten":8161,"ĠRand":8162,"Ġunlike":8163,"Ġoccasions":8164,"Ġped":8165,"ĠDC":8166,"ĠKhan":8167,"ogy":8168,"ĠÃĨ":8169,"ĠAlfred":8170,"Ġsmooth":8171,"ĠDead":8172,"Ġloan":8173,"ecraft":8174,"ĠDur":8175,"Ġtwin":8176,"Ġoption":8177,"itud":8178,"Ġpool":8179,"rupted":8180,"ĠManhatt":8181,"Ġgard":8182,"active":8183,"Ġmanuscript":8184,"ĠManhattan":8185,"Ġfishing":8186,"ĠInterstate":8187,"Ġstruggle":8188,"Ġmarry":8189,"ĠWalker":8190,"ES":8191,"Ġbrick":8192,"idi":8193,"Ġsoil":8194,"ĠFranklin":8195,"ods":8196,"chen":8197,"ĠKurt":8198,"Ġmurd":8199,"Ġwet":8200,"ĠLl":8201,"ĠLin":8202,"forced":8203,"Ġbalance":8204,"ouri":8205,"Ġdegrees":8206,"Ġgat":8207,"ĠRoosevelt":8208,"Ġpreserved":8209,"rim":8210,"Ġschedule":8211,"bra":8212,"ographical":8213,"rows":8214,"ĠAdminist":8215,"rad":8216,"ĠHind":8217,"sters":8218,"ĠTrust":8219,"ĠPerform":8220,"atus":8221,"Ġ1907":8222,"ĠPeninsula":8223,"Ġpublicly":8224,"Ġcateg":8225,"ĠAh":8226,"ĠFlight":8227,"atherine":8228,"Ġcryst":8229,"Ġcooper":8230,"Ġviolent":8231,"enh":8232,"Ġresumed":8233,"Ġcandidates":8234,"iders":8235,"Ġflash":8236,"Ġemperor":8237,"Ġneighbour":8238,"Ġwedding":8239,"Ã©e":8240,"Ġcompeted":8241,"Ġpilots":8242,"Ar":8243,"ĠKansas":8244,"Ġ125":8245,"Ġsurvivors":8246,"munition":8247,"Ġabilities":8248,"Ġ105":8249,"Ġ164":8250,"ĠIndustry":8251,"roid":8252,"Ġdies":8253,"ĠLam":8254,"Ġprocl":8255,"Ġneutral":8256,"overs":8257,"Ġdiscip":8258,"Ġspan":8259,"ĠShel":8260,"Ġbeautiful":8261,"ĠMississipp":8262,"incial":8263,"Ġintensified":8264,"ĠSatur":8265,"30":8266,"Ġimpossible":8267,"entional":8268,"Ġalignment":8269,"ĠPortland":8270,"ĠComb":8271,"Ġteaching":8272,"ishment":8273,"Ġcoordin":8274,"Ġassisted":8275,"Ġcook":8276,"Ġdefeating":8277,"ĠAnim":8278,"Ġadvoc":8279,"Ġargument":8280,"Ġwrest":8281,"ĠThor":8282,"Ġpoison":8283,"Ġmulti":8284,"ĠBan":8285,"ante":8286,"Ġconcrete":8287,"Ġelectronic":8288,"Ġcustom":8289,"ĠNash":8290,"Ġlists":8291,"Ġnations":8292,"Ġconsult":8293,"Ġhelicop":8294,"acle":8295,"ĠBeck":8296,"Ġgrey":8297,"oking":8298,"ĠHotel":8299,"ĠHong":8300,"rome":8301,"Ġprosp":8302,"ĠBuilding":8303,"ĠTun":8304,"ĠSet":8305,"Ġrivers":8306,"Ġserial":8307,"ĠFal":8308,"ĠBorn":8309,"Ġassists":8310,"Ġlem":8311,"Ġopponent":8312,"Ġabsol":8313,"Ġinteresting":8314,"Ġfoundation":8315,"Ġelabor":8316,"Ġagricultural":8317,"rot":8318,"ĠAff":8319,"Ġbusinesses":8320,"ensions":8321,"Ġbacking":8322,"ĠDigital":8323,"ĠIce":8324,"Ġsuitable":8325,"ĠBull":8326,"Ġsimpl":8327,"ĠCole":8328,"Ġsigning":8329,"Ġ1880":8330,"ĠLith":8331,"Ġovert":8332,"Ġsubmitted":8333,"Ġtunnel":8334,"Ġoxygen":8335,"Ġdanc":8336,"ilty":8337,"Ġunderstanding":8338,"Ġmines":8339,"ĠDiv":8340,"ĠFried":8341,"Ġfifteen":8342,"eare":8343,"Ġscholar":8344,"Ġencounter":8345,"obile":8346,"Ġsymptoms":8347,"Ġ165":8348,"Ġciting":8349,"ĠGab":8350,"Ġwaves":8351,"odore":8352,"Ġbehalf":8353,"cop":8354,"Ġsunk":8355,"itated":8356,"Ġpercentage":8357,"ĠShakespeare":8358,"ulating":8359,"ĠNative":8360,"Ġforests":8361,"ĠHalo":8362,"ĠArea":8363,"eu":8364,"ĠAR":8365,"Ġparish":8366,"Ġsituated":8367,"Ġspiritual":8368,"ĠTenness":8369,"Ġninet":8370,"Ġforty":8371,"Ġsigns":8372,"ĠBlues":8373,"ĠRap":8374,"Ġclosing":8375,"Ġsank":8376,"Ġsubjects":8377,"ĠSon":8378,"ĠHindu":8379,"ĠWard":8380,"Ġammunition":8381,"Ġvoiced":8382,"ila":8383,"ĠAthlet":8384,"Ġusual":8385,"Ġillness":8386,"ĠAlexand":8387,"ĠCampbell":8388,"Ġrepairs":8389,"ĠOffic":8390,"onymous":8391,"ĠSullivan":8392,"Ġresolution":8393,"Ġ01":8394,"ctic":8395,"ĠBrun":8396,"rix":8397,"ĠSteven":8398,"ĠHero":8399,"uman":8400,"Ġasking":8401,"ĠCob":8402,"Ġdisaster":8403,"Ġcorpor":8404,"Ġfunctions":8405,"ĠRang":8406,"Ġimperial":8407,"Ġattendance":8408,"Ġcollaboration":8409,"ĠWolf":8410,"Ġassess":8411,"Ġ04":8412,"zz":8413,"Ġlieutenant":8414,"ĠLucas":8415,"Ġrestaurant":8416,"alities":8417,"ĠHu":8418,"ĠVinc":8419,"Ġevil":8420,"Ġaudiences":8421,"ĠEgyptian":8422,"Ġfeelings":8423,"Ġcontroll":8424,"ĠMargaret":8425,"Ġunderground":8426,"rams":8427,"Ġjunction":8428,"Ġworship":8429,"ĠFriend":8430,"Ġdeliber":8431,"Ġflights":8432,"Ġnom":8433,"ĠKings":8434,"Ġaffairs":8435,"Ġsuspended":8436,"li":8437,"ĠStevens":8438,"Ġskull":8439,"father":8440,"ĠSi":8441,"ĠPle":8442,"ĠMississippi":8443,"face":8444,"ĠTennessee":8445,"ĠDw":8446,"Ġexit":8447,"ĠVI":8448,"Ġwilling":8449,"ĠRace":8450,"ĠApple":8451,"Ġtargets":8452,"Ġearthqu":8453,"Ġcargo":8454,"Ġ1906":8455,"ĠLouisiana":8456,"Ġrecre":8457,"Ġfuneral":8458,"Ġaffair":8459,"ĠMontreal":8460,"ĠBox":8461,"ĠLad":8462,"Ġoperational":8463,"Ġpoorly":8464,"ĠHistoric":8465,"ĠDest":8466,"Ġabol":8467,"Ġ1904":8468,"Ġmeasured":8469,"odge":8470,"Ġcompilation":8471,"Ġdocuments":8472,"isp":8473,"iveness":8474,"ĠPalest":8475,"ĠMissouri":8476,"Ġfiled":8477,"Ġmountains":8478,"Ġaimed":8479,"ĠLabour":8480,"Ġpron":8481,"ĠWarren":8482,"uable":8483,"ĠWol":8484,"Ġregistered":8485,"asters":8486,"Ġcircuit":8487,"Ġ360":8488,"Ġ1870":8489,"ĠDepression":8490,"ĠPhilippines":8491,"sex":8492,"Ġlect":8493,"Ġstring":8494,"Ġiniti":8495,"Ġstatue":8496,"Ġfavorable":8497,"Ġelder":8498,"ĠTag":8499,"ĠProm":8500,"Ġliked":8501,"ĠMitchell":8502,"Ġanch":8503,"Ġrecognised":8504,"Ġexplosion":8505,"ĠHarvey":8506,"Ġrepresents":8507,"Ġadopt":8508,"Ġprol":8509,"Ġprofessor":8510,"Ġtemporarily":8511,"ĠBilly":8512,"Ġentertainment":8513,"lah":8514,"Ġsector":8515,"Ġrout":8516,"ipped":8517,"Ġreplacing":8518,"Ġsequences":8519,"rator":8520,"ĠCritics":8521,"ta":8522,"aron":8523,"ĠMcL":8524,"Ġfifty":8525,"Ġjazz":8526,"amps":8527,"Ġwreck":8528,"Ġoffering":8529,"Ġshells":8530,"ĠDom":8531,"Ġartwork":8532,"Ġwore":8533,"inea":8534,"Ġresidence":8535,"overe":8536,"Ġmargin":8537,"ĠSmall":8538,"Ġinterpre":8539,"Ġpreparation":8540,"ception":8541,"ĠDragon":8542,"ĠIndependent":8543,"ĠGraham":8544,"ateur":8545,"ĠMack":8546,"species":8547,"amic":8548,"Ġreflected":8549,"Ġwel":8550,"ifer":8551,"weet":8552,"Ġalliance":8553,"Ġreluct":8554,"Ġdirectors":8555,"Ġrestoration":8556,"Ġprime":8557,"ĠCzech":8558,"Ġexpensive":8559,"Ġcyl":8560,"Ġbot":8561,"ĠNon":8562,"orders":8563,"ĠBusiness":8564,"Ġterror":8565,"Ġtouring":8566,"Ġoverw":8567,"Ġalcohol":8568,"Ġcompleting":8569,"Ġamongst":8570,"Ġthinking":8571,"ĠNear":8572,"ĠJoh":8573,"ĠKirk":8574,"issions":8575,"Ġsuggesting":8576,"ĠFem":8577,"Ġpy":8578,"ĠUE":8579,"Ġbanks":8580,"Ġnucle":8581,"Ġcancelled":8582,"artney":8583,"ancell":8584,"ylan":8585,"Ġhorror":8586,"inental":8587,"Ġrebuilt":8588,"bishop":8589,"Ġcoverage":8590,"atics":8591,"ĠNag":8592,"Ġrig":8593,"ques":8594,"ĠAriz":8595,"Ġpulled":8596,"Ġdecides":8597,"Ġescaped":8598,"ĠSeven":8599,"ĠCuba":8600,"dale":8601,"Ġwasn":8602,"Ġamounts":8603,"ĠGuide":8604,"rm":8605,"Ġerupt":8606,"ĠGrey":8607,"agen":8608,"Ġreven":8609,"andal":8610,"Ġdimens":8611,"ĠEdge":8612,"Ġlacked":8613,"ellect":8614,"ĠMes":8615,"idel":8616,"Ġracing":8617,"Ġtribes":8618,"SP":8619,"uary":8620,"Ġcous":8621,"osm":8622,"Ġdramatic":8623,"Ġbay":8624,"Ġsubt":8625,"Ġclearly":8626,"Ġcommunication":8627,"ĠPhoen":8628,"ĠMagn":8629,"Ġpatterns":8630,"TA":8631,"Ã§":8632,"Ġgarden":8633,"phony":8634,"Ġpredomin":8635,"overeign":8636,"ĠCow":8637,"ĠFiles":8638,"Ġfamiliar":8639,"Ġengagement":8640,"Ġownership":8641,"Ġargues":8642,"ĠRing":8643,"ĠTamil":8644,"ĠVis":8645,"Ġmarks":8646,"Ġfrig":8647,"quir":8648,"ĠÅ":8649,"ĠArizona":8650,"Ġsaved":8651,"Ġarmored":8652,"Ġben":8653,"Ġperspective":8654,"ĠMess":8655,"Ġcolonies":8656,"ĠIndies":8657,"Ġdrove":8658,"ĠPersian":8659,"ĠSnow":8660,"Ġcontributions":8661,"ĠSaturday":8662,"ĠSony":8663,"Ġwicket":8664,"Ġcod":8665,"ĠMaur":8666,"Ġsolution":8667,"urally":8668,"ĠHem":8669,"Ġmerchant":8670,"Ġfastest":8671,"Ġtru":8672,"Ġplayoffs":8673,"ĠKu":8674,"Ġartistic":8675,"Ġadministrative":8676,"ĠDylan":8677,"Ġremnants":8678,"rage":8679,"Ġprint":8680,"ski":8681,"Ġcharacterized":8682,"Ġfalse":8683,"unch":8684,"idency":8685,"ĠRen":8686,"Ġrit":8687,"ĠJosh":8688,"eron":8689,"ieties":8690,"Ġboundary":8691,"Ġexecut":8692,"ĠScout":8693,"Ġrising":8694,"Ġseed":8695,"Ġseverely":8696,"Ġkings":8697,"ĠYe":8698,"ĠMarie":8699,"Ġcrews":8700,"Ġinstitutions":8701,"Ġmilitia":8702,"okes":8703,"orious":8704,"Ġarmament":8705,"Ġbadly":8706,"Ġtag":8707,"Ġdisappoin":8708,"Ġdepending":8709,"Ġretail":8710,"Ġflagship":8711,"ĠConfederate":8712,"Ġobv":8713,"Ġbulk":8714,"ĠBureau":8715,"Ġearning":8716,"Ġgenetic":8717,"Ġdistinctive":8718,"Ġbowling":8719,"Ġgang":8720,"Ġexplains":8721,"no":8722,"Ġbronze":8723,"Ġrecip":8724,"Ġranks":8725,"Ġrestricted":8726,"Ġ03":8727,"Ġfallen":8728,"ĠOklah":8729,"Ġfrust":8730,"Ġcomparison":8731,"Ġthrew":8732,"Ġnotice":8733,"Ġideal":8734,"bl":8735,"rep":8736,"ĠLov":8737,"Ġexcav":8738,"Ġdemonstrated":8739,"orer":8740,"Ġranging":8741,"cho":8742,"Ġexplain":8743,"Ġearn":8744,"Ġcondem":8745,"Ġpoems":8746,"Ġinland":8747,"ĠCher":8748,"ĠKal":8749,"Ġ115":8750,"Ġcontrols":8751,"Ġinhabitants":8752,"cru":8753,"Ġcontext":8754,"Ġarrive":8755,"Ġdraf":8756,"nik":8757,"orph":8758,"ĠSwitzer":8759,"Ġriders":8760,"ĠSin":8761,"storm":8762,"ĠMurphy":8763,"Ġpractices":8764,"ectic":8765,"mented":8766,"Ġsisters":8767,"Ġwants":8768,"ĠMrs":8769,"uations":8770,"Ġmental":8771,"omber":8772,"ĠkW":8773,"Ġquiet":8774,"ĠWilhelm":8775,"Ġsatisf":8776,"rating":8777,"Ġconservative":8778,"Ġelectron":8779,"Ġloop":8780,"ĠSwitzerland":8781,"pan":8782,"Ġfaster":8783,"Ġwider":8784,"exp":8785,"Ġmaneu":8786,"Ġshield":8787,"ĠProgram":8788,"Ġgap":8789,"Ġexclud":8790,"formation":8791,"sky":8792,"ĠEconom":8793,"Ġsurge":8794,"Ġautob":8795,"Ġspotted":8796,"ĠBroadway":8797,"Ġreaches":8798,"Ġrevol":8799,"Ġdistinguished":8800,"Ġpace":8801,"ĠLiz":8802,"uki":8803,"Ġplus":8804,"Ġ174":8805,"Ġevolved":8806,"Ġnorthward":8807,"Ġvulner":8808,"equ":8809,"gate":8810,"anches":8811,"ivia":8812,"Ġacceler":8813,"Ġ101":8814,"ĠBarry":8815,"Ġ1901":8816,"ĠChand":8817,"Ġmeat":8818,"Ġapplication":8819,"life":8820,"ĠÄ":8821,"itting":8822,"Ġsynd":8823,"ĠOklahoma":8824,"ĠEP":8825,"Ġkit":8826,"Ġexhibition":8827,"Ġmillimet":8828,"ĠAustrian":8829,"Ġquarterback":8830,"ĠABC":8831,"ĠMik":8832,"Ġnominations":8833,"unc":8834,"Ġagency":8835,"Ġgate":8836,"Ġsubspecies":8837,"Ġprotein":8838,"Ġsatellite":8839,"ĠSuch":8840,"ocking":8841,"ĠFederation":8842,"Ġdominant":8843,"Ġprepare":8844,"Ġhouseholds":8845,"ridge":8846,"Ġpredicted":8847,"ruption":8848,"Ġpalace":8849,"Ġtriple":8850,"Ġframe":8851,"ĠAmy":8852,"athy":8853,"otton":8854,"ĠDelaware":8855,"Ġstorage":8856,"Ġslaves":8857,"ĠPed":8858,"ĠOriginal":8859,"bre":8860,"Ġ1903":8861,"sequently":8862,"Ġobtain":8863,"Ġtex":8864,"Ġ1902":8865,"inations":8866,"estone":8867,"ĠLithuan":8868,"ĠTan":8869,"Ġabund":8870,"Ġprinted":8871,"CC":8872,"Ġarticles":8873,"Ġattained":8874,"Ġcarriers":8875,"Ġrepeatedly":8876,"Ġintellect":8877,"Ġpredecessor":8878,"Ġallies":8879,"ĠLeslie":8880,"Ġfixed":8881,"Ġstores":8882,"Ġspr":8883,"oga":8884,"Ġvertical":8885,"Ġsurgery":8886,"Ġvs":8887,"ĠPerry":8888,"Ġpeaking":8889,"Ġvast":8890,"Ġyield":8891,"Ġ155":8892,"Ġphilosophy":8893,"Ġvel":8894,"Ġstrict":8895,"Ġsignal":8896,"Ġbiographer":8897,"Ġadventure":8898,"Ġblocks":8899,"Ġexcellent":8900,"urer":8901,"acked":8902,"Ġdisagre":8903,"ĠOriginally":8904,"Ġboss":8905,"rine":8906,"anton":8907,"azing":8908,"Ġillegal":8909,"Ġphenomen":8910,"asts":8911,"ĠBaby":8912,"Ġperceived":8913,"ĠHarv":8914,"Ġbombs":8915,"Ġseriously":8916,"Ġchoose":8917,"rates":8918,"Ġpretty":8919,"ĠDenmark":8920,"Ġremarked":8921,"ĠRico":8922,"Ġwestward":8923,"Ġapartment":8924,"ĠJonathan":8925,"agasc":8926,"oven":8927,"Ġwaiting":8928,"ĠTokyo":8929,"ĠRidge":8930,"ĠNik":8931,"Ġcomfort":8932,"Ġuseful":8933,"ĠRih":8934,"Ġcircumstances":8935,"fe":8936,"Ġthor":8937,"ĠClar":8938,"aughters":8939,"ĠPlayers":8940,"Ġcurren":8941,"riptions":8942,"Ġsurrend":8943,"ĠBaseball":8944,"ĠAtlanta":8945,"ori":8946,"Ġmeetings":8947,"Ġdrugs":8948,"ĠRihanna":8949,"Ġbattalions":8950,"Ġcoinc":8951,"Ġsket":8952,"Ġdollar":8953,"Ġtight":8954,"oned":8955,"itage":8956,"ĠNixon":8957,"Ġlayer":8958,"Ġcivilian":8959,"ĠJohnny":8960,"Ġreaders":8961,"Ġwhilst":8962,"ĠFif":8963,"Ġarmour":8964,"acon":8965,"ibl":8966,"ĠAbbey":8967,"fish":8968,"Ġsick":8969,"imen":8970,"ĠLess":8971,"Ġphone":8972,"ĠBomb":8973,"Ġmatters":8974,"Ġinstitution":8975,"ĠBernard":8976,"Ġbreat":8977,"ĠMother":8978,"Ġcasting":8979,"Ġfriendship":8980,"Ġstrengthened":8981,"Ġvisiting":8982,"Ġtiss":8983,"Ġgust":8984,"Ġplanets":8985,"ĠTerrit":8986,"Ġreconnaissance":8987,"ĠCampaign":8988,"pha":8989,"Ġsimilarly":8990,"Ġchamber":8991,"Ġretain":8992,"Ġsimultaneously":8993,"icate":8994,"ĠEdwards":8995,"apolis":8996,"Ġlegacy":8997,"Ġalternate":8998,"ĠJuan":8999,"Ġdemanded":9000,"Ġtyphoon":9001,"eton":9002,"mingham":9003,"rik":9004,"Ġ168":9005,"ĠArnold":9006,"ĠPitts":9007,"Ġjustice":9008,"Ġpanel":9009,"ĠDS":9010,"Ġempt":9011,"Ġenlisted":9012,"rose":9013,"ĠHann":9014,"Ġalive":9015,"ĠRu":9016,"Ġinsisted":9017,"rus":9018,"sk":9019,"ĠTel":9020,"ĠRoll":9021,"ĠRailroad":9022,"onomy":9023,"Ġshipping":9024,"Ġhorn":9025,"Ġrevers":9026,"ĠBrig":9027,"ĠJimmy":9028,"avery":9029,"arant":9030,"Ġrevenue":9031,"Ġroots":9032,"Ġpromised":9033,"ĠPrize":9034,"erk":9035,"Ġdemands":9036,"Ġbombing":9037,"ĠKeith":9038,"adi":9039,"estyle":9040,"Ġtack":9041,"Ġpunk":9042,"Ġpossess":9043,"arth":9044,"Ġlanes":9045,"Ġpersonally":9046,"Ġathletes":9047,"Ġhook":9048,"Ġconsole":9049,"ĠRal":9050,"Ġdrivers":9051,"ĠInternet":9052,"Ġstruggled":9053,"Ġdefinition":9054,"entle":9055,"Ġmainland":9056,"Ġlooks":9057,"ĠRachel":9058,"Ġportions":9059,"Ġconscious":9060,"rast":9061,"aration":9062,"Ġpione":9063,"ĠLex":9064,"Ġorchestra":9065,"Ġbacked":9066,"Ġaudition":9067,"ĠChel":9068,"ĠWor":9069,"ĠMadagasc":9070,"Ġsung":9071,"ĠBh":9072,"abs":9073,"lus":9074,"Ġpropag":9075,"Ġcontinu":9076,"Ġdemocr":9077,"Ġbehaviour":9078,"roph":9079,"Ġguilty":9080,"Ġguitarist":9081,"ĠYankees":9082,"dy":9083,"Ġdiver":9084,"ĠCra":9085,"ĠWag":9086,"ĠTracy":9087,"Ġjobs":9088,"Ġartific":9089,"Ġmarketing":9090,"TW":9091,"Ġarmies":9092,"Ġdemolished":9093,"inian":9094,"ĠOpp":9095,"ĠInn":9096,"regation":9097,"ĠBirmingham":9098,"Ġdancing":9099,"ĠSoul":9100,"Ġsurpass":9101,"Ġstarring":9102,"ĠFurthermore":9103,"Ġruling":9104,"Ġfeels":9105,"ĠPars":9106,"ĠHur":9107,"Ġincreases":9108,"Ġprofile":9109,"Ġfactory":9110,"ĠEventually":9111,"acre":9112,"ĠObama":9113,"ĠNine":9114,"Ġsubst":9115,"uma":9116,"odox":9117,"Ġheading":9118,"ĠMcM":9119,"ĠHugh":9120,"Ġcompens":9121,"Ġmining":9122,"Ġ166":9123,"Ġcounties":9124,"lain":9125,"Ġtheater":9126,"Ġindu":9127,"ĠShaw":9128,"azines":9129,"Ġpages":9130,"ĠLost":9131,"Ġrub":9132,"ĠPil":9133,"ĠEnterprise":9134,"Ġessential":9135,"ĠUniversal":9136,"Äģ":9137,"ĠRat":9138,"ghan":9139,"Ġbelieving":9140,"Ġorganisation":9141,"ĠAld":9142,"ĠCanter":9143,"Ġdiscovers":9144,"ĠMcCartney":9145,"Ġpursue":9146,"Ġexpression":9147,"Ġdiscont":9148,"Ġbonus":9149,"Ġ02":9150,"ĠGray":9151,"Ġaffect":9152,"ĠPhoenix":9153,"Ġdelivery":9154,"tery":9155,"arr":9156,"ĠBaker":9157,"Ġclothing":9158,"inding":9159,"Ġmultipl":9160,"din":9161,"Ġobst":9162,"Ġsucceed":9163,"ĠHudson":9164,"Ġports":9165,"eland":9166,"ĠTon":9167,"Ġmobile":9168,"ĠCost":9169,"ĠJup":9170,"ĠVik":9171,"Ġcrest":9172,"Ġelevation":9173,"ĠBuddh":9174,"ĠBobby":9175,"ĠChen":9176,"ĠBach":9177,"Ġpatron":9178,"ĠGirls":9179,"ĠConnectic":9180,"ĠPubl":9181,"ĠWayne":9182,"ouver":9183,"emen":9184,"Ġ109":9185,"ĠMadagascar":9186,"Ġacou":9187,"Ġsecretary":9188,"Ġdoubt":9189,"ĠComple":9190,"Ġforecast":9191,"folk":9192,"acc":9193,"Ġkiss":9194,"Ġdrink":9195,"Ġengage":9196,"ĠPearl":9197,"ĠConnecticut":9198,"LC":9199,"Ġaccum":9200,"ĠDefence":9201,"ĠImpact":9202,"ĠFat":9203,"Ġrif":9204,"ĠIran":9205,"Ġsq":9206,"Ġcup":9207,"rov":9208,"Ġhoriz":9209,"Ġstick":9210,"Ġaltered":9211,"Ġoverseas":9212,"ĠMans":9213,"ĠMorrison":9214,"ĠTodd":9215,"tario":9216,"Ġchest":9217,"py":9218,"ĠRights":9219,"Ġmayor":9220,"ĠBosn":9221,"Ġdeterior":9222,"ĠPeace":9223,"umps":9224,"ĠOntario":9225,"Ġdefences":9226,"Ġlisten":9227,"atern":9228,"Ġexpand":9229,"Ġerected":9230,"Ġbaby":9231,"ultan":9232,"irty":9233,"Ġcompounds":9234,"Ġcancel":9235,"Ġrenov":9236,"Ġsettlers":9237,"cles":9238,"Ġbid":9239,"ication":9240,"ĠCanterbury":9241,"inces":9242,"Ġstress":9243,"ĠFriday":9244,"ĠKarl":9245,"Ġsalt":9246,"ĠRub":9247,"ĠStat":9248,"shore":9249,"Ġlegislature":9250,"ĠWorks":9251,"Ġmusician":9252,"grad":9253,"otyp":9254,"Ġobjective":9255,"ĠLeonard":9256,"ĠMaj":9257,"iph":9258,"ĠCommunity":9259,"Ġdecisions":9260,"Ġhighways":9261,"Ġraising":9262,"Ġdisl":9263,"Ġaerial":9264,"ĠAllies":9265,"warf":9266,"Ġvoy":9267,"Ġaftermath":9268,"Ġconcentration":9269,"Ġconversion":9270,"AC":9271,"Ġcampaigns":9272,"Ġsolar":9273,"ensively":9274,"Ġliquid":9275,"Ġorn":9276,"Ġsoldier":9277,"Ġsitting":9278,"Ġindicating":9279,"Ġconspir":9280,"Ġwait":9281,"Ġexactly":9282,"asant":9283,"owed":9284,"Ġhidden":9285,"ĠForeign":9286,"ĠBi":9287,"tha":9288,"Ġprove":9289,"Ġorganised":9290,"Ġwealthy":9291,"Ġscen":9292,"ĠSpart":9293,"Ġpermitted":9294,"Ġacknowledged":9295,"Ġwrestling":9296,"Ġdanger":9297,"ĠCyr":9298,"ĠHold":9299,"ĠLang":9300,"ĠPruss":9301,"Ġtrouble":9302,"Ġhapp":9303,"Ġimprovements":9304,"Ġdissipated":9305,"annon":9306,"Ġgraduated":9307,"Ġstriking":9308,"Ġdressed":9309,"ĠManu":9310,"Ġrealized":9311,"ĠMicro":9312,"Ġappropriate":9313,"Ġconfron":9314,"ĠWindows":9315,"ĠDiam":9316,"Ġski":9317,"atropical":9318,"Ġradical":9319,"ĠBoys":9320,"Ġexecution":9321,"ĠGoth":9322,"Ġparent":9323,"ĠNapoleon":9324,"ĠFel":9325,"Ġmeter":9326,"Ġobservations":9327,"ĠGriff":9328,"ĠUEFA":9329,"Ġraids":9330,"irts":9331,"ĠPatt":9332,"ĠOutstanding":9333,"Ġremoval":9334,"ĠNAS":9335,"Ġprofit":9336,"Ġtravels":9337,"Ġinterpretation":9338,"bird":9339,"pent":9340,"Ġfewer":9341,"Ġcelebrated":9342,"Ġvenue":9343,"Ġencl":9344,"Ġpublications":9345,"Ġaggressive":9346,"aments":9347,"oker":9348,"uese":9349,"Ġinitiated":9350,"oons":9351,"ĠAy":9352,"ifies":9353,"rawn":9354,"Ġtheatrical":9355,"Ġturret":9356,"ĠKit":9357,"Ġpublishing":9358,"Ġrequires":9359,"Ġchapel":9360,"ĠGary":9361,"Ġevacuated":9362,"elli":9363,"ancouver":9364,"ĠSeason":9365,"Ġdebt":9366,"Ġfounding":9367,"Ġorigins":9368,"Ġoriginated":9369,"Ġjurisd":9370,"ĠVancouver":9371,"EC":9372,"inister":9373,"Ġsharp":9374,"Ġstationed":9375,"Ġexplan":9376,"ĠTol":9377,"ĠLegend":9378,"Ġdefending":9379,"Ġestablishing":9380,"Ġcannon":9381,"ĠJupiter":9382,"ĠSem":9383,"ĠDa":9384,"agg":9385,"Ġconnect":9386,"itals":9387,"ulous":9388,"Ġconsidering":9389,"Ġrebellion":9390,"ivation":9391,"Ġshorter":9392,"ĠEdin":9393,"Ġarrangements":9394,"Ġannouncement":9395,"aro":9396,"Ġnet":9397,"ĠLion":9398,"agh":9399,"Ġsupple":9400,"Ġbrill":9401,"Ġ152":9402,"raction":9403,"Ġcutting":9404,"ĠBath":9405,"ĠPakistan":9406,"Ġguarant":9407,"ĠMountains":9408,"Ġtort":9409,"Ġbones":9410,"Ġsteps":9411,"mund":9412,"Ġfantasy":9413,"ĠGate":9414,"ĠChampions":9415,"ĠMint":9416,"ĠTNA":9417,"stan":9418,"ĠDall":9419,"ĠLaur":9420,"Ġmagazines":9421,"ĠDrive":9422,"Ġconnecting":9423,"rac":9424,"Ġapproaching":9425,"itudes":9426,"Ġhosts":9427,"autical":9428,"Ġdonated":9429,"Ġaspect":9430,"Ġextratropical":9431,"Ġplacing":9432,"Ġwalking":9433,"ĠCycl":9434,"adier":9435,"Ġmush":9436,"Ġinsects":9437,"Ġmagic":9438,"Ġstrategic":9439,"Ġlying":9440,"ĠBradman":9441,"ĠPortuguese":9442,"ĠChampion":9443,"itively":9444,"Ġongoing":9445,"Ġdiscussion":9446,"ĠAdministration":9447,"ennium":9448,"Ġcolleagues":9449,"Ġtalent":9450,"Ġlin":9451,"Ġfunny":9452,"Ġmemor":9453,"Ġedited":9454,"jan":9455,"Ġoutl":9456,"Ġyoungest":9457,"ĠTriple":9458,"Ġclosest":9459,"hears":9460,"Ġpredict":9461,"Ġqualified":9462,"Ġhypothes":9463,"ĠÃĨthel":9464,"Ġgathered":9465,"ĠJar":9466,"Ġ173":9467,"Ġbattlecru":9468,"Ġtubes":9469,"ĠTrophy":9470,"Ġdecide":9471,"Ġdrag":9472,"dess":9473,"Ġforth":9474,"ĠOur":9475,"ipper":9476,"Ġvolumes":9477,"rous":9478,"Ġputting":9479,"ĠTit":9480,"ĠDeb":9481,"Ġlandscape":9482,"Ġindicates":9483,"Ġwatershed":9484,"Ġstrongest":9485,"Ġwithdrawal":9486,"Ġ1893":9487,"ĠDwight":9488,"ĠAlice":9489,"Ġ1860":9490,"Ġangle":9491,"ecution":9492,"Ġglac":9493,"Ġsupplied":9494,"ĠSig":9495,"ĠCov":9496,"Ġmarkets":9497,"Ġswitch":9498,"Ġrede":9499,"Ġidentify":9500,"Ġpale":9501,"Ġcoup":9502,"Ġforg":9503,"Ġcircle":9504,"ĠStu":9505,"ĠMarvel":9506,"Ġexposure":9507,"ĠSak":9508,"Ġspecimen":9509,"Ġmerely":9510,"Ġcollapsed":9511,"Ġanth":9512,"Ġgray":9513,"Ġ1896":9514,"Ġchallenged":9515,"Ġcaps":9516,"Ġconfront":9517,"ĠFleming":9518,"ĠReserve":9519,"ĠMem":9520,"imented":9521,"Ġpartial":9522,"Ġdensity":9523,"ti":9524,"Ġ111":9525,"Ġcub":9526,"ĠHampshire":9527,"ĠEdinburgh":9528,"Ġles":9529,"mi":9530,"Ġdesert":9531,"Ġvisits":9532,"Ġdubbed":9533,"Ġshift":9534,"Ġlimits":9535,"ĠNCAA":9536,"Ġaffili":9537,"Ġfeeding":9538,"ĠHonor":9539,"Ġbare":9540,"Ġ104":9541,"ĠMission":9542,"Ġbeam":9543,"ĠOliver":9544,"ĠPotter":9545,"ĠShip":9546,"otte":9547,"ĠThose":9548,"ĠGene":9549,"Ġprovision":9550,"Ġeducational":9551,"Ġhydrogen":9552,"Ġconventional":9553,"ĠJoy":9554,"Ġseized":9555,"ova":9556,"Ġclin":9557,"Ġprize":9558,"ĠSomet":9559,"ĠFlying":9560,"earing":9561,"ĠYears":9562,"cks":9563,"Ġduo":9564,"Ġcreek":9565,"Ġbearing":9566,"Ġspac":9567,"Ġannually":9568,"Ġconcentrated":9569,"vy":9570,"Ġtopped":9571,"Ġmembership":9572,"Ġchampions":9573,"Ġplain":9574,"soft":9575,"elta":9576,"ĠAfghan":9577,"ĠMeteor":9578,"Ġattending":9579,"Ġassembly":9580,"ĠIsa":9581,"Ġparody":9582,"Ġcorps":9583,"Ġ1898":9584,"amental":9585,"join":9586,"Ġranges":9587,"Äį":9588,"adal":9589,"idal":9590,"irates":9591,"ested":9592,"Ġexha":9593,"case":9594,"ĠChes":9595,"ĠCharts":9596,"Ġcock":9597,"ĠLat":9598,"ĠAnc":9599,"onium":9600,"Ġnavy":9601,"Ġoffense":9602,"Ġdogs":9603,"icle":9604,"ĠType":9605,"ĠTob":9606,"Ġemphasis":9607,"Ġsad":9608,"ĠAbd":9609,"ĠAS":9610,"ĠNatural":9611,"Ġweekly":9612,"Ġfurn":9613,"Ġ171":9614,"ĠBegin":9615,"Ġproductions":9616,"Ġexercise":9617,"igenous":9618,"Ġunless":9619,"angle":9620,"Ġtalking":9621,"anner":9622,"Ġinvestigate":9623,"Ġticket":9624,"agger":9625,"Ġbasin":9626,"Ġtrough":9627,"ĠPin":9628,"Ġgrave":9629,"ĠFinally":9630,"uzzle":9631,"athers":9632,"Ġlegit":9633,"Ġpromotional":9634,"ĠRalph":9635,"ĠLib":9636,"Ġanime":9637,"ĠMosc":9638,"ĠPrincip":9639,"Ġbacter":9640,"ĠBeng":9641,"idae":9642,"hyl":9643,"ĠDemocrats":9644,"enna":9645,"ĠVictorian":9646,"ĠPersonal":9647,"bow":9648,"da":9649,"aks":9650,"Ġportrayal":9651,"ĠSay":9652,"Ġresol":9653,"Ġjury":9654,"Ġceased":9655,"Ġfortress":9656,"Ġflooded":9657,"ĠList":9658,"ĠYorkshire":9659,"Ġadvertising":9660,"Ġbone":9661,"terior":9662,"Ġ172":9663,"ieth":9664,"Ġfill":9665,"ĠNO":9666,"Ġregime":9667,"ĠArgentina":9668,"Ġbond":9669,"pled":9670,"Ġconservation":9671,"Ġbirthday":9672,"ĠLloyd":9673,"ĠLen":9674,"ugg":9675,"ika":9676,"ĠMonte":9677,"Ġemployment":9678,"Ġuncle":9679,"Ġpersons":9680,"Ġoutput":9681,"Ġ350":9682,"Ġcruc":9683,"ĠChristianity":9684,"AR":9685,"Ġattitude":9686,"ĠConvention":9687,"Ġsending":9688,"Ġphotographs":9689,"ĠDod":9690,"Ġeval":9691,"rising":9692,"Ġsoftware":9693,"ĠVillage":9694,"IS":9695,"Ġbishop":9696,"ĠWhere":9697,"Ġexperimental":9698,"ĠBrothers":9699,"Ġhitting":9700,"Ġquestioned":9701,"aders":9702,"ĠLas":9703,"ĠVi":9704,"ported":9705,"Ġ127":9706,"ĠCelt":9707,"ĠOverall":9708,"ĠJerry":9709,"Ġqueen":9710,"Ġguide":9711,"ĠChronicle":9712,"otal":9713,"Ġscattered":9714,"Ġ161":9715,"Ġdrinking":9716,"Ġballad":9717,"Ġtranslation":9718,"aux":9719,"Ġunderwent":9720,"roying":9721,"olly":9722,"Ġmature":9723,"Ġprovincial":9724,"ean":9725,"hous":9726,"Ġunclear":9727,"Ġoverwhel":9728,"ĠLt":9729,"Ġendors":9730,"Ġcoff":9731,"Ġ1899":9732,"Ġassembled":9733,"ello":9734,"Ġreplied":9735,"Ġaggreg":9736,"Ġcousin":9737,"Ġpapers":9738,"Ġbrig":9739,"Ġrepresentatives":9740,"ĠCollins":9741,"phone":9742,"Ġlawyer":9743,"Ġswimming":9744,"gie":9745,"iper":9746,"ĠBooks":9747,"Ġcommentary":9748,"ãĥ":9749,"Ġcens":9750,"ĠMarge":9751,"iffs":9752,"Ġimagery":9753,"Ġproclaim":9754,"ĠPink":9755,"Ġclock":9756,"Ġoutd":9757,"Ġcoat":9758,"Ġthirteen":9759,"Ġempire":9760,"Ġexternal":9761,"ĠMaya":9762,"ĠFinland":9763,"Ġliberal":9764,"Ġloved":9765,"ĠHowe":9766,"ĠCraig":9767,"Ġcomprom":9768,"assador":9769,"hammad":9770,"Ġlawsu":9771,"Ġterrain":9772,"Ġacoustic":9773,"Ġpictures":9774,"Ġexclusive":9775,"Ãº":9776,"itis":9777,"Ġslave":9778,"Ġelectricity":9779,"Ġduration":9780,"Ġstreak":9781,"Ġmonaster":9782,"onica":9783,"ications":9784,"Ġdaughters":9785,"ĠFund":9786,"oys":9787,"Ġmovies":9788,"ĠDeep":9789,"oa":9790,"ashes":9791,"angel":9792,"ĠTurner":9793,"Ġwire":9794,"Ġdevast":9795,"Ġaccompanying":9796,"ĠOm":9797,"Ġbranches":9798,"ĠApoll":9799,"Ġsurrendered":9800,"Ġmac":9801,"ĠWii":9802,"Ġarrives":9803,"Ġtenure":9804,"atever":9805,"Ġstronger":9806,"Ġidentical":9807,"Ġburial":9808,"Ġexpert":9809,"Ġsuccession":9810,"ĠSimilarly":9811,"ersed":9812,"ĠNorfolk":9813,"ĠHardy":9814,"Ġreverse":9815,"Ġcomponents":9816,"ĠQueensland":9817,"ĠPy":9818,"Ġbeats":9819,"ĠAndre":9820,"ĠHeritage":9821,"Ġdread":9822,"ĠNa":9823,"riors":9824,"Ġreducing":9825,"Ġstere":9826,"ĠMong":9827,"Ġcharter":9828,"Ġreveal":9829,"ensed":9830,"ĠAdv":9831,"Ġreinforcements":9832,"ĠAx":9833,"ĠJama":9834,"Ġprices":9835,"Ġsang":9836,"Ġcad":9837,"Ġmal":9838,"pler":9839,"Ġ108":9840,"Ġtrading":9841,"ĠBelgian":9842,"ĠBurton":9843,"ĠProtest":9844,"Ġmask":9845,"ĠDub":9846,"Ġdestroying":9847,"ĠHawaii":9848,"ĠNicholas":9849,"ĠProfessor":9850,"Ġspaces":9851,"Ġfailing":9852,"hard":9853,"ĠEug":9854,"Ġscr":9855,"ĠPrim":9856,"Ġcompeting":9857,"Ġ169":9858,"Ġpenet":9859,"Ġmechanical":9860,"Ġexclusively":9861,"ĠMS":9862,"ologies":9863,"ĠBoat":9864,"ĠCommunist":9865,"ĠProp":9866,"Ġrecall":9867,"ĠPam":9868,"ĠBennett":9869,"Ġstops":9870,"Ġatomic":9871,"ĠRangers":9872,"Ġisot":9873,"ellation":9874,"Ġcomponent":9875,"aja":9876,"Ġscar":9877,"Ġ1850":9878,"esty":9879,"ĠBeaut":9880,"Ġprecipitation":9881,"Ġdevelopers":9882,"Ġslavery":9883,"ĠDavies":9884,"ĠCricket":9885,"ĠServices":9886,"igrants":9887,"Ġgovernments":9888,"Ġtraded":9889,"Ġdevices":9890,"ĠVincent":9891,"place":9892,"ĠMeg":9893,"ĠEmmy":9894,"ĠCredits":9895,"ĠCatherine":9896,"ricts":9897,"hu":9898,"abe":9899,"Ġconsistent":9900,"Ġbanned":9901,"Ġreward":9902,"Ġfossil":9903,"Ġcenters":9904,"Ġmini":9905,"ĠMedical":9906,"ĠLiberal":9907,"ibilities":9908,"Ġvaried":9909,"Ġflowers":9910,"igible":9911,"Ġartificial":9912,"Ġtube":9913,"ĠLiving":9914,"Ġradiation":9915,"ĠSign":9916,"Ġdecay":9917,"Ġconsiders":9918,"ĠSwift":9919,"Ġcounterp":9920,"Ġplatforms":9921,"Ġtip":9922,"Ġvirus":9923,"ĠHaz":9924,"Ġpole":9925,"Ġmyst":9926,"Ġredes":9927,"Ġcontribution":9928,"ĠTransportation":9929,"OS":9930,"Ġwish":9931,"ĠPap":9932,"ĠHughes":9933,"Ġearthquake":9934,"ĠTraining":9935,"Ġelectrical":9936,"oles":9937,"Ġdisb":9938,"Ġpolar":9939,"ĠTak":9940,"Ġburned":9941,"ĠLocal":9942,"pike":9943,"ĠDonald":9944,"Ġhybr":9945,"ĠPrix":9946,"Ġarchitectural":9947,"Ġdict":9948,"amas":9949,"Ġwaste":9950,"ĠLock":9951,"Ġreviewed":9952,"Ġhumor":9953,"Ġsongwriter":9954,"atched":9955,"ĠCurt":9956,"ĠMalt":9957,"ĠLook":9958,"Ġ1897":9959,"Äĥ":9960,"ĠKl":9961,"ĠThunder":9962,"Ġboilers":9963,"Ġproceeded":9964,"ĠYellow":9965,"Ġobsc":9966,"Ġunderstood":9967,"ĠJun":9968,"ĠKap":9969,"Ġfourteen":9970,"ĠGuitar":9971,"Ġpush":9972,"Ġadvised":9973,"Ġhandled":9974,"Ġfrequency":9975,"Ġintersects":9976,"Ġtalks":9977,"ĠSle":9978,"imp":9979,"ista":9980,"Ġdestroyer":9981,"Ġimprovement":9982,"Ġprofession":9983,"rastructure":9984,"ethel":9985,"Ġheir":9986,"ĠStri":9987,"ĠMarket":9988,"ĠPeters":9989,"ĠHarvard":9990,"onald":9991,"Ġ163":9992,"ĠGlen":9993,"acles":9994,"Ġamateur":9995,"Ġrequirements":9996,"Ġtexts":9997,"Ġbath":9998,"ĠMand":9999,"ĠNext":10000,"Ġtheore":10001,"Ġcopper":10002,"ĠBak":10003,"Ġconceived":10004,"ĠDarwin":10005,"Ġsamples":10006,"ĠSaxon":10007,"Ġment":10008,"ĠDram":10009,"ags":10010,"ĠSwiss":10011,"Ġinduct":10012,"Ġconflic":10013,"ĠCameron":10014,"ĠTrail":10015,"Ġphrase":10016,"ĠâĢ¦":10017,"Ġsixteen":10018,"Ġreferring":10019,"Ġinvestment":10020,"ĠMoscow":10021,"Ġshares":10022,"ĠOslo":10023,"ĠKate":10024,"Ġreduction":10025,"Ã¼r":10026,"uating":10027,"Ġworn":10028,"uras":10029,"ĠRab":10030,"illes":10031,"ĠInv":10032,"Ġusers":10033,"Ġairfield":10034,"Ġcertainly":10035,"ĠPittsburgh":10036,"Ġecc":10037,"ĠDak":10038,"Ġcharity":10039,"itarian":10040,"ĠGallery":10041,"olen":10042,"Ġweigh":10043,"Ġvoting":10044,"ĠIndonesia":10045,"iciency":10046,"itely":10047,"ulty":10048,"Ġrespective":10049,"Ġcleared":10050,"ioc":10051,"Ġpraising":10052,"ĠHob":10053,"Ġparks":10054,"Ġpel":10055,"Ġlabour":10056,"Ġlie":10057,"axy":10058,"ĠTax":10059,"Ġexceed":10060,"ĠHarbor":10061,"Ġconnections":10062,"Ġflows":10063,"Ġphotography":10064,"Ġtactics":10065,"Ġtherap":10066,"ĠGeoff":10067,"ĠKo":10068,"Ġgrossing":10069,"Ġtoured":10070,"Ġqualifying":10071,"Ġspoken":10072,"gom":10073,"erg":10074,"encing":10075,"ĠRic":10076,"Ġsurvival":10077,"ĠMust":10078,"Ġconstitutional":10079,"etheless":10080,"Ġsoph":10081,"ffield":10082,"Ġquad":10083,"ĠBlu":10084,"Ġautumn":10085,"ĠTerry":10086,"umble":10087,"Ġcontinuous":10088,"haw":10089,"ĠCraw":10090,"Ġruler":10091,"strong":10092,"Ġcommenced":10093,"Ġcommanding":10094,"rehens":10095,"ĠDin":10096,"ĠAlaska":10097,"Ġ106":10098,"Ġ167":10099,"Ġshoulder":10100,"Ġsweet":10101,"ĠAntonio":10102,"Ġnautical":10103,"embr":10104,"Ġpatients":10105,"razy":10106,"OT":10107,"ĠTig":10108,"Ġconfidence":10109,"Ġtaxes":10110,"Ġlegislative":10111,"Ġlock":10112,"Ġopportunities":10113,"Ġtonnes":10114,"eding":10115,"Ġreorgan":10116,"imm":10117,"Ġattorney":10118,"Ġ154":10119,"Ġ121":10120,"Ġenthusi":10121,"Ġstuff":10122,"Ġexists":10123,"Ġtransported":10124,"ĠBroadcast":10125,"Ġfisher":10126,"ĠWallace":10127,"Ġunlik":10128,"hin":10129,"ĠMason":10130,"Ġsignature":10131,"Ġfold":10132,"Ġblind":10133,"Ġcamps":10134,"Ġcommunist":10135,"Ġcompetitive":10136,"Ġuranium":10137,"ĠMicrosoft":10138,"Ġhem":10139,"ĠLem":10140,"Ġrecon":10141,"Ġrelocated":10142,"Ġtranslated":10143,"ĠDyn":10144,"Ġmelody":10145,"ĠJTW":10146,"ĠAli":10147,"ĠJTWC":10148,"ingham":10149,"Ġtested":10150,"Ġindeed":10151,"ĠMayor":10152,"ĠSyria":10153,"Ġreinforced":10154,"ng":10155,"ĠAftermath":10156,"Ġminority":10157,"Ġfasc":10158,"eping":10159,"Ġrocks":10160,"Ġtraveling":10161,"Ġfulf":10162,"Ġnit":10163,"porting":10164,"Ġcommanders":10165,"Ġrevised":10166,"Ġrevolt":10167,"Ġfairly":10168,"Ġpairs":10169,"cester":10170,"Ġdece":10171,"icated":10172,"ĠSweet":10173,"ĠBald":10174,"ĠKane":10175,"eyer":10176,"Ġnoble":10177,"bes":10178,"Ġsovereign":10179,"ĠFarm":10180,"ĠFerr":10181,"ĠGor":10182,"ĠUpper":10183,"ĠStill":10184,"Ġunw":10185,"Ġmanga":10186,"expected":10187,"ayan":10188,"Ġimpression":10189,"Ġexplicit":10190,"venth":10191,"Ġwithdrawn":10192,"Ġcartoon":10193,"Ġlad":10194,"ambers":10195,"enesis":10196,"vant":10197,"ĠGrace":10198,"Ġcrops":10199,"onian":10200,"ĠSheffield":10201,"Ġprogramming":10202,"avor":10203,"Ġdischar":10204,"urricanes":10205,"Ġextending":10206,"ĠIsraeli":10207,"eared":10208,"ĠLarry":10209,"Ġdisplaced":10210,"Ġaccord":10211,"Ġexperiments":10212,"ĠLuke":10213,"Ġpromin":10214,"Ġprinciples":10215,"Ġvoices":10216,"ĠOfficer":10217,"avia":10218,"ĠStars":10219,"Ġblues":10220,"Ġextinct":10221,"ĠSecurity":10222,"mith":10223,"ĠMond":10224,"ĠStef":10225,"Ġ1895":10226,"Ġrepresentation":10227,"Ġmagnitude":10228,"Ġlearns":10229,"Ġfram":10230,"Ġhole":10231,"ĠTow":10232,"ĠThr":10233,"Ġprovinces":10234,"legraph":10235,"Ġprisoner":10236,"andom":10237,"Ġuncon":10238,"Ġcharacteristic":10239,"ĠJefferson":10240,"where":10241,"ĠRud":10242,"Ġdistant":10243,"wa":10244,"Ġmoon":10245,"Ġenforce":10246,"isive":10247,"ĠSee":10248,"ussion":10249,"Ġmarine":10250,"Ġculmin":10251,"ĠDallas":10252,"cott":10253,"Ġsample":10254,"ĠEmer":10255,"Ġabuse":10256,"ĠExper":10257,"Ġsumm":10258,"ĠGameS":10259,"ĠPictures":10260,"ĠBryan":10261,"Ġinterpreted":10262,"Ġnat":10263,"ĠJohnston":10264,"ĠHerald":10265,"Ġlights":10266,"hell":10267,"ĠHey":10268,"Ġwarfare":10269,"ĠXI":10270,"ĠTogether":10271,"ĠCyrus":10272,"ĠPhys":10273,"ĠRP":10274,"Ġrelatives":10275,"ĠClarke":10276,"ĠHD":10277,"Ġconce":10278,"Ġcompound":10279,"Ġpractical":10280,"Ġcraft":10281,"Ġapproaches":10282,"Ġrivalry":10283,"Ġwonder":10284,"ĠAM":10285,"Ġherit":10286,"ĠGuinea":10287,"Ġcuts":10288,"Ġid":10289,"ĠPS":10290,"ĠClay":10291,"Ġtomb":10292,"ĠPerformance":10293,"ĠHalf":10294,"adesh":10295,"ĠMalaysia":10296,"Ġnerv":10297,"ĠEff":10298,"Ġairing":10299,"ĠNi":10300,"Ġtraditions":10301,"Ġdisplays":10302,"Ġburning":10303,"Ġproposals":10304,"Ġshifted":10305,"Ġcarries":10306,"Ġlighting":10307,"feld":10308,"Ġrehears":10309,"ĠChile":10310,"Ġwarnings":10311,"ĠOrange":10312,"ĠDefense":10313,"Ġblocked":10314,"Ġmultiplayer":10315,"ĠWells":10316,"ĠGot":10317,"ĠNav":10318,"ĠOri":10319,"aching":10320,"ĠAustin":10321,"Ġrestore":10322,"Ġgirlfriend":10323,"Ġmedicine":10324,"Ġvictim":10325,"Ġparticipation":10326,"Ġgraduate":10327,"Ġsings":10328,"eto":10329,"ĠFBI":10330,"ĠGreater":10331,"Ġmyster":10332,"Ġrebels":10333,"ĠOfficial":10334,"ĠParsons":10335,"ĠPic":10336,"ĠPast":10337,"ĠQuest":10338,"Ġtransportation":10339,"Ġjudg":10340,"Ġpreparing":10341,"Ġskill":10342,"ĠNeil":10343,"Ġscores":10344,"ĠOwen":10345,"run":10346,"ĠEight":10347,"ĠOsc":10348,"ĠChelsea":10349,"umph":10350,"Ġabsent":10351,"aman":10352,"utton":10353,"Ġconven":10354,"Ġvaluable":10355,"Ġinterviews":10356,"ĠFalls":10357,"asa":10358,"Ġprotests":10359,"Ġcyclones":10360,"ĠFormation":10361,"Ġwished":10362,"ationally":10363,"ĠWoman":10364,"Ġriding":10365,"Ġchore":10366,"Ġbrilliant":10367,"umped":10368,"ĠRest":10369,"Ġfilmm":10370,"ĠZe":10371,"Ġsalary":10372,"Ġthunder":10373,"ĠArmstrong":10374,"Ġunlikely":10375,"merce":10376,"ĠBrazilian":10377,"rooms":10378,"oviÄĩ":10379,"Ġtrunk":10380,"ĠDanish":10381,"Ġrecovery":10382,"ĠClassic":10383,"ĠMcKin":10384,"ĠDescription":10385,"ĠMix":10386,"Ġcabinet":10387,"Ġmaintaining":10388,"ĠSega":10389,"Ġsalv":10390,"ĠBeginning":10391,"TS":10392,"ĠFisher":10393,"uez":10394,"Ġmarch":10395,"ĠSteel":10396,"ĠQuebec":10397,"Ġdistricts":10398,"Ġpassion":10399,"ĠOrle":10400,"ĠGreatest":10401,"Ġreforms":10402,"Ġintervention":10403,"Ġcinema":10404,"Ġing":10405,"Ġarguing":10406,"Ġestimates":10407,"ĠStudio":10408,"ocity":10409,"ĠPriv":10410,"Ġharbour":10411,"ĠFourth":10412,"ĠRena":10413,"oca":10414,"Ġcourses":10415,"Ġdrummer":10416,"Ġracial":10417,"ĠAP":10418,"Ġgarn":10419,"Ġcontend":10420,"ĠEve":10421,"Ġbeneath":10422,"Ġgrandfather":10423,"Ġrecurring":10424,"Ġfest":10425,"Ġpier":10426,"Ġinfl":10427,"ĠActor":10428,"ĠPa":10429,"ĠSpr":10430,"Ġsignificance":10431,"Ġvulnerable":10432,"hum":10433,"Ġaft":10434,"rod":10435,"Ġeating":10436,"Ġkills":10437,"Ġpetition":10438,"hl":10439,"Ġtowers":10440,"Ġaccurate":10441,"Ġbull":10442,"ĠSom":10443,"Ġweb":10444,"Ġreleg":10445,"Ġadvertis":10446,"Ġpap":10447,"Ġupset":10448,"ĠLiter":10449,"Ġdiverse":10450,"ĠDaw":10451,"ĠTai":10452,"ĠRio":10453,"ĠCathedral":10454,"ĠAuthority":10455,"ĠEc":10456,"Ġstatistics":10457,"Ġcommunications":10458,"MI":10459,"Ã¶n":10460,"ĠEis":10461,"ĠAgency":10462,"Ġsponsored":10463,"ĠCad":10464,"Ġvalid":10465,"Ġapplications":10466,"ĠKer":10467,"ĠConstantin":10468,"ĠOrleans":10469,"Ġclar":10470,"ĠKaiser":10471,"bal":10472,"ĠSusan":10473,"ĠSpirit":10474,"Ġnumbered":10475,"Ġefficient":10476,"rost":10477,"Ġunexpected":10478,"achute":10479,"Ġairline":10480,"ĠNev":10481,"ĠCultural":10482,"Ġclothes":10483,"Ġhind":10484,"ĠHarold":10485,"ĠUtah":10486,"umented":10487,"ĠJunior":10488,"Ġdecorated":10489,"Ġ102":10490,"ĠPlant":10491,"Ġsacrif":10492,"ĠSerbian":10493,"ĠGlobe":10494,"nt":10495,"ĠCass":10496,"ĠFu":10497,"Ġlasting":10498,"Ġfaces":10499,"Ġessentially":10500,"Ġshallow":10501,"asm":10502,"ĠLink":10503,"Ġshock":10504,"Ġinclusion":10505,"Ġtale":10506,"Ġtoler":10507,"onge":10508,"Ġ1861":10509,"Ġsurprised":10510,"ĠFIFA":10511,"Ġanswer":10512,"Ġconsolid":10513,"Ġmate":10514,"ĠCBS":10515,"Ġgender":10516,"ource":10517,"Ġsteep":10518,"Ġcharted":10519,"ario":10520,"Ġpm":10521,"ĠiP":10522,"Ġmood":10523,"ĠRichmond":10524,"Ġ1889":10525,"Ġemotion":10526,"Ġliner":10527,"osexual":10528,"abilities":10529,"ocy":10530,"Ġdeeply":10531,"lete":10532,"Ġparas":10533,"Ġbeaten":10534,"Ġtheories":10535,"uto":10536,"Ġsquadrons":10537,"atra":10538,"beat":10539,"Ġmorph":10540,"Ġratio":10541,"Ġtrick":10542,"Ġmerged":10543,"ĠMuhammad":10544,"Ġmanage":10545,"Ġinvent":10546,"Ġ1894":10547,"Ġpotentially":10548,"ĠProvince":10549,"ĠConstantine":10550,"Ġfate":10551,"Ġsummit":10552,"ĠNewton":10553,"Ġdrafted":10554,"ĠRepublicans":10555,"Ġscreenplay":10556,"urd":10557,"ĠVers":10558,"Ġ158":10559,"ĠTyler":10560,"ATO":10561,"erver":10562,"Ġcant":10563,"Ġtours":10564,"ĠSalt":10565,"ĠPad":10566,"Ġprocesses":10567,"Ġsuspic":10568,"utor":10569,"ashi":10570,"ĠScientology":10571,"Ġjet":10572,"atical":10573,"ĠSac":10574,"eston":10575,"Ġswit":10576,"Ġ1891":10577,"Ġembr":10578,"Ġdescent":10579,"ĠHav":10580,"ĠGay":10581,"levard":10582,"Ġcrimes":10583,"Ġsentence":10584,"Ġdancers":10585,"aze":10586,"Ġdemo":10587,"Ġproportion":10588,"ĠStuart":10589,"Ã©s":10590,"Ġcivilians":10591,"Ġsegments":10592,"Ġpersuaded":10593,"Arthur":10594,"aters":10595,"Ġdense":10596,"ĠMend":10597,"Ġbeating":10598,"ĠFighter":10599,"affe":10600,"Ġbeauty":10601,"itious":10602,"Ġ162":10603,"ĠPanzer":10604,"Ġdual":10605,"ĠAT":10606,"Ġfunded":10607,"Ġimplemented":10608,"Ġheritage":10609,"reated":10610,"ĠCS":10611,"Ġ113":10612,"ĠYouT":10613,"ĠMinor":10614,"Ġaccommodate":10615,"ĠApollo":10616,"Ġaltitude":10617,"reens":10618,"illo":10619,"ucker":10620,"Ġreactions":10621,"ĠYouTube":10622,"Ġhills":10623,"aiden":10624,"ĠProduct":10625,"itate":10626,"keeper":10627,"ĠYam":10628,"Ġcolors":10629,"ĠPicture":10630,"ĠNS":10631,"landers":10632,"ĠOrchest":10633,"Ġ1000":10634,"Ġpresentation":10635,"Ġholiday":10636,"Ġagriculture":10637,"ĠBuffalo":10638,"ĠSug":10639,"anche":10640,"ĠAmendment":10641,"Ġstructural":10642,"Ġgolden":10643,"Ġcomplained":10644,"ĠEth":10645,"oded":10646,"Ġfeared":10647,"ĠXII":10648,"Ġadminister":10649,"ĠVl":10650,"Ġ1892":10651,"Ġdevoted":10652,"ĠScar":10653,"ĠIndonesian":10654,"istent":10655,"ĠKam":10656,"Ġaddressed":10657,"castle":10658,"ĠCardiff":10659,"Ġcolumns":10660,"Ġevident":10661,"Ġrequiring":10662,"Ġsailing":10663,"Ġrejoin":10664,"Ġproof":10665,"ocation":10666,"Ġmanip":10667,"Ġsoutheastern":10668,"ĠSymphony":10669,"Ġwine":10670,"aha":10671,"Ġdwarf":10672,"ĠIvan":10673,"Ġmerc":10674,"Ġoriented":10675,"ĠSout":10676,"aping":10677,"Ġâģ":10678,"Ġbreaks":10679,"oda":10680,"Ġfame":10681,"Ġnurs":10682,"ĠConservation":10683,"ĠDays":10684,"ĠNord":10685,"Ġerror":10686,"Ġobservation":10687,"Ġtribe":10688,"Ġ156":10689,"ĠWithout":10690,"Ġfollowers":10691,"ĠElectric":10692,"Ġmythology":10693,"Ġcards":10694,"enson":10695,"onsin":10696,"ĠRegister":10697,"Ġvoyage":10698,"Ã«":10699,"Ġbell":10700,"ĠDanny":10701,"ĠVel":10702,"Ġconfusion":10703,"Ġjudges":10704,"Ġinteraction":10705,"ĠBrooks":10706,"Ġkidn":10707,"ĠFact":10708,"berry":10709,"Ġ1800":10710,"Ġknee":10711,"ĠHunter":10712,"Ġpregnant":10713,"Ġresearchers":10714,"ĠKyle":10715,"Ġboot":10716,"Ġpip":10717,"ĠSox":10718,"Ġquarters":10719,"Ġjurisdiction":10720,"ĠCavalry":10721,"Ġgene":10722,"ĠBurns":10723,"ĠSection":10724,"ĠSultan":10725,"ĠFull":10726,"Ġrecept":10727,"asha":10728,"Ġoperates":10729,"ĠWisc":10730,"ĠGround":10731,"ĠNature":10732,"Ġsuddenly":10733,"usalem":10734,"Ġcategories":10735,"ĠUntil":10736,"ĠIslamic":10737,"Ġpink":10738,"ĠGw":10739,"Ġcommenting":10740,"Ġopens":10741,"je":10742,"ĠRuth":10743,"Ġwritings":10744,"ospel":10745,"Ġdiplomatic":10746,"Ġembarked":10747,"Ġoblig":10748,"heric":10749,"Ġintermedi":10750,"mn":10751,"Ġtension":10752,"rific":10753,"Ġ135":10754,"ĠActress":10755,"Ġphysics":10756,"car":10757,"isons":10758,"Ġadvancing":10759,"Ġsuperst":10760,"Ġsculpture":10761,"Ġhighlighted":10762,"ĠJohann":10763,"ĠâģĦ":10764,"Ġrib":10765,"Ġextensively":10766,"ĠMetropolitan":10767,"Ġsized":10768,"Ġrect":10769,"ĠHope":10770,"ĠWalt":10771,"Ġthrown":10772,"Ġsimilarities":10773,"ĠâĤ¹":10774,"Ġfert":10775,"Ġgaining":10776,"Ġages":10777,"Ġstudying":10778,"ĠBoeing":10779,"owski":10780,"Ġprinciple":10781,"ĠJerusalem":10782,"Ġchallenges":10783,"ĠTerr":10784,"Ġbears":10785,"hers":10786,"Ġassum":10787,"Ġsugar":10788,"minster":10789,"Ġho":10790,"ĠCO":10791,"ĠAirlines":10792,"ĠSide":10793,"ĠPok":10794,"othy":10795,"Ġvari":10796,"ĠExecutive":10797,"ĠWisconsin":10798,"pot":10799,"ĠBible":10800,"boards":10801,"ĠJustin":10802,"Ġgardens":10803,"fr":10804,"amount":10805,"ĠReich":10806,"ĠAbu":10807,"Ġmanif":10808,"Ġ153":10809,"ĠTrade":10810,"Ġequally":10811,"Ġsentenced":10812,"Ġstatements":10813,"Ġdrown":10814,"ĠMontgom":10815,"Ġlifetime":10816,"ĠMontgomery":10817,"eness":10818,"Ġknocked":10819,"ĠEdition":10820,"Ġneighb":10821,"ĠTyphoon":10822,"Ġjack":10823,"Ġinfrastructure":10824,"ĠMcN":10825,"Ġconstitu":10826,"assed":10827,"Ġfee":10828,"Ġlocally":10829,"Ġeducated":10830,"born":10831,"sts":10832,"ocket":10833,"ĠLegisl":10834,"Ġrivals":10835,"anted":10836,"Ġdisturbance":10837,"Ġorange":10838,"ĠStart":10839,"ĠBarnes":10840,"Ġ240":10841,"Ġtooth":10842,"ĠTitan":10843,"ĠAA":10844,"ĠBased":10845,"Ġgift":10846,"Ġdivorce":10847,"Ġpredators":10848,"Ġtraditionally":10849,"Ġdealing":10850,"Ġboundaries":10851,"nels":10852,"thodox":10853,"ĠSchum":10854,"Ġties":10855,"ĠWonder":10856,"ĠEnv":10857,"Ġvariation":10858,"ĠGrade":10859,"ĠPrest":10860,"Ġpriest":10861,"ĠIndependence":10862,"Ġoverlook":10863,"Ġdocumented":10864,"Ġuniversal":10865,"Ġexplaining":10866,"ĠCrus":10867,"ancellor":10868,"ye":10869,"Ġresolved":10870,"Ġempty":10871,"ĠTurkey":10872,"Ġ1888":10873,"ĠAttorney":10874,"Ġstretch":10875,"ĠBes":10876,"Ġreceives":10877,"ĠRogers":10878,"enos":10879,"isfact":10880,"Ġrings":10881,"Ġamph":10882,"ĠMiles":10883,"Ġspawn":10884,"Ġenabled":10885,"ĠCentury":10886,"Ġsword":10887,"Ġsettlements":10888,"Ġrecruited":10889,"pine":10890,"arks":10891,"lington":10892,"ĠBaron":10893,"ĠControl":10894,"Ġgarnered":10895,"ĠScots":10896,"Ġtravelling":10897,"Ġconsiderably":10898,"Ġnaming":10899,"ĠSean":10900,"Ġexplore":10901,"Ġcommercially":10902,"Ġbenefits":10903,"Ġdiscontin":10904,"Ġtape":10905,"oria":10906,"ĠCemetery":10907,"Ġhelps":10908,"Ġ1885":10909,"Ġvillain":10910,"ĠMacArthur":10911,"Ġtickets":10912,"opp":10913,"quest":10914,"ĠSaturn":10915,"Ġrescued":10916,"Ġmud":10917,"Ġoptions":10918,"Ã©t":10919,"Ġcrashed":10920,"Ġhostile":10921,"osaurs":10922,"Ġurg":10923,"ĠAber":10924,"Ġlift":10925,"ĠIcel":10926,"Ġsubstitute":10927,"Ġashore":10928,"Ġtu":10929,"ĠTang":10930,"Ġseas":10931,"ometric":10932,"Ġinvolves":10933,"Ġweakening":10934,"ulsion":10935,"Ġnep":10936,"Ġsupern":10937,"ĠLeaf":10938,"ĠQuar":10939,"Ġsmoke":10940,"Ġbatted":10941,"Ġdisorder":10942,"Ġtasked":10943,"Ġproteins":10944,"piece":10945,"ĠSid":10946,"Ġforb":10947,"ando":10948,"angular":10949,"ĠGang":10950,"Ġguy":10951,"ĠChristians":10952,"Ġconcerning":10953,"Ġescorted":10954,"ĠPierre":10955,"Ġdying":10956,"ĠAges":10957,"Ġhoused":10958,"unning":10959,"ĠMall":10960,"Ġassert":10961,"Ġdoors":10962,"Ġdim":10963,"ĠIns":10964,"Ġdepicts":10965,"Ġdetect":10966,"ĠPatri":10967,"ĠMI":10968,"Ġinning":10969,"Ġelaborate":10970,"Ġobvious":10971,"aple":10972,"ĠUm":10973,"ovak":10974,"Ġcircular":10975,"Ġpursuit":10976,"ĠBaltic":10977,"Ġborrow":10978,"Ġvolunteers":10979,"Ġconcurrent":10980,"ĠIceland":10981,"iar":10982,"ĠJudge":10983,"Ġdimin":10984,"Ġdinner":10985,"Ġimprisoned":10986,"ĠManagement":10987,"Ġauthorized":10988,"Ġinnoc":10989,"Ġcollections":10990,"Ġgods":10991,"Ġinhib":10992,"ĠFitz":10993,"ĠThames":10994,"ĠSpider":10995,"iko":10996,"Ġeditions":10997,"Ġcompetitions":10998,"Ġwarships":10999,"Ġnavig":11000,"Ġconflicts":11001,"Ġflex":11002,"ĠRomney":11003,"Ġteammate":11004,"Ġpursued":11005,"ĠUC":11006,"ĠHearts":11007,"ĠAthens":11008,"ĠBarbara":11009,"uters":11010,"Ġtempo":11011,"Ġrevival":11012,"Ġ1865":11013,"master":11014,"ĠMind":11015,"Ġfavourite":11016,"ĠMovie":11017,"lights":11018,"vet":11019,"edia":11020,"ĠTa":11021,"Ġreass":11022,"Ġspar":11023,"Ġeventual":11024,"Ġpoliticians":11025,"ĠPant":11026,"rien":11027,"ĠEvil":11028,"Ġbeliefs":11029,"Ġvirtually":11030,"Ġstyl":11031,"Ġramp":11032,"ĠStra":11033,"Ġopposing":11034,"ĠAren":11035,"Ġchemistry":11036,"Ġurged":11037,"ĠTourn":11038,"agers":11039,"Ġvig":11040,"ĠReagan":11041,"Ġ112":11042,"Ġmanufacturing":11043,"ĠSherman":11044,"ĠAgainst":11045,"Ġrenewed":11046,"Ġfron":11047,"ĠNATO":11048,"ĠComedy":11049,"Ġdrain":11050,"Ġhandling":11051,"Ġveteran":11052,"ĠWes":11053,"ĠKan":11054,"Ġabroad":11055,"ĠRepresentatives":11056,"Ġcensus":11057,"ĠCode":11058,"Ġchase":11059,"ĠZone":11060,"Ġmixture":11061,"Å«":11062,"ĠNancy":11063,"Ġvelocity":11064,"ĠToy":11065,"Ġstones":11066,"ĠWinn":11067,"Ġportrait":11068,"Ġhandle":11069,"ĠRegional":11070,"Ġexamination":11071,"ĠTed":11072,"Ġepic":11073,"Ġuniversities":11074,"uction":11075,"ĠBask":11076,"Ġsuspected":11077,"lon":11078,"ĠIl":11079,"Ġ131":11080,"ĠFlore":11081,"Ġcable":11082,"Ġnut":11083,"ĠHunt":11084,"Ġstolen":11085,"ĠFight":11086,"ĠFlow":11087,"Ġunve":11088,"rene":11089,"backs":11090,"Ġpill":11091,"ĠMeth":11092,"ublin":11093,"Ġpromise":11094,"Ġmedals":11095,"Ġparticipants":11096,"Ġrushing":11097,"ĠVic":11098,"ĠTribune":11099,"ĠSonic":11100,"ĠAmb":11101,"Ġtrailer":11102,"wright":11103,"Ġgh":11104,"Ġcolours":11105,"Ġpromoting":11106,"Ġrendered":11107,"Ġcongress":11108,"Ġremembered":11109,"Ġlaps":11110,"Ġthereby":11111,"Ġorganisms":11112,"ME":11113,"ĠFish":11114,"ĠNova":11115,"Ġinherited":11116,"lane":11117,"rh":11118,"ĠReport":11119,"Ġ145":11120,"Ġpitcher":11121,"Ġtaste":11122,"Ġcattle":11123,"Ġconvey":11124,"Ġapply":11125,"Ġverte":11126,"Ġsharks":11127,"Ġconj":11128,"Ġanalog":11129,"Ġspur":11130,"onation":11131,"isition":11132,"Ġcomics":11133,"ĠKrist":11134,"Ġleaf":11135,"izer":11136,"ĠRef":11137,"Ã°":11138,"ĠHad":11139,"ĠAny":11140,"ĠBranch":11141,"Ġcapturing":11142,"ĠStein":11143,"ĠPortugal":11144,"ĠInvest":11145,"Ġinterven":11146,"ĠNewcastle":11147,"Ġ117":11148,"gow":11149,"rift":11150,"seud":11151,"Ġtrapped":11152,"Ġ159":11153,"Ġdecreased":11154,"ĠFace":11155,"ĠFern":11156,"arest":11157,"Ġtracked":11158,"Ġcostume":11159,"Ġbombardment":11160,"Ġtissue":11161,"ulus":11162,"Ġpositively":11163,"ĠConstantinople":11164,"ĠCrow":11165,"ĠNas":11166,"Ġhopes":11167,"Ġcompositions":11168,"Ġaccidentally":11169,"Ġinhab":11170,"ĠErnest":11171,"inery":11172,"ĠUnd":11173,"ĠBeh":11174,"Ġol":11175,"Ġinvaded":11176,"Ġtel":11177,"ĠCP":11178,"ellar":11179,"Ġmetric":11180,"Ġprototype":11181,"Ġcelebration":11182,"HS":11183,"ĠNeb":11184,"oids":11185,"ĠPersonnel":11186,"Ġblend":11187,"ĠDraft":11188,"Ġprox":11189,"Ġwarned":11190,"Ġconfirm":11191,"Ġjuven":11192,"urst":11193,"Ġvital":11194,"ĠPete":11195,"ĠCharlotte":11196,"Ġoccasional":11197,"Ġtornado":11198,"Ġfra":11199,"Ġmaps":11200,"Ġ450":11201,"Ġlinks":11202,"Ġloud":11203,"ĠMagic":11204,"ridor":11205,"ĠHeavyweight":11206,"Ġ118":11207,"ĠJosÃ©":11208,"Ġhoping":11209,"anim":11210,"ĠBert":11211,"Ġanticipated":11212,"ĠJoint":11213,"Ġupcoming":11214,"ĠBright":11215,"ĠLaboratory":11216,"ĠHeb":11217,"Ġvariations":11218,"Ġ1864":11219,"ĠMerced":11220,"Ġboyfriend":11221,"ĠLiberty":11222,"ĠAffairs":11223,"ĠEnvironment":11224,"limin":11225,"Ġthro":11226,"ĠCornwall":11227,"avan":11228,"Ġrains":11229,"rible":11230,"Ġavo":11231,"ĠOthers":11232,"Ġgoddess":11233,"otion":11234,"Ġbomber":11235,"ampton":11236,"Ġbatteries":11237,"ĠChapel":11238,"ĠPoly":11239,"ĠChad":11240,"Ġdozen":11241,"Ġprovisions":11242,"Ġmarking":11243,"Ġlaboratory":11244,"OC":11245,"Ġsinking":11246,"enburg":11247,"igious":11248,"Ġimpressive":11249,"Ġgenu":11250,"Ġaccessible":11251,"eff":11252,"Ġ114":11253,"Ġguests":11254,"Ġseparation":11255,"ĠYouth":11256,"roe":11257,"ĠVoice":11258,"ĠFreedom":11259,"tes":11260,"Ġlaugh":11261,"Ġscandal":11262,"ĠFilming":11263,"Ġbiological":11264,"Ġeasier":11265,"Ġdependent":11266,"Ġnickname":11267,"colm":11268,"Ġhorizont":11269,"anne":11270,"erts":11271,"iga":11272,"Ġib":11273,"ĠSud":11274,"Ġsupports":11275,"Ġpolitician":11276,"Ġsor":11277,"ĠGlas":11278,"Ġparliamentary":11279,"Ġfires":11280,"Ġindigenous":11281,"Ġthreats":11282,"Ġavoided":11283,"Ġrever":11284,"restrial":11285,"Ġconsumption":11286,"Ġnose":11287,"ĠLeices":11288,"ĠFriends":11289,"artime":11290,"ilda":11291,"Ġafford":11292,"Ġcow":11293,"Ġdust":11294,"ĠBud":11295,"ĠPul":11296,"Ġrandom":11297,"ardo":11298,"ĠMarines":11299,"Ġprogressed":11300,"ĠWinds":11301,"ĠChester":11302,"aco":11303,"ĠArmenian":11304,"Ġformula":11305,"Ġdeputy":11306,"Ġbiography":11307,"Ġrestrictions":11308,"ĠMembers":11309,"icking":11310,"ĠKenneth":11311,"Ġcorporate":11312,"Ġlighter":11313,"rior":11314,"ĠAgu":11315,"Ġvolcanic":11316,"Ġfed":11317,"Ġliver":11318,"agles":11319,"Ġeld":11320,"ĠMalcolm":11321,"ĠCryst":11322,"Ġtruly":11323,"hill":11324,"Ġimposed":11325,"ÃŃn":11326,"ĠMeteorological":11327,"ĠProtestant":11328,"Ġmixing":11329,"ĠOscar":11330,"ĠCase":11331,"osph":11332,"Ġrugby":11333,"ught":11334,"ĠEnergy":11335,"Ġparticles":11336,"Ġoccurring":11337,"ĠOrchestra":11338,"Ġsav":11339,"ĠVick":11340,"Ġusage":11341,"ĠChamberlain":11342,"Ġmurdered":11343,"ĠPedro":11344,"Ġfier":11345,"eling":11346,"ĠCena":11347,"ĠBapt":11348,"ĠDuch":11349,"Ġproduces":11350,"cliff":11351,"Ġfles":11352,"Ġtoxic":11353,"ĠTu":11354,"ĠTru":11355,"ĠBears":11356,"Ġnoticed":11357,"Ġevacuation":11358,"held":11359,"Ġcash":11360,"ĠSkin":11361,"ĠLower":11362,"Ġdreadn":11363,"ailing":11364,"Ġcustomers":11365,"Ġlicense":11366,"ĠBoulevard":11367,"ĠIsaac":11368,"ĠBeth":11369,"Ġcontracts":11370,"Ġdefenders":11371,"ĠCinc":11372,"ĠDublin":11373,"Ġenh":11374,"orted":11375,"ielder":11376,"Ġacre":11377,"Ġwound":11378,"isan":11379,"ĠTree":11380,"ĠDJ":11381,"ĠERA":11382,"Ġexile":11383,"changed":11384,"oples":11385,"ocal":11386,"ĠChair":11387,"Ġ1862":11388,"ĠSic":11389,"ĠCinem":11390,"Ġcathedral":11391,"Ġlawsuit":11392,"ĠZero":11393,"ĠAthletic":11394,"ptic":11395,"Ġrelation":11396,"fly":11397,"Ġwake":11398,"amics":11399,"ĠPeng":11400,"Ġgrap":11401,"Ġchoir":11402,"ĠCyclone":11403,"Ġintent":11404,"Ġspeculation":11405,"Ġordinary":11406,"ĠRoom":11407,"enberg":11408,"Ġkiller":11409,"Ġnephew":11410,"gÃ©":11411,"action":11412,"Ġdebris":11413,"ĠXX":11414,"Ġengineers":11415,"ĠAntar":11416,"NC":11417,"Ġstall":11418,"Ġhence":11419,"Ġplates":11420,"Ġangry":11421,"ĠTerm":11422,"ĠSaf":11423,"ĠLP":11424,"ÃŃa":11425,"Ġdepicting":11426,"point":11427,"ĠAction":11428,"ĠCareer":11429,"ĠBradley":11430,"ĠEddie":11431,"Ġaside":11432,"icken":11433,"Ġeastward":11434,"Ġtimber":11435,"Ġdisappointed":11436,"ĠGuild":11437,"ĠMV":11438,"Ġprest":11439,"Ġdevelopments":11440,"Ġthreatening":11441,"Ġintellectual":11442,"ĠFil":11443,"Ġkilog":11444,"Ġignored":11445,"ĠGlee":11446,"Ġindustries":11447,"ĠContinental":11448,"Ġencounters":11449,"Ġdecrease":11450,"ĠBreak":11451,"Ġlyrical":11452,"Ġconquest":11453,"ĠGabri":11454,"ĠTournament":11455,"Ġthrowing":11456,"ulum":11457,"ĠMetro":11458,"Ġcam":11459,"izz":11460,"overed":11461,"Ġterritorial":11462,"ĠArchbishop":11463,"ĠSerbia":11464,"Ġcomplicated":11465,"uri":11466,"eps":11467,"Ġmechanism":11468,"Ġundertaken":11469,"Ġmol":11470,"quer":11471,"Ġabb":11472,"ĠAlberta":11473,"Ġrevolutionary":11474,"Ġthunderstorm":11475,"ĠCincinn":11476,"ĠSaw":11477,"ĠAltern":11478,"ĠTraff":11479,"Ġvicinity":11480,"Ġmounts":11481,"ĠTake":11482,"ĠWatch":11483,"gett":11484,"Ġconvicted":11485,"mo":11486,"Ġelite":11487,"Ġtouchdowns":11488,"Ġstrikes":11489,"ĠHas":11490,"Ġhumanity":11491,"ĠBark":11492,"Ġune":11493,"emble":11494,"Ġchampionships":11495,"Ġexhibit":11496,"Ġconversation":11497,"auc":11498,"entieth":11499,"aneous":11500,"Ġconfident":11501,"Ġfocuses":11502,"Ġ107":11503,"ĠCollection":11504,"ĠTommy":11505,"ĠSpringfield":11506,"osion":11507,"Ġcontacted":11508,"Ġremin":11509,"Ġlacking":11510,"umbered":11511,"Ġmammals":11512,"Ġinaugural":11513,"ĠGon":11514,"Ġentert":11515,"Ġrealistic":11516,"ĠMicha":11517,"Ġtherm":11518,"Ġfab":11519,"ĠFuture":11520,"Ġpreserve":11521,"Ġsuspension":11522,"Ġfarmers":11523,"ĠGates":11524,"ĠThan":11525,"heimer":11526,"racks":11527,"Ġward":11528,"Ġgif":11529,"ĠVilla":11530,"Ġconstantly":11531,"ĠPlace":11532,"Ġboost":11533,"ĠMuslims":11534,"ĠÄĲ":11535,"Ġarose":11536,"rogen":11537,"ĠRO":11538,"ĠShah":11539,"ĠGibral":11540,"ĠJoan":11541,"Ġmetre":11542,"Ġinfection":11543,"Ġferry":11544,"ĠYugoslavia":11545,"Ġhelicopter":11546,"Ġbreast":11547,"itime":11548,"Ġfacil":11549,"ĠStudies":11550,"Ġdiamond":11551,"idia":11552,"Ġ157":11553,"Ġvoters":11554,"ĠMarshal":11555,"Ġstim":11556,"ovic":11557,"Ġfeathers":11558,"Ġcollaborated":11559,"Ġpredominantly":11560,"liminary":11561,"Ġstern":11562,"Ġtools":11563,"oba":11564,"Ġposts":11565,"Ġ1840":11566,"Ġthorough":11567,"encer":11568,"ĠCanu":11569,"Ġdesper":11570,"Ġasserted":11571,"iked":11572,"ĠMalta":11573,"ĠShiva":11574,"ĠSlav":11575,"ĠWagner":11576,"icing":11577,"ĠCand":11578,"ĠMang":11579,"ĠJake":11580,"ĠEnt":11581,"Ġpatient":11582,"hanced":11583,"Ġabsorbed":11584,"ĠGibraltar":11585,"ĠMaine":11586,"mont":11587,"Ġcentered":11588,"Ġreleasing":11589,"Ġcastles":11590,"etary":11591,"ĠShep":11592,"Ġholes":11593,"Ġinfer":11594,"ĠPas":11595,"osy":11596,"Ġgrows":11597,"Ġremoving":11598,"ĠCincinnati":11599,"Ġpor":11600,"Ġmos":11601,"Ġpeninsula":11602,"quiry":11603,"ĠTaiwan":11604,"Ġ220":11605,"ĠParks":11606,"Ġillustrated":11607,"Ġmit":11608,"ĠRear":11609,"ĠVo":11610,"ĠSex":11611,"ĠAngelou":11612,"ĠFriedrich":11613,"Ġexplanation":11614,"ĠAncient":11615,"Ġtune":11616,"ĠComics":11617,"rolled":11618,"Ġknows":11619,"Ġspeeds":11620,"Ġsustain":11621,"oirs":11622,"oting":11623,"ĠHood":11624,"ortion":11625,"Ġuser":11626,"Ġapolog":11627,"ĠBulgar":11628,"itol":11629,"Ġcompiled":11630,"ĠRobin":11631,"Ġbreeds":11632,"ĠLuft":11633,"Ġcanceled":11634,"onial":11635,"Ġbowl":11636,"Ġpenn":11637,"leb":11638,"ĠTint":11639,"Ġresid":11640,"Ġretrie":11641,"ĠReed":11642,"ĠOrd":11643,"Ġantib":11644,"Ġsituations":11645,"Ġphoto":11646,"Ġrelieved":11647,"Ġisn":11648,"ellers":11649,"Ġindependently":11650,"ĠNormandy":11651,"ĠWaters":11652,"itic":11653,"ĠAL":11654,"Ġenorm":11655,"Ġchrom":11656,"regular":11657,"ĠBulg":11658,"hou":11659,"alg":11660,"ĠLords":11661,"auge":11662,"Ġroadway":11663,"ĠHull":11664,"odium":11665,"ĠUk":11666,"ubble":11667,"Ġ1887":11668,"DI":11669,"gans":11670,"Ġda":11671,"Ġlover":11672,"ĠMaced":11673,"ĠLS":11674,"ĠShield":11675,"Ġpleased":11676,"Ġ978":11677,"ĠVegas":11678,"Hg":11679,"iture":11680,"asury":11681,"Ġincom":11682,"Ġoffshore":11683,"ĠAlliance":11684,"issioned":11685,"Ġmarched":11686,"ĠCamb":11687,"Ġlayers":11688,"ĠOlivia":11689,"ĠAfghanistan":11690,"ĠChet":11691,"ĠRound":11692,"Ġclergy":11693,"Ġsheep":11694,"ĠHom":11695,"Ġlocomotives":11696,"hart":11697,"Ġoutstanding":11698,"Ġviewing":11699,"ĠMadison":11700,"Ġ1863":11701,"ĠVIII":11702,"Ġperc":11703,"Ġrecruit":11704,"Ġcouldn":11705,"ĠTwitter":11706,"ipher":11707,"Ġarena":11708,"assy":11709,"Ġgenres":11710,"Ġpaying":11711,"ĠBurke":11712,"ĠConservative":11713,"ĠMi":11714,"Ġexpanding":11715,"Ġ126":11716,"Ġ132":11717,"ĠEdmund":11718,"Ġ1886":11719,"Ġpig":11720,"ocol":11721,"Ġclosure":11722,"Ġprosper":11723,"Ġvarying":11724,"ĠTechnology":11725,"cha":11726,"ĠPay":11727,"atsu":11728,"ĠGregory":11729,"Ġcolored":11730,"ĠLeeds":11731,"Ġdisappeared":11732,"ĠFormer":11733,"umberland":11734,"ĠSchumacher":11735,"akh":11736,"occ":11737,"Ġ119":11738,"áº":11739,"overty":11740,"ĠRevolutionary":11741,"Ġcu":11742,"Ġmild":11743,"ĠKid":11744,"Ġregulations":11745,"Ġreporting":11746,"Ġsuggestion":11747,"rels":11748,"ĠPokÃ©":11749,"Ġaest":11750,"ĠJNA":11751,"Ġcelebrate":11752,"Ġatop":11753,"ĠOrton":11754,"Ġarmoured":11755,"ieg":11756,"Ġhybrid":11757,"Ġsentiment":11758,"ĠBrooklyn":11759,"Ġfungus":11760,"instein":11761,"ĠMercury":11762,"Ġconspiracy":11763,"Ġinducted":11764,"Ġbapt":11765,"Ġblast":11766,"Ġbackst":11767,"ennial":11768,"ischer":11769,"ĠJulian":11770,"ĠPrinceton":11771,"ĠPros":11772,"ĠDennis":11773,"Ġbutter":11774,"Ġfaculty":11775,"Ġattraction":11776,"lem":11777,"Ġlib":11778,"ritic":11779,"ribution":11780,"ĠMcKinley":11781,"found":11782,"omed":11783,"ĠMult":11784,"ework":11785,"Ġreporter":11786,"Ġromance":11787,"ĠCer":11788,"ĠMann":11789,"ĠHubb":11790,"Ġflour":11791,"Ġnevertheless":11792,"Ġdropping":11793,"music":11794,"imony":11795,"ĠBrowns":11796,"Ġwitnesses":11797,"ĠKon":11798,"izard":11799,"Ġblamed":11800,"onnie":11801,"ulates":11802,"Ġconced":11803,"Ġsubmer":11804,"ĠEls":11805,"ĠSerge":11806,"ĠTigers":11807,"leted":11808,"ĠCort":11809,"Ġeagle":11810,"ĠRush":11811,"ĠOrganization":11812,"ĠNation":11813,"Ġfundamental":11814,"Ġswept":11815,"ĠDud":11816,"Ġremote":11817,"Ġpublicity":11818,"Ġcompanion":11819,"ĠHelen":11820,"Ġstored":11821,"ĠLeo":11822,"Ġrepris":11823,"Ġorganic":11824,"Ġpositioned":11825,"Ġwhatever":11826,"ĠNathan":11827,"Ġdrunk":11828,"Ġparking":11829,"Ġsubmarines":11830,"ĠMLB":11831,"Ġspir":11832,"ĠBrand":11833,"ĠHistorical":11834,"Ġretreated":11835,"ĠMusical":11836,"Ġpatri":11837,"Ġfant":11838,"Ġmad":11839,"Ġstability":11840,"Ġannex":11841,"Ġverses":11842,"Ġprogressive":11843,"ĠMonth":11844,"etta":11845,"Ġfortifications":11846,"Ġfocusing":11847,"Ġtargeted":11848,"Ġcondemned":11849,"Ġfract":11850,"ĠinHg":11851,"Ġ1884":11852,"Ġoxid":11853,"Ġshelter":11854,"ĠNASA":11855,"ĠHubbard":11856,"ĠSoph":11857,"ĠFly":11858,"ensis":11859,"ĠBarcel":11860,"ĠGlasgow":11861,"Ġwrap":11862,"ĠTalk":11863,"Ġnoise":11864,"Ġirregular":11865,"Ġcorresponding":11866,"acular":11867,"Ġgentle":11868,"Ġmonit":11869,"ĠSteam":11870,"Ġflown":11871,"ĠSalv":11872,"ĠCanucks":11873,"Ġtent":11874,"ĠTests":11875,"Ġcurve":11876,"Ġresignation":11877,"Ġdisbanded":11878,"Ġasc":11879,"ĠFather":11880,"ĠEld":11881,"Ġfossils":11882,"mates":11883,"Ġlung":11884,"iah":11885,"ĠIsle":11886,"ĠPolitical":11887,"ĠAub":11888,"Ġconfused":11889,"Ġdetected":11890,"Ġconvince":11891,"Ġmail":11892,"Ġwinners":11893,"Ġtorpedoes":11894,"Ġchallenging":11895,"Ġtelephone":11896,"acht":11897,"ĠOpera":11898,"ĠDevil":11899,"Ġmagnetic":11900,"Ġpreceding":11901,"ĠIsab":11902,"Ġswing":11903,"Ġrebounds":11904,"Ġcruise":11905,"Ã¢":11906,"Ġmentions":11907,"Ġroster":11908,"Ġmachines":11909,"Ġquoted":11910,"ĠCoal":11911,"ĠSmack":11912,"ĠPhillies":11913,"ĠFifth":11914,"ĠKaz":11915,"Ġbrings":11916,"ĠHolland":11917,"ĠMontana":11918,"ĠGhost":11919,"Ġrice":11920,"Ġstudios":11921,"Ġinsurance":11922,"Ġworse":11923,"ĠNW":11924,"Ġcalculated":11925,"Ġfault":11926,"ĠStal":11927,"Ġdirecting":11928,"Ã©n":11929,"Ġconcepts":11930,"ĠSolar":11931,"Ġmelod":11932,"Ġsolely":11933,"inated":11934,"Ġdiversity":11935,"ĠTheodore":11936,"Ġregiments":11937,"Ġterminal":11938,"ĠHerbert":11939,"Ġcreature":11940,"ĠKill":11941,"Ġtourist":11942,"ĠPercy":11943,"ĠBCE":11944,"mans":11945,"enz":11946,"ĠNass":11947,"Ġmigr":11948,"ĠInside":11949,"Ġthanks":11950,"ĠMillennium":11951,"Ġdarker":11952,"Ġrotation":11953,"ĠWestminster":11954,"Ġjudicial":11955,"auded":11956,"Ġnice":11957,"ĠMorning":11958,"ĠChem":11959,"ĠOil":11960,"ĠInsp":11961,"usters":11962,"ishops":11963,"Ġhistorically":11964,"Ġ1877":11965,"Ġhide":11966,"ĠBurg":11967,"Ġtriumph":11968,"Ġfavored":11969,"ĠAdventure":11970,"ĠTintin":11971,"icles":11972,"Ġ151":11973,"ĠCeltic":11974,"arded":11975,"Ġexamined":11976,"Ġscholarship":11977,"ĠCEO":11978,"oom":11979,"wing":11980,"Ġaqu":11981,"Ġjersey":11982,"ĠMercedes":11983,"ĠChang":11984,"Ġ103":11985,"rÃ©":11986,"Ġbore":11987,"utter":11988,"ĠHus":11989,"Ġmyself":11990,"ĠDenver":11991,"bel":11992,"Ġcha":11993,"ĠVern":11994,"Ġ1876":11995,"ĠBasketball":11996,"ĠKin":11997,"ĠEpis":11998,"onso":11999,"Ġgear":12000,"igger":12001,"overy":12002,"Ġzero":12003,"ĠCond":12004,"amine":12005,"olia":12006,"ĠLud":12007,"Ġbattlefield":12008,"Ġprompting":12009,"Ġsteadily":12010,"Ġwartime":12011,"hentic":12012,"ĠAustro":12013,"Ġ138":12014,"Ġconfig":12015,"Ġacclaimed":12016,"iors":12017,"Ġtrio":12018,"Ġmessages":12019,"ĠAlbany":12020,"bie":12021,"Ġsulf":12022,"Ġrounded":12023,"Ġballs":12024,"Ġwalked":12025,"gus":12026,"Ġcotton":12027,"Ġsharing":12028,"Ġmeasuring":12029,"Ġmonastery":12030,"ĠPoe":12031,"Ġjew":12032,"Ġreconstruction":12033,"Ġspacecraft":12034,"ewise":12035,"Ġscreens":12036,"ĠYard":12037,"ĠGlou":12038,"ĠStrong":12039,"ĠAdditional":12040,"ĠRonald":12041,"Ġaf":12042,"Ġeligible":12043,"Ġconnects":12044,"Ġelevated":12045,"ĠBulgarian":12046,"ĠCany":12047,"Ġagencies":12048,"Ġguards":12049,"Ġagrees":12050,"var":12051,"omon":12052,"ĠTheater":12053,"Ġgusts":12054,"Ġghost":12055,"cour":12056,"ĠRus":12057,"avian":12058,"Ġrouting":12059,"Ġdecisive":12060,"Ġthemed":12061,"Ġ116":12062,"Ġdistinction":12063,"Ġrefuses":12064,"Ġcurved":12065,"Ġtroop":12066,"Ġcommitment":12067,"hend":12068,"ĠTir":12069,"roscop":12070,"Ġpresents":12071,"ĠOttawa":12072,"ĠCarlos":12073,"ĠPick":12074,"ĠAthen":12075,"Ġmotif":12076,"ĠCurrent":12077,"Ġaccomplished":12078,"ĠGothic":12079,"ĠNevada":12080,"ĠEC":12081,"qual":12082,"Ġradius":12083,"Ġopined":12084,"Ġclouds":12085,"gary":12086,"ĠAer":12087,"ĠRivers":12088,"Ġkids":12089,"lude":12090,"Ġpostp":12091,"Ġconducting":12092,"Ġhyper":12093,"Ġrevenge":12094,"Ġcemetery":12095,"Ġmasc":12096,"ĠCou":12097,"ĠCox":12098,"Ġexterior":12099,"Ġincidents":12100,"assing":12101,"ĠExpl":12102,"Ġarguments":12103,"zes":12104,"ĠSri":12105,"ishn":12106,"atty":12107,"Ġphysically":12108,"Ġwalks":12109,"gon":12110,"ĠCe":12111,"ĠTerritory":12112,"Ġproclaimed":12113,"ĠPokÃ©mon":12114,"ĠBarcelona":12115,"cell":12116,"Ġcreatures":12117,"Ġkilometers":12118,"Ġlinear":12119,"ĠMichaels":12120,"Ġtap":12121,"asp":12122,"Ġecho":12123,"Ġcomed":12124,"ampa":12125,"Ġ129":12126,"Ġ230":12127,"uka":12128,"Ġparticipating":12129,"Ġflower":12130,"Ġconsequence":12131,"ahl":12132,"Ġencomp":12133,"Ġ1830":12134,"Ġintegrated":12135,"hall":12136,"lined":12137,"Ġtough":12138,"Ġhosp":12139,"ĠSquad":12140,"Ġ122":12141,"Ġindirect":12142,"Ġ134":12143,"Ġloose":12144,"Ġfinest":12145,"Ġ1875":12146,"ĠCardinals":12147,"Ġvenues":12148,"opard":12149,"Ġcentimet":12150,"ĠParaly":12151,"Ġwidth":12152,"Ġrebel":12153,"inge":12154,"Ġfo":12155,"ĠRI":12156,"ĠEnix":12157,"ĠAbra":12158,"omical":12159,"ĠBerm":12160,"istical":12161,"Ġchann":12162,"lett":12163,"aults":12164,"Ġcomplimented":12165,"Ġtheaters":12166,"bach":12167,"flow":12168,"Ġintend":12169,"Ġspell":12170,"ĠChuck":12171,"Ġrunner":12172,"Ġmilk":12173,"Ġproperly":12174,"Ġceremonies":12175,"á»ĩ":12176,"Ġritual":12177,"Ġenhanced":12178,"Ġdemographic":12179,"Ġlesser":12180,"ding":12181,"itars":12182,"Ġspots":12183,"Ġprince":12184,"Ġposter":12185,"ĠDrake":12186,"ĠMilan":12187,"Ġcontribute":12188,"ĠChurchill":12189,"Ġextends":12190,"Ġdeliberately":12191,"Ġlakes":12192,"Ġscout":12193,"ĠParkway":12194,"Ġtelesc":12195,"Ġreminisc":12196,"Ġtouc":12197,"Ġmansion":12198,"Ġpeoples":12199,"ĠColin":12200,"Ġbowled":12201,"ĠBris":12202,"alling":12203,"acking":12204,"Ġvaries":12205,"ĠRaymond":12206,"Ġpreparations":12207,"eda":12208,"Ġcosm":12209,"ighed":12210,"ĠFoster":12211,"Ġremake":12212,"ettes":12213,"Ġheavier":12214,"Ġborough":12215,"Ġmartial":12216,"ĠHok":12217,"Ġinsuff":12218,"Ġ1883":12219,"ĠMetac":12220,"ĠDerby":12221,"Ã¥":12222,"Ġharsh":12223,"ĠRBI":12224,"ĠEsc":12225,"ĠMega":12226,"Ġweakness":12227,"Ġinstructions":12228,"arthy":12229,"ĠWings":12230,"Ġcanon":12231,"Ġsouthwestern":12232,"ĠBarn":12233,"ĠEmma":12234,"Ġcontrad":12235,"ĠOperations":12236,"Ġonwards":12237,"rians":12238,"season":12239,"Ġministers":12240,"ĠRomanian":12241,"Ġtransformed":12242,"ĠCaes":12243,"Ġintermediate":12244,"inter":12245,"unge":12246,"Music":12247,"ĠSor":12248,"ĠVerm":12249,"Ġplayable":12250,"ĠMarl":12251,"Ġcontinental":12252,"Ġpossessed":12253,"Ġ1881":12254,"Ġupdated":12255,"rob":12256,"Ġcoaches":12257,"ĠManuel":12258,"Ġachievements":12259,"Down":12260,"arians":12261,"Ġhurt":12262,"ĠJose":12263,"Ġrook":12264,"Ġsensitive":12265,"ĠCircle":12266,"Ġinitiative":12267,"ĠSmackDown":12268,"ĠPel":12269,"ĠRan":12270,"ĠOcc":12271,"ĠSciences":12272,"Ġairborne":12273,"ashire":12274,"Ġprospect":12275,"Ġrider":12276,"Ġoutcome":12277,"Ġlogo":12278,"AP":12279,"nda":12280,"ĠLed":12281,"Ġtransmission":12282,"ĠVenice":12283,"Ġpropaganda":12284,"Ġaided":12285,"Ġcritically":12286,"ĠNorthwest":12287,"Ġhomosexual":12288,"ĠComputer":12289,"Ġconsideration":12290,"ĠMiddles":12291,"ĠJamaica":12292,"zed":12293,"Ġfru":12294,"ĠPack":12295,"Ġyd":12296,"Ġallied":12297,"Ġvariable":12298,"ĠHispan":12299,"Ġoptim":12300,"Ġconsciousness":12301,"ĠBour":12302,"Ġdisabled":12303,"ĠBelie":12304,"ĠRichardson":12305,"ĠBrah":12306,"Ġvegetation":12307,"Ġautobiography":12308,"herent":12309,"ĠRNA":12310,"ĠDuc":12311,"Ġorchestral":12312,"ĠParalymp":12313,"Ġtourists":12314,"Ġ1869":12315,"Ġemerging":12316,"Ġdeposits":12317,"ĠDiamond":12318,"ĠRosen":12319,"Ġdepiction":12320,"Ġestimate":12321,"Ġexercises":12322,"ĠPowell":12323,"Ġwit":12324,"ĠNad":12325,"ĠâĻ":12326,"Ġspite":12327,"Ġmonster":12328,"ĠBlair":12329,"ironments":12330,"ĠDuncan":12331,"ĠLancashire":12332,"elin":12333,"ĠCalgary":12334,"ĠComposition":12335,"Ġmoist":12336,"Ã¦":12337,"ĠBody":12338,"Ġunh":12339,"izers":12340,"Ġlandmark":12341,"alties":12342,"Ġpunishment":12343,"Ġpermanently":12344,"ĠHenderson":12345,"Ġunanim":12346,"ubs":12347,"ĠUnit":12348,"Ġworker":12349,"Ġconsistently":12350,"Ġroutine":12351,"ĠArena":12352,"cont":12353,"ĠSad":12354,"ĠHein":12355,"Ġnortheastern":12356,"Ġ1866":12357,"Ġcomprising":12358,"Ġborders":12359,"acer":12360,"ĠGa":12361,"Ġgrid":12362,"Ġpresidency":12363,"Ġlatest":12364,"Ġdoctrine":12365,"£o":12366,"ĠFerdin":12367,"aton":12368,"orf":12369,"ĠTotal":12370,"Ġstaged":12371,"ĠDelta":12372,"ĠBrid":12373,"ĠIsles":12374,"ĠFloyd":12375,"ĠWeather":12376,"Ġassassination":12377,"ĠVoy":12378,"Ġperformers":12379,"Ġsummon":12380,"Ġmanaging":12381,"Ġenvironments":12382,"Ġjournalists":12383,"Ġsearching":12384,"Ġdelegates":12385,"Ġsubtropical":12386,"vor":12387,"eries":12388,"Ġascend":12389,"Ġdamaging":12390,"Ġrevealing":12391,"Ġachievement":12392,"Ġpayment":12393,"Ġsailors":12394,"Ġmunicipal":12395,"iffer":12396,"ĠAlam":12397,"ĠSpeed":12398,"Ġhonors":12399,"Ġbelonging":12400,"lake":12401,"Ġbin":12402,"works":12403,"Ġwitnessed":12404,"rang":12405,"ĠSyn":12406,"Ġmysterious":12407,"ni":12408,"Ġhoney":12409,"riages":12410,"Ġmarg":12411,"Ġencourage":12412,"Ġinput":12413,"Ġ128":12414,"ĠMills":12415,"Ġpsychiat":12416,"ĠUsing":12417,"Ġarchaeological":12418,"Ġcomplement":12419,"Ġpriority":12420,"Ġreluctant":12421,"RS":12422,"bu":12423,"Ġdock":12424,"ĠContem":12425,"Ġphilosopher":12426,"ĠCrawford":12427,"ĠCanyon":12428,"Ġgates":12429,"ĠRange":12430,"Ġepit":12431,"ĠSchol":12432,"Ġpreventing":12433,"Ġphenomenon":12434,"Ġreh":12435,"Ġdispatched":12436,"Ġunsuccessfully":12437,"ĠSprings":12438,"Ġamphib":12439,"ĠLeicester":12440,"ju":12441,"Ġmarsh":12442,"ĠSeb":12443,"ĠFrances":12444,"ĠArchae":12445,"Ġodd":12446,"Brien":12447,"ĠHerm":12448,"Ġactively":12449,"atorial":12450,"Ġargue":12451,"Ġsilent":12452,"ĠEllen":12453,"Ġenlar":12454,"Ġventure":12455,"Ġversus":12456,"Ġbelonged":12457,"Ġhypothesis":12458,"ĠRav":12459,"ĠWis":12460,"Ġpref":12461,"Ġlengths":12462,"Ġcoaching":12463,"ĠVeronica":12464,"ĠRodrig":12465,"Ġswitched":12466,"Ġconfer":12467,"assic":12468,"ĠGrove":12469,"ĠPalestine":12470,"Ġpoverty":12471,"Ġfinance":12472,"Ġstrange":12473,"Ġ750":12474,"Ġfrigate":12475,"GM":12476,"Ġanarch":12477,"Ġseal":12478,"Ġcorruption":12479,"Ġeighteen":12480,"Ġceiling":12481,"Ġdisputed":12482,"Ġdistinguish":12483,"Ġawareness":12484,"Ġexecutives":12485,"actic":12486,"ĠArc":12487,"Ġ124":12488,"Ġlistening":12489,"Ġscientist":12490,"ĠPlanet":12491,"ĠCrystal":12492,"Ġoct":12493,"ĠTas":12494,"ĠHi":12495,"ĠFischer":12496,"Ġintroduce":12497,"alia":12498,"ĠTucker":12499,"ĠNam":12500,"anka":12501,"Ġdirections":12502,"Ġcontributing":12503,"ĠConserv":12504,"Ġmechanics":12505,"ĠHeadquarters":12506,"adows":12507,"Ġshaft":12508,"Ġexploration":12509,"ĠMedic":12510,"Ġ1873":12511,"Ġexpectations":12512,"iating":12513,"ĠPunk":12514,"ikes":12515,"Ġion":12516,"ĠMut":12517,"ĠTelegraph":12518,"ĠAssist":12519,"Ġ1882":12520,"Ġprocedure":12521,"ĠWel":12522,"Ġrational":12523,"ĠCarn":12524,"Ġinternationally":12525,"ĠRegion":12526,"Ġ1871":12527,"ijing":12528,"Ġadjust":12529,"Ġwhales":12530,"ĠFun":12531,"Ġformations":12532,"Ġcarved":12533,"Ġmolecular":12534,"pin":12535,"Ã´":12536,"Ġicon":12537,"Ġsurpassed":12538,"Ġnaturally":12539,"Tunes":12540,"Ġmetals":12541,"ĠCloud":12542,"Ġobjectives":12543,"atar":12544,"Ġmbar":12545,"Ġgest":12546,"ĠFood":12547,"ĠFlanders":12548,"Ġvamp":12549,"Ġleagues":12550,"Ġguitars":12551,"Ġadvocated":12552,"Ġimproving":12553,"Ġ1867":12554,"ĠFilms":12555,"Ġmystery":12556,"Ġsaving":12557,"Ġroot":12558,"ĠTruman":12559,"rington":12560,"rium":12561,"abad":12562,"Ġintr":12563,"Ġdesired":12564,"Ġtribut":12565,"eches":12566,"odied":12567,"Ġsheet":12568,"ĠMarqu":12569,"Ġshipped":12570,"ĠÃī":12571,"Ġprivile":12572,"Ġreop":12573,"chi":12574,"istocr":12575,"Ġplum":12576,"ogg":12577,"Ġaccus":12578,"ĠCommons":12579,"ĠKepler":12580,"Ġdimensional":12581,"Ġsubmerged":12582,"LA":12583,"Ġpseud":12584,"usty":12585,"Ġabst":12586,"Ġprocessing":12587,"Ġdiscussing":12588,"ĠIntellig":12589,"Ġabundant":12590,"vik":12591,"Ġrequirement":12592,"Ġoverwhelming":12593,"Ġremind":12594,"Ġstaying":12595,"core":12596,"ĠSeas":12597,"Ġtemples":12598,"Ġacceptance":12599,"Ġtasks":12600,"olan":12601,"ĠPine":12602,"Ġconvert":12603,"ĠKil":12604,"Ġ1878":12605,"Ġcrucial":12606,"ĠMile":12607,"Ġunrel":12608,"Ġreson":12609,"erness":12610,"Ġassociate":12611,"Ġhorsepower":12612,"ĠStandard":12613,"Ġcubic":12614,"ĠDudley":12615,"Ġmant":12616,"ĠUB":12617,"ĠAlt":12618,"ierra":12619,"ĠBeijing":12620,"nery":12621,"ĠDeputy":12622,"asaki":12623,"Ġpartners":12624,"angered":12625,"ĠShin":12626,"ĠWhy":12627,"zig":12628,"ĠTrue":12629,"Ġexplored":12630,"ĠWatson":12631,"ĠMasters":12632,"asia":12633,"chw":12634,"ĠAnat":12635,"Ġestates":12636,"Ġcomprised":12637,"ĠPly":12638,"Ġspeculated":12639,"ĠMcCarthy":12640,"Ġblockade":12641,"Ġrefugees":12642,"Ġnervous":12643,"Ġdive":12644,"usive":12645,"umi":12646,"ĠCommerc":12647,"Ġgenes":12648,"Ġkeyboard":12649,"ĠDesert":12650,"Ġcomposers":12651,"Ġopinions":12652,"Ġchannels":12653,"gor":12654,"ĠSA":12655,"Ġliv":12656,"ĠNewman":12657,"ĠTrinity":12658,"Ġauthentic":12659,"Ġcameo":12660,"Ġcollecting":12661,"amation":12662,"asses":12663,"Ġadequ":12664,"ĠAdela":12665,"ĠBea":12666,"rews":12667,"Ġresemble":12668,"Ġfragments":12669,"appa":12670,"ĠExped":12671,"Ġloaded":12672,"Ġnavigation":12673,"isations":12674,"Ġeleph":12675,"Ġsuffer":12676,"Ġaveraged":12677,"Ġundertook":12678,"suing":12679,"Ġimmigrants":12680,"ĠiTunes":12681,"ĠGibson":12682,"eded":12683,"ĠLuftw":12684,"HC":12685,"Ġjaw":12686,"Ġhabitats":12687,"Ġturbines":12688,"Ġpercussion":12689,"Ġpump":12690,"ĠProfessional":12691,"immer":12692,"Ġseeds":12693,"Ġ137":12694,"ĠGuadal":12695,"Ġcompromise":12696,"kh":12697,"lex":12698,"ĠRaid":12699,"Ġrushed":12700,"Ġrepublic":12701,"Ġcomplaints":12702,"Ġmanufactured":12703,"utely":12704,"Ġwhale":12705,"thlete":12706,"Ġ202":12707,"Ġassets":12708,"Ġgenera":12709,"Ġposthum":12710,"rehensive":12711,"ĠMail":12712,"Ġants":12713,"ĠAlpha":12714,"ĠClif":12715,"Ġhomeless":12716,"Ġnetworks":12717,"ĠCulture":12718,"Ġcraf":12719,"arus":12720,"ĠEagle":12721,"ĠMalay":12722,"Ġphotos":12723,"Ġov":12724,"Ġhaz":12725,"ĠAqu":12726,"Ġmanages":12727,"Ġdiscour":12728,"Ġconsequences":12729,"ĠAaron":12730,"ĠMeyer":12731,"Ġunderwater":12732,"Ġfaction":12733,"Ġfemin":12734,"Ġcoastline":12735,"Ġbench":12736,"ĠMetacritic":12737,"Ġbars":12738,"Ġgauge":12739,"Ġensuing":12740,"Ġdissolved":12741,"ĠSurv":12742,"Ġpsychological":12743,"ĠWellington":12744,"Ġabsolute":12745,"ĠIb":12746,"ĠHass":12747,"ĠColomb":12748,"ĠAngle":12749,"ĠBerg":12750,"Ġsymbols":12751,"Ġreconstruct":12752,"Ġeruption":12753,"ilogy":12754,"ĠMobile":12755,"ulture":12756,"Ġhonorary":12757,"Ġlesb":12758,"Ġfabric":12759,"ĠLuftwaffe":12760,"ĠTib":12761,"Ġstair":12762,"ĠRif":12763,"ĠLuther":12764,"Ġrepet":12765,"ĠBermuda":12766,"Ġineff":12767,"ĠSyl":12768,"Ġconsensus":12769,"boat":12770,"Ġlengthy":12771,"ĠShelley":12772,"ĠBaptist":12773,"ĠPsych":12774,"Ġrelied":12775,"ĠTrav":12776,"ĠAppro":12777,"Ġultimate":12778,"ĠVlad":12779,"rection":12780,"Ġvariant":12781,"Ġlemurs":12782,"Ġsic":12783,"Ġcave":12784,"ĠMak":12785,"Ġadds":12786,"Ġloyalty":12787,"ĠBass":12788,"employ":12789,"Ġaristocr":12790,"Ġsingers":12791,"ographed":12792,"ĠMonroe":12793,"ĠMethod":12794,"Ġfears":12795,"oves":12796,"Ġsignals":12797,"Ġsummar":12798,"IV":12799,"Ġlandings":12800,"ĠMonster":12801,"Ġimprov":12802,"iggins":12803,"Ġreserves":12804,"Ġunveiled":12805,"mother":12806,"ĠWant":12807,"isting":12808,"aba":12809,"Ġintact":12810,"amped":12811,"Ġphosph":12812,"Ġqualities":12813,"Ġeldest":12814,"Ġ1872":12815,"Ġdisappoint":12816,"Ġassessment":12817,"Ġfraud":12818,"ilera":12819,"Ġ1868":12820,"ĠSelena":12821,"Ġteachers":12822,"ĠMachine":12823,"ĠAguilera":12824,"ĠNotable":12825,"Ġcontempor":12826,"inqu":12827,"ĠMick":12828,"Ġdefenses":12829,"Ġambassador":12830,"ĠTimber":12831,"Ġdoctors":12832,"ĠRPG":12833,"orig":12834,"Ġunre":12835,"Ġmillions":12836,"Ġrocket":12837,"Ġinteractions":12838,"ĠEngineering":12839,"ĠOtto":12840,"Ġbattlecruisers":12841,"Ġflesh":12842,"avil":12843,"Ġbuff":12844,"Ġharvest":12845,"Ġemotions":12846,"Ġspectators":12847,"ĠUrban":12848,"ĠCut":12849,"ĠMull":12850,"Ġdelight":12851,"Ġliterally":12852,"Ġprinting":12853,"Ġgrossed":12854,"ĠVarious":12855,"Ġduck":12856,"child":12857,"ĠChoice":12858,"Ġcomparing":12859,"Ġbrut":12860,"Ġtradem":12861,"Ġpounder":12862,"ĠWolver":12863,"Ġtwentieth":12864,"ĠHenri":12865,"Ġowing":12866,"isk":12867,"Ġweighed":12868,"Ġamid":12869,"Ġanthem":12870,"alysis":12871,"Ġcostumes":12872,"Ġlifted":12873,"Ġessay":12874,"Ġsongwriting":12875,"Ġsear":12876,"Ġclip":12877,"ĠMarx":12878,"ĠFlames":12879,"Ġenormous":12880,"rays":12881,"ĠWoods":12882,"ĠCabinet":12883,"ĠFemale":12884,"ĠPon":12885,"Ġengaging":12886,"grade":12887,"licted":12888,"ĠEllis":12889,"Ġexplosive":12890,"through":12891,"ipping":12892,"Ġbacteria":12893,"ĠDakota":12894,"unar":12895,"Ġdealt":12896,"Ġtrips":12897,"Ġrevived":12898,"Ġintelligent":12899,"Ġbatsman":12900,"ĠSH":12901,"imity":12902,"Ġrally":12903,"Ġpolitically":12904,"Ġappealed":12905,"Ġinstructed":12906,"Ġpatrols":12907,"ĠRenaissance":12908,"igrated":12909,"Ġstabil":12910,"ĠGenesis":12911,"otypes":12912,"Ġinsufficient":12913,"ĠHil":12914,"Ġdeals":12915,"ĠStage":12916,"ĠLeigh":12917,"Ġtensions":12918,"endar":12919,"Ġrelating":12920,"Ġstrings":12921,"Ġinstrumentation":12922,"ĠMVP":12923,"ĠExpedition":12924,"GB":12925,"Ġcro":12926,"ĠMoney":12927,"Ġstroke":12928,"Ġenrolled":12929,"Ġtelev":12930,"ĠNewport":12931,"Ġreader":12932,"ĠSoviets":12933,"stown":12934,"Ġstom":12935,"Ġsuited":12936,"Ġinterf":12937,"Ġdiseases":12938,"ĠChandler":12939,"Ġhorizontal":12940,"Ġgraphic":12941,"Ġcats":12942,"monton":12943,"ĠMaxwell":12944,"ĠPhillips":12945,"Ġhurricanes":12946,"Ġraw":12947,"Ġups":12948,"Ġmetall":12949,"ĠPlat":12950,"ĠWWF":12951,"ĠAdelaide":12952,"Ġsin":12953,"ĠFa":12954,"Ġvocalist":12955,"ĠCurtis":12956,"ĠGeoffrey":12957,"omys":12958,"ĠRiley":12959,"ĠHeaven":12960,"iki":12961,"ĠBarrett":12962,"Ġbitter":12963,"Ġreferee":12964,"keley":12965,"ĠNept":12966,"Ġwidow":12967,"Ġslower":12968,"BO":12969,"ĠCool":12970,"Ġanx":12971,"rip":12972,"Ġsubordin":12973,"Ġtermed":12974,"ĠButler":12975,"Ġchapters":12976,"Ġincomple":12977,"Ġreminiscent":12978,"orge":12979,"ĠHanc":12980,"ĠWrest":12981,"ĠChan":12982,"Ġperf":12983,"Ġintersections":12984,"Ġexhibited":12985,"ĠFerdinand":12986,"iary":12987,"Ġdeclaration":12988,"Ġmissile":12989,"ĠKnights":12990,"Ġdigit":12991,"ĠSurrey":12992,"Ġallegations":12993,"Ġmushroom":12994,"anus":12995,"ido":12996,"utonium":12997,"Ġclan":12998,"ĠTherefore":12999,"arma":13000,"Ġwishes":13001,"auna":13002,"Ġextraordin":13003,"ĠEssex":13004,"ouch":13005,"Ġovercome":13006,"ugs":13007,"Ġinvolve":13008,"Ġcounsel":13009,"Ġmistake":13010,"Ġetc":13011,"Ġdiscipline":13012,"Ġhier":13013,"opol":13014,"Ġincred":13015,"ĠPoll":13016,"Ġtactical":13017,"Ġmathematics":13018,"ulk":13019,"ĠSpencer":13020,"otto":13021,"ĠCapital":13022,"Ġdisliked":13023,"ĠAbraham":13024,"ĠPlymouth":13025,"aku":13026,"ĠMadrid":13027,"Ġcultures":13028,"ĠRomans":13029,"ĠGameSpot":13030,"Ġsacrifice":13031,"eta":13032,"ĠFellow":13033,"Ġgallery":13034,"ĠPrison":13035,"cht":13036,"Ġshirt":13037,"Ġinterference":13038,"Ġathletic":13039,"Ġquantities":13040,"ĠCombat":13041,"ĠBlake":13042,"Ġjoins":13043,"ĠLore":13044,"ĠGonz":13045,"Ġhunt":13046,"bery":13047,"Ġsubd":13048,"Ġmodest":13049,"Ġthickness":13050,"ĠMovement":13051,"Ġproceeds":13052,"edar":13053,"ĠCM":13054,"ĠNak":13055,"Ġexpense":13056,"Ġtransit":13057,"Ġsyndrome":13058,"oric":13059,"ĠFur":13060,"ebe":13061,"ĠBurger":13062,"ĠMarcus":13063,"elia":13064,"ĠKerr":13065,"Ġ123":13066,"Ġcircles":13067,"Ġfights":13068,"ĠResident":13069,"Ġcaliber":13070,"Ġnicknamed":13071,"ĠBosnia":13072,"ht":13073,"yc":13074,"atem":13075,"Ġgam":13076,"ĠSche":13077,"Ġsupporter":13078,"ĠContemporary":13079,"uits":13080,"Ġmigration":13081,"ĠLamb":13082,"ĠScreen":13083,"ĠAdrian":13084,"Ġimported":13085,"Ġmachinery":13086,"ĠDaniels":13087,"ĠHancock":13088,"RC":13089,"Ġspores":13090,"Ġassign":13091,"Ġinterviewed":13092,"Ġpanels":13093,"ĠRelations":13094,"Ġlocomotive":13095,"Ġnomine":13096,"ĠBrigadier":13097,"dam":13098,"Ġrepaired":13099,"Ġ141":13100,"heads":13101,"Ġrifle":13102,"ĠCome":13103,"Ġwashed":13104,"Ġgaming":13105,"ĠRight":13106,"ĠâĢ²":13107,"ĠSpit":13108,"ĠAviation":13109,"Ġfatal":13110,"Ġfrog":13111,"ĠFlorence":13112,"Ġresur":13113,"Ġcommentators":13114,"Ġcustody":13115,"Ġfare":13116,"Ġhung":13117,"ĠTales":13118,"Ġbankrupt":13119,"ĠFergus":13120,"Ġshopping":13121,"Ġmolecules":13122,"ĠHond":13123,"Ġunaware":13124,"Ġjoke":13125,"ĠShan":13126,"ĠPublishing":13127,"Ġproximity":13128,"iden":13129,"Ġcontinent":13130,"Ġfluid":13131,"ĠBaldwin":13132,"Ġfinger":13133,"ĠRah":13134,"ĠJeremy":13135,"ĠMC":13136,"ĠKes":13137,"ĠGarc":13138,"ĠAdmiralty":13139,"Ġcurrency":13140,"Ġweld":13141,"Ġmes":13142,"otilla":13143,"Ġshar":13144,"ĠHeath":13145,"cock":13146,"pect":13147,"urers":13148,"imer":13149,"igo":13150,"ĠReading":13151,"Ġcurves":13152,"ĠNorse":13153,"ĠAgricult":13154,"kinson":13155,"ĠUsher":13156,"ĠNobel":13157,"Ġpronounced":13158,"ĠVienna":13159,"Ġredesign":13160,"yan":13161,"Ġfir":13162,"ĠDj":13163,"ĠNL":13164,"ĠHergÃ©":13165,"ĠManning":13166,"ĠJennifer":13167,"ĠArkansas":13168,"ĠPreston":13169,"Ġallocated":13170,"ĠDrum":13171,"ĠLtd":13172,"olith":13173,"Ġbeer":13174,"ĠFlood":13175,"ĠRomania":13176,"ĠMetal":13177,"ĠArticle":13178,"Ġacquire":13179,"ĠContin":13180,"ĠTwenty":13181,"ĠTasman":13182,"Ġsuccessive":13183,"Ġknowing":13184,"Ġseparately":13185,"Ġrulers":13186,"Ġcontested":13187,"ĠBanksia":13188,"athetic":13189,"ĠStories":13190,"ĠView":13191,"Ġundergo":13192,"Ġrelay":13193,"Ġfloors":13194,"itects":13195,"Ġpuzz":13196,"agi":13197,"Ġbetray":13198,"Ġdemanding":13199,"Ġreef":13200,"istle":13201,"Ġpopulated":13202,"Ġaviation":13203,"Ġmemories":13204,"cious":13205,"Ġhatch":13206,"urbs":13207,"ĠLead":13208,"ĠLeban":13209,"Ġwoods":13210,"ĠMcDonald":13211,"xide":13212,"ĠMom":13213,"Ġhect":13214,"Ġpreliminary":13215,"elfth":13216,"Ġdiscussions":13217,"ĠArchitect":13218,"Ġgathering":13219,"Ġmaneuver":13220,"nal":13221,"rint":13222,"ĠSans":13223,"ĠWool":13224,"Ġriot":13225,"Ġdisgu":13226,"ungle":13227,"Ġ1879":13228,"Ġfunk":13229,"agons":13230,"Ġpublish":13231,"Ġnorthwestern":13232,"Ġmim":13233,"ĠBrew":13234,"ĠKem":13235,"Ġinterrupted":13236,"ĠNewfound":13237,"ĠMinogue":13238,"Ġcomparable":13239,"Ġzones":13240,"Ġscrapped":13241,"Ġregardless":13242,"Ġcylinder":13243,"alid":13244,"ĠPent":13245,"ĠJG":13246,"Ġproud":13247,"Ġfarms":13248,"Ġbills":13249,"ĠMcCain":13250,"Ġphotographer":13251,"Ġscreening":13252,"ĠElectronic":13253,"Ġsect":13254,"icular":13255,"Ġdawn":13256,"star":13257,"ĠOrthodox":13258,"ĠBowie":13259,"Ġdemonstrate":13260,"ĠIdol":13261,"ĠChin":13262,"ĠChase":13263,"Ġadvances":13264,"Ġcease":13265,"Ġdiscontinued":13266,"ĠSkinner":13267,"yd":13268,"esses":13269,"ĠAllmusic":13270,"Ġediting":13271,"Ġdamages":13272,"Ġmassacre":13273,"Ġinstallation":13274,"ĠHawaiian":13275,"ĠBengal":13276,"lings":13277,"Ġtourism":13278,"Ġnineteenth":13279,"Ġpaved":13280,"Ġgolf":13281,"Ġchlor":13282,"ĠAdri":13283,"ĠEdmonton":13284,"Ġdynamic":13285,"Ġeditorial":13286,"eward":13287,"ĠCapitol":13288,"Ġally":13289,"ĠLie":13290,"ĠCharacter":13291,"Ġhalted":13292,"Ġtong":13293,"Ġbol":13294,"ĠWa":13295,"ashing":13296,"Ġsporting":13297,"ĠIndustrial":13298,"ĠLancaster":13299,"ĠTall":13300,"arted":13301,"ĠSponge":13302,"Ġsubsidi":13303,"Ġcylind":13304,"ĠNewfoundland":13305,"wind":13306,"osity":13307,"Ġregained":13308,"ĠPerth":13309,"Ġlicensed":13310,"Ġgravity":13311,"ĠTask":13312,"Ġuprising":13313,"ĠSingle":13314,"Ġseemingly":13315,"Ġneighbouring":13316,"Ġtherapy":13317,"nut":13318,"ĠSuff":13319,"ĠEsp":13320,"istence":13321,"Ġchord":13322,"Ġsubtle":13323,"Ġsubsc":13324,"ĠShar":13325,"Ġharbor":13326,"Ġsew":13327,"ĠWald":13328,"Ġunrest":13329,"ologically":13330,"Ġprojected":13331,"ĠSenior":13332,"Ġopted":13333,"Ġcrowned":13334,"ĠSuz":13335,"Ġgrain":13336,"Ġprotecting":13337,"Ġbusy":13338,"Ġcontracted":13339,"Ġdisputes":13340,"ĠTurks":13341,"Ġcitizen":13342,"Ġadministered":13343,"ĠFab":13344,"ĠEqu":13345,"iang":13346,"ĠShadow":13347,"Ġcreates":13348,"Ġlessons":13349,"Ġdescended":13350,"stand":13351,"ĠPorts":13352,"aston":13353,"Ġinstruction":13354,"Ġfunctional":13355,"Ġdeployment":13356,"ĠBeautiful":13357,"Ġanger":13358,"Ġopenly":13359,"Ġmasses":13360,"Ġdescendants":13361,"urse":13362,"Ġtrem":13363,"Ġprivately":13364,"ĠCircuit":13365,"Ġbarely":13366,"lia":13367,"wig":13368,"Ġlip":13369,"ĠHat":13370,"ĠWinc":13371,"Ġcoloured":13372,"Ġregist":13373,"Ġaccomplish":13374,"Ġcaptivity":13375,"Ã¶r":13376,"ĠMotor":13377,"Ġtotally":13378,"Ġcooperation":13379,"pit":13380,"ĠBent":13381,"ĠSenators":13382,"Ġnorthwestward":13383,"Ġdeeper":13384,"ovsky":13385,"Ġperpet":13386,"Ġoverh":13387,"Ġcorridor":13388,"Ġhonest":13389,"Ġsymmet":13390,"Ġvolcano":13391,"Ġjumping":13392,"ĠBuddhist":13393,"ramid":13394,"Ġatmospheric":13395,"ĠMol":13396,"ĠMounted":13397,"ĠLogan":13398,"Ġgenerals":13399,"Ġfarming":13400,"Ġcollision":13401,"ĠCaroline":13402,"onnell":13403,"Ġfluor":13404,"ĠJanet":13405,"Ġoutdoor":13406,"ĠLaf":13407,"anian":13408,"Ġmisc":13409,"aceous":13410,"Ġplanes":13411,"ĠLouise":13412,"Ġrapper":13413,"Ġnecessarily":13414,"Ġdelegation":13415,"Ġsteady":13416,"Ġibn":13417,"Ġchess":13418,"Ġfile":13419,"Ġlux":13420,"ĠGaz":13421,"Ġinvented":13422,"Ġdelays":13423,"Ġlacks":13424,"Ġambitious":13425,"Ġorient":13426,"Ġnests":13427,"Ġgamb":13428,"rosse":13429,"ĠMotion":13430,"ĠAdventures":13431,"front":13432,"guard":13433,"Ġcoalition":13434,"ĠProtection":13435,"isphere":13436,"ĠTiger":13437,"Ġreiss":13438,"Ġconting":13439,"Ġsuburb":13440,"ikh":13441,"blem":13442,"ĠGeneration":13443,"ervers":13444,"Ġeject":13445,"Ġgran":13446,"ĠSierra":13447,"Ġgreet":13448,"imir":13449,"Ġquit":13450,"Ġdeveloper":13451,"Ġmutual":13452,"ĠNashville":13453,"ĠCrom":13454,"ĠMake":13455,"ĠChop":13456,"Ġcream":13457,"Ġfatalities":13458,"achelor":13459,"ĠProductions":13460,"icity":13461,"ĠTrad":13462,"Ġtracking":13463,"Ġdeclaring":13464,"Ġroller":13465,"Ġexcessive":13466,"how":13467,"Ġoak":13468,"Ġmembr":13469,"ĠBot":13470,"ĠBear":13471,"ĠPut":13472,"Ġjoy":13473,"Ġjokes":13474,"AL":13475,"tage":13476,"Ġtrophy":13477,"ĠStore":13478,"Ġpresum":13479,"ĠLynch":13480,"ĠSep":13481,"ĠBuch":13482,"ĠAllMusic":13483,"Ġ270":13484,"rez":13485,"Ġteammates":13486,"ĠOnline":13487,"issa":13488,"ĠPlaza":13489,"ĠEmily":13490,"ĠPalmer":13491,"ĠCommissioner":13492,"zac":13493,"Ġlava":13494,"ĠHous":13495,"ĠShank":13496,"Ġ146":13497,"ĠAirborne":13498,"Ġcopyr":13499,"ĠObserv":13500,"Ġprohibited":13501,"Ġinject":13502,"ĠHoff":13503,"Ġshops":13504,"Ġdivine":13505,"Ġcalm":13506,"ĠBri":13507,"ĠKens":13508,"ĠApart":13509,"ĠParachute":13510,"Ġkeen":13511,"Ġstruggling":13512,"graduate":13513,"ĠNum":13514,"Ġunemploy":13515,"ĠConsequently":13516,"Ġsixty":13517,"Ġrecognize":13518,"lend":13519,"ĠTab":13520,"Ġdecomp":13521,"ĠSpin":13522,"Ġoperator":13523,"ĠParamount":13524,"Ġhonours":13525,"Ġpregnancy":13526,"Ġkitchen":13527,"Ġaggregate":13528,"isans":13529,"Ġgains":13530,"Ġshadow":13531,"ĠHarper":13532,"Ġrealizes":13533,"ficial":13534,"ĠGarfield":13535,"ĠDamage":13536,"eria":13537,"ĠNothing":13538,"ĠKub":13539,"oths":13540,"Ġgenerate":13541,"Ġputs":13542,"ĠBusch":13543,"Ġeliminate":13544,"ĠDrama":13545,"ĠSib":13546,"entric":13547,"Ġcabin":13548,"ĠMaurice":13549,"ĠMaxim":13550,"Ġironcl":13551,"hand":13552,"ãĤ":13553,"ĠCC":13554,"ĠChall":13555,"ogs":13556,"ĠYet":13557,"Ġbackup":13558,"Ġstorylines":13559,"opsis":13560,"ĠChairman":13561,"ĠBod":13562,"anto":13563,"Ġtrigg":13564,"Ġedges":13565,"Ġfindings":13566,"Ġdisappear":13567,"ĠDevon":13568,"Ġmerchants":13569,"ĠHait":13570,"elfare":13571,"Ġoperas":13572,"Ġattractive":13573,"nolds":13574,"Ġdug":13575,"Ġnam":13576,"ĠPall":13577,"lessly":13578,"Ġacquisition":13579,"Ġdraws":13580,"Ġincomplete":13581,"Ġpine":13582,"ĠPi":13583,"ĠJen":13584,"Ġreserved":13585,"Ġunusually":13586,"Ġauction":13587,"oning":13588,"ayette":13589,"Ġarbit":13590,"ĠRegard":13591,"Ġsurfaces":13592,"ĠGriffin":13593,"Ġmemorable":13594,"edge":13595,"ĠRams":13596,"ĠChancellor":13597,"ĠArctic":13598,"Ġmetap":13599,"Ġ1874":13600,"Ġremarkable":13601,"Pa":13602,"ĠFM":13603,"Ġ149":13604,"Ġexperts":13605,"letcher":13606,"ĠGlass":13607,"ĠMyst":13608,"Ġ1848":13609,"ĠPanama":13610,"Ġridic":13611,"Ġproceedings":13612,"Ġstreams":13613,"Ġreversed":13614,"Ġconjunction":13615,"ĠCann":13616,"Ġpackage":13617,"Ġadaptations":13618,"Ġunpop":13619,"Ġcaution":13620,"Ġscenario":13621,"yers":13622,"ĠCN":13623,"ĠMk":13624,"Ġdecomm":13625,"Ġgrants":13626,"Ġelectro":13627,"ĠFranco":13628,"ĠLarge":13629,"Ġperfectly":13630,"Ġchances":13631,"legiate":13632,"ĠSurvey":13633,"Ġruins":13634,"Ġsketch":13635,"Ġhur":13636,"ripp":13637,"Ġsecular":13638,"Ġimpress":13639,"Ġfreed":13640,"Ġrestaurants":13641,"ĠFinnish":13642,"Ġsubstance":13643,"Ġtennis":13644,"Ġminim":13645,"Ġmetropolitan":13646,"Ġkeeps":13647,"Ġsufficiently":13648,"very":13649,"Ġmotorway":13650,"ĠStarting":13651,"list":13652,"ĠGust":13653,"abet":13654,"raid":13655,"Ġclay":13656,"Ġprinc":13657,"ĠMoz":13658,"ĠSpongeB":13659,"ophical":13660,"Ġlobby":13661,"ĠMichelle":13662,"ĠWindsor":13663,"ĠBott":13664,"ĠHolmes":13665,"Ġlifestyle":13666,"Ġworried":13667,"Ġallegedly":13668,"ĠArmenia":13669,"Ġveterans":13670,"Ġpedest":13671,"ndum":13672,"ĠJunction":13673,"ĠKy":13674,"Ġresort":13675,"Ġsoap":13676,"Ġassessed":13677,"Ġmodes":13678,"ĠCarr":13679,"Ġdetached":13680,"ĠSerbs":13681,"Ġemphasized":13682,"ĠJacques":13683,"ĠLindwall":13684,"Ġfloating":13685,"Ġshed":13686,"Ġtransc":13687,"Ġtransp":13688,"Ġdiving":13689,"lew":13690,"ĠNumber":13691,"ĠHeat":13692,"Ġpray":13693,"Ġprogression":13694,"Ġtunnels":13695,"ĠTunnel":13696,"Ġtopic":13697,"ĠFormula":13698,"Ġfestivals":13699,"taining":13700,"Ġhiding":13701,"ĠKoreans":13702,"ĠSoft":13703,"ĠArabic":13704,"ĠTrip":13705,"Ġdemonstration":13706,"Ġtum":13707,"Ġmuzzle":13708,"Ġdors":13709,"ushes":13710,"ĠJur":13711,"Ġspo":13712,"Ġ210":13713,"Ġnights":13714,"ĠToo":13715,"Ġerosion":13716,"Ġincorporates":13717,"ĠSolomon":13718,"Ġloading":13719,"Ġmanifest":13720,"ĠEdwin":13721,"aurus":13722,"ĠBron":13723,"ĠÂµ":13724,"ĠGuatem":13725,"uxili":13726,"Ġclimbing":13727,"ĠAdvance":13728,"Ġplutonium":13729,"Ġspeeches":13730,"ho":13731,"agic":13732,"Ġmonitor":13733,"ĠStarr":13734,"ĠÏ":13735,"rozen":13736,"ĠRandy":13737,"Ġattachment":13738,"ĠPhant":13739,"ĠDoug":13740,"ĠStanford":13741,"ĠMonday":13742,"olades":13743,"ĠHip":13744,"Ġrays":13745,"ĠClaire":13746,"Ġescal":13747,"ĠBerkeley":13748,"Ġfloods":13749,"rolling":13750,"Ġsupplement":13751,"ĠDian":13752,"ocene":13753,"ĠValent":13754,"ĠSuperman":13755,"inguished":13756,"Ġamendment":13757,"ĠSpy":13758,"ĠBooth":13759,"Ġerrors":13760,"Ġdiagnosed":13761,"bus":13762,"Ġtrap":13763,"Ġcentres":13764,"ĠGerald":13765,"ĠPresley":13766,"Ġinternet":13767,"Ġinvestigated":13768,"Ġtended":13769,"Ġranged":13770,"Ġupgrade":13771,"Ġappreciated":13772,"pes":13773,"pow":13774,"Ġoverd":13775,"Ġoverth":13776,"ĠMartha":13777,"Ġmodifications":13778,"Ġparam":13779,"Ġflee":13780,"Ġpleasure":13781,"Ġprosecut":13782,"iability":13783,"orus":13784,"Ġconsul":13785,"ĠReform":13786,"ĠSpiel":13787,"Ġwarrant":13788,"enne":13789,"Ġintroducing":13790,"Ġnaked":13791,"ĠBast":13792,"irk":13793,"ivic":13794,"Ġsty":13795,"umar":13796,"ĠEU":13797,"ĠGuards":13798,"Ġmerger":13799,"Ġcounteratt":13800,"ĠLuis":13801,"ĠLegion":13802,"Ġhaul":13803,"ĠMam":13804,"ĠGy":13805,"Ġconsent":13806,"Ġcameras":13807,"Ã¨re":13808,"ĠPierce":13809,"Ġinhabited":13810,"Ġunst":13811,"Ġgenerations":13812,"Ġlineup":13813,"Ġmobil":13814,"ĠCuban":13815,"iti":13816,"Ġease":13817,"Ġnotion":13818,"Ġsecuring":13819,"Ġ144":13820,"Ġcrust":13821,"Ġcomfortable":13822,"pat":13823,"ĠSold":13824,"ugu":13825,"official":13826,"ĠJennings":13827,"ĠRhodesia":13828,"ĠGabriel":13829,"ĠSue":13830,"Ġnearest":13831,"ĠAugustus":13832,"Ġthoughts":13833,"Ġconfined":13834,"ĠRecre":13835,"Ġhamlet":13836,"penter":13837,"ĠBroadcasting":13838,"ĠBulgaria":13839,"Ġstance":13840,"Ġincons":13841,"Ġenable":13842,"ĠYok":13843,"ĠManor":13844,"Ġ1851":13845,"ĠFinals":13846,"Ġqualify":13847,"Ġthrust":13848,"ĠSoundtrack":13849,"Ġstrengthening":13850,"Ãª":13851,"ĠAur":13852,"imination":13853,"otus":13854,"ema":13855,"Ġorgans":13856,"Ġmetab":13857,"ylum":13858,"Ġsynth":13859,"ĠChapman":13860,"ĠCommercial":13861,"Ġfox":13862,"Ġbonds":13863,"Ġinver":13864,"Ġpushing":13865,"iche":13866,"Ġreads":13867,"ĠDelhi":13868,"Ġmaintains":13869,"ĠSr":13870,"ĠWake":13871,"ĠIrving":13872,"ĠTurnpike":13873,"mate":13874,"Ġitem":13875,"Ġelectoral":13876,"ĠHawk":13877,"birds":13878,"di":13879,"Ġrevel":13880,"ulu":13881,"ĠWarwick":13882,"ĠCollect":13883,"ĠPrice":13884,"Ġstripped":13885,"ĠIllust":13886,"raine":13887,"asi":13888,"ĠCec":13889,"overning":13890,"Ġartif":13891,"Ġwaterline":13892,"ĠAnti":13893,"Ġcolleges":13894,"Ġouts":13895,"Ġmuscle":13896,"ĠGran":13897,"Ġspeaker":13898,"Ġdoubles":13899,"aude":13900,"nor":13901,"rators":13902,"ĠKiss":13903,"Ġembarr":13904,"Ġelderly":13905,"ĠSpongeBob":13906,"stad":13907,"ĠHoll":13908,"ĠWid":13909,"Ġbutt":13910,"Ġcompat":13911,"Ġmonkey":13912,"Ġgraduating":13913,"Ġgrandson":13914,"ĠHopkins":13915,"iop":13916,"tz":13917,"ĠCos":13918,"ĠIC":13919,"Ġampl":13920,"Ġflags":13921,"ĠJeffrey":13922,"ĠSubsequently":13923,"ĠMirror":13924,"houses":13925,"Ġmonks":13926,"ĠGlenn":13927,"Ġensemble":13928,"ĠHayes":13929,"Ġenthusiastic":13930,"iots":13931,"ĠThings":13932,"ĠPrepar":13933,"bing":13934,"istically":13935,"ĠMarath":13936,"hero":13937,"atoes":13938,"erek":13939,"ichi":13940,"veloped":13941,"Ġpreval":13942,"Ġsuccesses":13943,"Ġsacred":13944,"Ġfilter":13945,"Ġlegitimate":13946,"ocaust":13947,"ĠBerry":13948,"ĠTyr":13949,"ĠHM":13950,"Ġcarefully":13951,"ĠSword":13952,"Ġbrigades":13953,"Ġcere":13954,"ĠKath":13955,"ĠEdgar":13956,"Ġstepped":13957,"Ġbarrier":13958,"SA":13959,"Ġphyl":13960,"ĠFletcher":13961,"odon":13962,"Ġcourage":13963,"Ġescapes":13964,"Ġlaying":13965,"Ġlayout":13966,"holm":13967,"ĠBorough":13968,"Ġentertaining":13969,"Ġrookie":13970,"mill":13971,"asse":13972,"Ġtool":13973,"Ġinfected":13974,"Ġmonthly":13975,"ĠManager":13976,"ĠSchw":13977,"Ġsexually":13978,"ĠCrime":13979,"Ġincorporate":13980,"ĠReviews":13981,"ĠLaura":13982,"ĠSpielberg":13983,"mel":13984,"inus":13985,"Ġwitch":13986,"ĠRup":13987,"avour":13988,"Ġexceeded":13989,"Ġeleventh":13990,"Ġrestr":13991,"ĠSouthampton":13992,"ĠKenny":13993,"Ġcompensation":13994,"Ġump":13995,"Ġwounds":13996,"ĠSqu":13997,"ĠSunder":13998,"ĠOber":13999,"Ġhonored":14000,"ĠBelle":14001,"Ġdarkness":14002,"Ġexhaust":14003,"osystem":14004,"anan":14005,"ĠBrandon":14006,"Ġpromising":14007,"Ġ280":14008,"Ġreadily":14009,"Ġfrontier":14010,"Ġsatir":14011,"Ġhealthy":14012,"Ġgenuine":14013,"ĠSaints":14014,"ĠPirates":14015,"Ġschem":14016,"Ġknock":14017,"Ġdefeats":14018,"Ġdefinitely":14019,"ĠPatton":14020,"nan":14021,"Ġsus":14022,"Ġpressed":14023,"Ġconsequently":14024,"enhower":14025,"Ġsoci":14026,"Ġinvitation":14027,"ĠÃģ":14028,"Ġmistaken":14029,"ĠBolton":14030,"ĠBangl":14031,"Ġmonarchy":14032,"erals":14033,"Ġber":14034,"Ġrely":14035,"ĠCave":14036,"ountain":14037,"ĠVenus":14038,"ĠGlobal":14039,"len":14040,"Ġfusion":14041,
[...]
